#ifndef MODELS/AUTOENCODER/AUTOENCODER_MODEL_H
#define MODELS/AUTOENCODER/AUTOENCODER_MODEL_H


unsigned int Models/Autoencoder/autoencoder_model_len = 18744;
unsigned char Models/Autoencoder/autoencoder_model[] = {
 0x1c, 0x00, 0x00, 0x00, 0x54, 0x46, 0x4c, 0x33, 0x14, 0x00, 0x20, 0x00,
  0x1c, 0x00, 0x18, 0x00, 0x14, 0x00, 0x10, 0x00, 0x0c, 0x00, 0x00, 0x00,
  0x08, 0x00, 0x04, 0x00, 0x14, 0x00, 0x00, 0x00, 0x1c, 0x00, 0x00, 0x00,
  0x84, 0x00, 0x00, 0x00, 0xdc, 0x00, 0x00, 0x00, 0x7c, 0x3d, 0x00, 0x00,
  0x8c, 0x3d, 0x00, 0x00, 0xd4, 0x48, 0x00, 0x00, 0x03, 0x00, 0x00, 0x00,
  0x01, 0x00, 0x00, 0x00, 0x04, 0x00, 0x00, 0x00, 0x2a, 0xc2, 0xff, 0xff,
  0x0c, 0x00, 0x00, 0x00, 0x1c, 0x00, 0x00, 0x00, 0x3c, 0x00, 0x00, 0x00,
  0x0f, 0x00, 0x00, 0x00, 0x73, 0x65, 0x72, 0x76, 0x69, 0x6e, 0x67, 0x5f,
  0x64, 0x65, 0x66, 0x61, 0x75, 0x6c, 0x74, 0x00, 0x01, 0x00, 0x00, 0x00,
  0x04, 0x00, 0x00, 0x00, 0x98, 0xff, 0xff, 0xff, 0x13, 0x00, 0x00, 0x00,
  0x04, 0x00, 0x00, 0x00, 0x08, 0x00, 0x00, 0x00, 0x6f, 0x75, 0x74, 0x70,
  0x75, 0x74, 0x5f, 0x31, 0x00, 0x00, 0x00, 0x00, 0x01, 0x00, 0x00, 0x00,
  0x04, 0x00, 0x00, 0x00, 0x46, 0xc3, 0xff, 0xff, 0x04, 0x00, 0x00, 0x00,
  0x07, 0x00, 0x00, 0x00, 0x69, 0x6e, 0x70, 0x75, 0x74, 0x5f, 0x31, 0x00,
  0x02, 0x00, 0x00, 0x00, 0x34, 0x00, 0x00, 0x00, 0x04, 0x00, 0x00, 0x00,
  0xdc, 0xff, 0xff, 0xff, 0x16, 0x00, 0x00, 0x00, 0x04, 0x00, 0x00, 0x00,
  0x13, 0x00, 0x00, 0x00, 0x43, 0x4f, 0x4e, 0x56, 0x45, 0x52, 0x53, 0x49,
  0x4f, 0x4e, 0x5f, 0x4d, 0x45, 0x54, 0x41, 0x44, 0x41, 0x54, 0x41, 0x00,
  0x08, 0x00, 0x0c, 0x00, 0x08, 0x00, 0x04, 0x00, 0x08, 0x00, 0x00, 0x00,
  0x15, 0x00, 0x00, 0x00, 0x04, 0x00, 0x00, 0x00, 0x13, 0x00, 0x00, 0x00,
  0x6d, 0x69, 0x6e, 0x5f, 0x72, 0x75, 0x6e, 0x74, 0x69, 0x6d, 0x65, 0x5f,
  0x76, 0x65, 0x72, 0x73, 0x69, 0x6f, 0x6e, 0x00, 0x17, 0x00, 0x00, 0x00,
  0x9c, 0x3c, 0x00, 0x00, 0x94, 0x3c, 0x00, 0x00, 0x44, 0x3c, 0x00, 0x00,
  0xac, 0x3b, 0x00, 0x00, 0x90, 0x3b, 0x00, 0x00, 0x00, 0x3b, 0x00, 0x00,
  0xb0, 0x3a, 0x00, 0x00, 0xa0, 0x39, 0x00, 0x00, 0x90, 0x36, 0x00, 0x00,
  0x80, 0x16, 0x00, 0x00, 0x70, 0x0e, 0x00, 0x00, 0x60, 0x0a, 0x00, 0x00,
  0x50, 0x02, 0x00, 0x00, 0xc0, 0x00, 0x00, 0x00, 0xb8, 0x00, 0x00, 0x00,
  0xb0, 0x00, 0x00, 0x00, 0xa8, 0x00, 0x00, 0x00, 0xa0, 0x00, 0x00, 0x00,
  0x98, 0x00, 0x00, 0x00, 0x90, 0x00, 0x00, 0x00, 0x88, 0x00, 0x00, 0x00,
  0x68, 0x00, 0x00, 0x00, 0x04, 0x00, 0x00, 0x00, 0x16, 0xc4, 0xff, 0xff,
  0x04, 0x00, 0x00, 0x00, 0x54, 0x00, 0x00, 0x00, 0x0c, 0x00, 0x00, 0x00,
  0x08, 0x00, 0x0e, 0x00, 0x08, 0x00, 0x04, 0x00, 0x08, 0x00, 0x00, 0x00,
  0x10, 0x00, 0x00, 0x00, 0x24, 0x00, 0x00, 0x00, 0x00, 0x00, 0x06, 0x00,
  0x08, 0x00, 0x04, 0x00, 0x06, 0x00, 0x00, 0x00, 0x04, 0x00, 0x00, 0x00,
  0x00, 0x00, 0x00, 0x00, 0x00, 0x00, 0x0a, 0x00, 0x10, 0x00, 0x0c, 0x00,
  0x08, 0x00, 0x04, 0x00, 0x0a, 0x00, 0x00, 0x00, 0x02, 0x00, 0x00, 0x00,
  0x02, 0x00, 0x00, 0x00, 0x04, 0x00, 0x00, 0x00, 0x06, 0x00, 0x00, 0x00,
  0x32, 0x2e, 0x31, 0x35, 0x2e, 0x30, 0x00, 0x00, 0x76, 0xc4, 0xff, 0xff,
  0x04, 0x00, 0x00, 0x00, 0x10, 0x00, 0x00, 0x00, 0x31, 0x2e, 0x31, 0x34,
  0x2e, 0x30, 0x00, 0x00, 0x00, 0x00, 0x00, 0x00, 0x00, 0x00, 0x00, 0x00,
  0x0c, 0xb9, 0xff, 0xff, 0x10, 0xb9, 0xff, 0xff, 0x14, 0xb9, 0xff, 0xff,
  0x18, 0xb9, 0xff, 0xff, 0x1c, 0xb9, 0xff, 0xff, 0x20, 0xb9, 0xff, 0xff,
  0x24, 0xb9, 0xff, 0xff, 0xae, 0xc4, 0xff, 0xff, 0x04, 0x00, 0x00, 0x00,
  0x80, 0x01, 0x00, 0x00, 0x10, 0x74, 0xbf, 0xbd, 0xdc, 0x91, 0x4e, 0x3d,
  0xce, 0x31, 0x81, 0x3e, 0x66, 0x47, 0xe1, 0x3e, 0x65, 0x84, 0xab, 0xbe,
  0xe6, 0xc7, 0x22, 0xbe, 0x24, 0x48, 0x0c, 0xbd, 0xd0, 0x20, 0xca, 0xbe,
  0xd6, 0x16, 0x67, 0x3e, 0x95, 0x89, 0x9b, 0x3d, 0xfc, 0xc2, 0x9c, 0x3e,
  0x75, 0xa6, 0xcc, 0x3e, 0x97, 0x3d, 0x7c, 0x3e, 0x40, 0xd6, 0xa3, 0xbb,
  0x3b, 0xcd, 0xc0, 0x3e, 0x46, 0x3e, 0x78, 0x3e, 0xb4, 0x5f, 0x5f, 0x3e,
  0x61, 0x49, 0x9a, 0xbd, 0xda, 0x81, 0xe5, 0xbc, 0x76, 0x23, 0xb6, 0x3d,
  0x8a, 0x43, 0xaa, 0xbe, 0x0f, 0x73, 0x32, 0xbe, 0x28, 0xbf, 0xda, 0xbd,
  0x13, 0x1f, 0xce, 0xbd, 0x8f, 0x1f, 0x4b, 0xbd, 0xf7, 0xae, 0xff, 0x3d,
  0x44, 0xea, 0x87, 0xbe, 0xd0, 0xec, 0xec, 0xbc, 0x6c, 0x83, 0xfe, 0xbc,
  0x71, 0x16, 0x7c, 0x3d, 0xeb, 0x2c, 0x25, 0xbc, 0xb8, 0xab, 0x76, 0xbd,
  0x9c, 0xd2, 0x66, 0xbe, 0xae, 0x06, 0x51, 0xbe, 0x94, 0x60, 0x77, 0xbe,
  0xe9, 0x2c, 0x5c, 0x3e, 0x83, 0x15, 0xa9, 0xbd, 0x4b, 0x45, 0x42, 0xbe,
  0x69, 0xe3, 0x37, 0xbe, 0x08, 0x0a, 0x80, 0x3e, 0x80, 0x39, 0xff, 0xbd,
  0xb7, 0x54, 0x51, 0xbe, 0x0a, 0x87, 0xa0, 0xbe, 0x97, 0xe4, 0x98, 0x3e,
  0xa8, 0x28, 0x3d, 0xbc, 0xf4, 0xe6, 0x94, 0xbd, 0xf7, 0x82, 0xbf, 0x3e,
  0x74, 0x8d, 0x76, 0xbe, 0x56, 0x70, 0x50, 0x3e, 0x4d, 0x4e, 0x98, 0xbe,
  0x1e, 0xeb, 0x12, 0xbe, 0x35, 0x16, 0x2e, 0x3e, 0x6c, 0x54, 0x0e, 0x3d,
  0x39, 0x00, 0xc2, 0x3d, 0x1f, 0xa2, 0x84, 0x3e, 0x05, 0x8b, 0x5e, 0xbe,
  0x7f, 0xc2, 0x1b, 0xbe, 0x81, 0x8a, 0x9a, 0xbd, 0x21, 0x16, 0x72, 0x3e,
  0x02, 0xd6, 0xc3, 0xbe, 0xf0, 0x1a, 0x87, 0x3e, 0x2d, 0xc4, 0x12, 0xbe,
  0x89, 0x88, 0xa4, 0xbe, 0x72, 0xbf, 0x44, 0x3e, 0xd5, 0x70, 0x44, 0xbe,
  0xec, 0xb9, 0xde, 0x3e, 0xa5, 0xf1, 0x7c, 0xbd, 0x8b, 0x84, 0xa8, 0xbb,
  0x83, 0xaa, 0xf4, 0x3d, 0xe0, 0x81, 0x25, 0x3d, 0x6f, 0xc4, 0xc4, 0x3e,
  0x9a, 0x7e, 0x83, 0x3e, 0x89, 0x9a, 0xb2, 0x3e, 0xa6, 0x05, 0x08, 0x3f,
  0x1f, 0x01, 0xf6, 0x3e, 0xb7, 0x10, 0x43, 0xbe, 0xde, 0x2a, 0x30, 0x3e,
  0x80, 0x64, 0xaa, 0xbc, 0xa9, 0x64, 0xd0, 0xbe, 0xd1, 0x5b, 0x5f, 0xbe,
  0x90, 0xe7, 0x4a, 0x3c, 0x36, 0x91, 0xa7, 0xbd, 0xeb, 0xb5, 0x84, 0x3d,
  0x21, 0x60, 0x45, 0xbe, 0xfa, 0x9e, 0xf9, 0x3e, 0x95, 0x8c, 0x02, 0x3f,
  0x55, 0xda, 0xff, 0x3e, 0xa9, 0x79, 0xdf, 0x3e, 0x37, 0xcd, 0x39, 0x3d,
  0x74, 0x99, 0x8c, 0x3e, 0xc9, 0x27, 0xa9, 0x3e, 0xce, 0x25, 0x7f, 0x3e,
  0x34, 0x0d, 0xb9, 0x3d, 0x17, 0xdf, 0x34, 0x3e, 0x3b, 0xd7, 0x98, 0x3e,
  0x41, 0x46, 0xb0, 0x3e, 0x3a, 0xc6, 0xff, 0xff, 0x04, 0x00, 0x00, 0x00,
  0x00, 0x08, 0x00, 0x00, 0xd5, 0x02, 0x0e, 0xbe, 0xe0, 0xcf, 0xae, 0x3c,
  0xd0, 0xc4, 0x36, 0xbd, 0x29, 0x88, 0x92, 0x3e, 0x89, 0x37, 0x95, 0x3e,
  0x58, 0x0e, 0xc6, 0xbd, 0x58, 0x9f, 0xce, 0x3d, 0x20, 0x09, 0x5f, 0xbe,
  0xc0, 0x77, 0x90, 0xbe, 0x55, 0xdc, 0x24, 0xbe, 0xee, 0xc0, 0x78, 0xbe,
  0x30, 0x15, 0xb7, 0x3c, 0xdd, 0x34, 0x0e, 0xbe, 0xa0, 0x2b, 0x0b, 0xbc,
  0x51, 0x49, 0xa3, 0x3e, 0x99, 0x99, 0x89, 0x3e, 0xfe, 0xb5, 0x15, 0xbe,
  0x7c, 0x39, 0x88, 0xbd, 0x25, 0xc6, 0x70, 0xbe, 0xc0, 0x06, 0xd3, 0xbc,
  0x98, 0x38, 0x79, 0x3e, 0x1b, 0xbf, 0xa2, 0x3e, 0x65, 0xd3, 0x88, 0xbe,
  0x9f, 0x6c, 0xb1, 0x3e, 0xd5, 0x79, 0x85, 0x3e, 0x12, 0xe8, 0x58, 0x3e,
  0x60, 0xfb, 0x9e, 0xbc, 0x1c, 0x63, 0xb5, 0x3d, 0xdd, 0x5b, 0xdc, 0x3d,
  0x91, 0xf8, 0xe5, 0xbd, 0xb6, 0x7a, 0xdf, 0xbd, 0x28, 0x49, 0x59, 0x3e,
  0x8d, 0xb3, 0x28, 0xbc, 0x31, 0x62, 0xae, 0x3e, 0xef, 0xd1, 0x46, 0xbc,
  0x80, 0xb8, 0xcb, 0x3c, 0xd6, 0x1a, 0x05, 0x3e, 0x60, 0x78, 0xdb, 0x3c,
  0x66, 0x76, 0x1b, 0x3e, 0xdf, 0x3c, 0xa4, 0x3e, 0x07, 0x26, 0x0c, 0x3e,
  0x28, 0xdb, 0x2a, 0x3d, 0xcd, 0x8f, 0xcf, 0xbe, 0x59, 0x7b, 0x8e, 0xbe,
  0x3d, 0xf8, 0x8b, 0xbe, 0xab, 0x38, 0xcc, 0x3e, 0x15, 0xc1, 0x9d, 0x3e,
  0x1d, 0xda, 0x81, 0x3d, 0x83, 0x5b, 0x9f, 0x3e, 0x91, 0xbf, 0x8d, 0x3d,
  0xea, 0x1a, 0x70, 0x3e, 0x1c, 0x73, 0x80, 0x3d, 0xbb, 0x49, 0x25, 0xbe,
  0xaa, 0xab, 0x9f, 0xbe, 0xe0, 0xc6, 0x05, 0xbd, 0xaf, 0x55, 0x53, 0x3e,
  0x4e, 0xf8, 0x50, 0x3e, 0x2f, 0xd2, 0x18, 0xbe, 0xd7, 0x1d, 0xc5, 0xbd,
  0x6a, 0x83, 0x85, 0x3e, 0x86, 0x2e, 0x98, 0x3c, 0x2d, 0xa4, 0xb8, 0x3d,
  0x8d, 0x10, 0x02, 0xbe, 0xfb, 0xe4, 0x66, 0xbe, 0xb2, 0x12, 0x9a, 0x3e,
  0xff, 0x65, 0x52, 0xbe, 0xb4, 0x79, 0xb3, 0xbc, 0xb6, 0x4a, 0x03, 0x3e,
  0xcf, 0x50, 0xac, 0xbe, 0x07, 0x0a, 0xb4, 0x3e, 0x33, 0x22, 0x86, 0x3e,
  0xce, 0x14, 0xec, 0x3d, 0x25, 0x18, 0x9e, 0xbe, 0x75, 0x60, 0xab, 0x3e,
  0xfa, 0x6c, 0xb4, 0x3e, 0xf7, 0x1f, 0x51, 0x3e, 0x77, 0x1d, 0xc8, 0xbc,
  0xe9, 0x32, 0xb0, 0xbe, 0xd9, 0xdc, 0xe3, 0xbd, 0x46, 0x63, 0x5d, 0x3e,
  0xf0, 0x9f, 0xd0, 0x3c, 0x98, 0xa8, 0x40, 0xbd, 0xbe, 0xc3, 0x98, 0xbe,
  0x24, 0x7f, 0x10, 0xbe, 0xf4, 0x81, 0xc9, 0x3d, 0xf2, 0x9c, 0xff, 0xbd,
  0x58, 0x9f, 0x39, 0xbd, 0x70, 0xea, 0xa8, 0xbc, 0x72, 0x84, 0x21, 0x3e,
  0xc2, 0xc9, 0x61, 0xbe, 0x2e, 0xe0, 0x7c, 0x3e, 0xdc, 0xb9, 0xd3, 0xbd,
  0xee, 0x4e, 0x3d, 0x3e, 0x9e, 0x1b, 0x37, 0x3e, 0x3a, 0x2d, 0x86, 0xbe,
  0x94, 0x5d, 0xfd, 0x3d, 0xfd, 0x9e, 0xd7, 0xbd, 0x4d, 0x8b, 0x24, 0xbd,
  0x8a, 0x91, 0x70, 0x3e, 0x1a, 0xf9, 0x84, 0xbe, 0x12, 0xf0, 0x68, 0xbe,
  0x1c, 0x8c, 0xae, 0x3d, 0x20, 0xae, 0xb5, 0xbd, 0xd6, 0x42, 0xb5, 0x3e,
  0xb7, 0xcc, 0x93, 0xbe, 0xe1, 0x2d, 0x50, 0x3e, 0xf9, 0xf9, 0x93, 0x3d,
  0xf6, 0xf5, 0x85, 0x3d, 0x96, 0xae, 0xc8, 0x3d, 0xcd, 0x08, 0x98, 0x3e,
  0x0a, 0x7d, 0xc9, 0x3d, 0xe2, 0x09, 0x17, 0xbe, 0xad, 0x81, 0x0a, 0xbe,
  0xe3, 0xff, 0x55, 0x3c, 0x11, 0x60, 0x2d, 0x3e, 0x6a, 0x5b, 0x0b, 0xbe,
  0x5d, 0xc6, 0xa8, 0x3d, 0x30, 0xbf, 0xd7, 0x3d, 0x55, 0xf3, 0x82, 0x3e,
  0x9d, 0x77, 0xfe, 0xbc, 0xf7, 0x15, 0x33, 0xbe, 0x1f, 0x6c, 0x9a, 0xbe,
  0x3f, 0x6e, 0xde, 0x3e, 0xc3, 0x15, 0x56, 0x3e, 0xa5, 0x9f, 0x6c, 0xbe,
  0xc6, 0x34, 0x6e, 0xbc, 0xf7, 0x2f, 0x55, 0x3e, 0x25, 0xdc, 0x8c, 0x3e,
  0xbb, 0x3f, 0x68, 0xbe, 0x1f, 0x43, 0x26, 0xbe, 0x75, 0xb3, 0xac, 0xbe,
  0x64, 0x3f, 0xf5, 0x3d, 0x51, 0x3a, 0xae, 0x3e, 0x46, 0x0a, 0xb1, 0xbe,
  0x18, 0xe9, 0x0b, 0x3d, 0x0a, 0x19, 0x8f, 0x3e, 0x2f, 0x4e, 0x06, 0xbe,
  0xb3, 0x43, 0x96, 0x3e, 0x26, 0x65, 0xe3, 0xbd, 0x35, 0x16, 0xed, 0x3d,
  0xde, 0xc2, 0xd4, 0x3d, 0x0c, 0x01, 0x89, 0xbc, 0xce, 0x53, 0x18, 0x3e,
  0x8e, 0xbe, 0x23, 0x3e, 0xe0, 0x5c, 0x8b, 0xbe, 0x40, 0x68, 0x0b, 0x3d,
  0x31, 0x50, 0x1e, 0x3e, 0xd6, 0xf1, 0xfc, 0xbd, 0x1a, 0x9c, 0x95, 0xbe,
  0x93, 0xc6, 0x2f, 0xbe, 0x80, 0x1f, 0x6e, 0x3b, 0x74, 0x21, 0x80, 0x3e,
  0x95, 0x08, 0xad, 0xbc, 0x34, 0x63, 0x14, 0x3e, 0x93, 0xbf, 0x92, 0x3e,
  0x8b, 0x7e, 0x82, 0x3e, 0x66, 0x8d, 0xc3, 0x3e, 0xc5, 0xcf, 0x22, 0xbd,
  0xa2, 0x85, 0x47, 0x3c, 0x2b, 0x8c, 0xa8, 0x3d, 0x3a, 0x2c, 0x90, 0x3e,
  0xca, 0x1d, 0x97, 0xbe, 0xb7, 0x76, 0x44, 0x3e, 0x72, 0xda, 0x32, 0x3e,
  0x75, 0x03, 0x43, 0x3d, 0x9c, 0xb1, 0xb5, 0xbd, 0xab, 0xd6, 0xa3, 0x3e,
  0x58, 0x6a, 0x7e, 0x3e, 0x3a, 0x85, 0x42, 0xbd, 0x47, 0x24, 0x54, 0x3e,
  0x0d, 0x8f, 0xc6, 0xbe, 0xa5, 0x91, 0xab, 0xbd, 0xca, 0xe2, 0xa1, 0xbd,
  0x2a, 0xe6, 0xf9, 0x3e, 0x88, 0x0d, 0x1c, 0x3e, 0xd0, 0x62, 0x82, 0xbd,
  0x21, 0xaa, 0x34, 0xbe, 0xf3, 0x26, 0xb4, 0x3e, 0xb8, 0x70, 0x8f, 0xbe,
  0x76, 0x40, 0x2c, 0xbe, 0x00, 0x59, 0xe1, 0x3d, 0x28, 0x39, 0xab, 0x3d,
  0x12, 0x7c, 0x14, 0xbe, 0x3c, 0x88, 0xb2, 0xbe, 0x20, 0x0f, 0x83, 0xbc,
  0x4a, 0x85, 0x64, 0x3e, 0x0d, 0x53, 0xa5, 0x3e, 0x4a, 0x20, 0x06, 0xbe,
  0x3a, 0x24, 0x6e, 0xbe, 0xe4, 0x44, 0x50, 0xbe, 0xb9, 0x29, 0xb4, 0xbe,
  0xa9, 0x2b, 0x3a, 0xbe, 0x36, 0xd0, 0x16, 0xbe, 0x5e, 0x31, 0x09, 0xbe,
  0xe6, 0x7e, 0x6a, 0x3d, 0x3e, 0x14, 0x71, 0x3e, 0x72, 0xee, 0x3f, 0xbe,
  0x24, 0x09, 0xbf, 0xbd, 0x0f, 0x09, 0xa2, 0x3e, 0x33, 0x5a, 0xf7, 0x3d,
  0x0b, 0x23, 0xc3, 0x3e, 0x4d, 0x5c, 0x29, 0x3c, 0x5d, 0x86, 0xe0, 0xbe,
  0xec, 0x56, 0x1c, 0xbc, 0x2d, 0x7d, 0x56, 0x3e, 0x9a, 0xc5, 0xc1, 0x3e,
  0x10, 0x20, 0xf6, 0xbe, 0xed, 0x2f, 0xb5, 0xbe, 0x07, 0x51, 0xa9, 0x3e,
  0xa8, 0xc2, 0xaf, 0x3d, 0xe6, 0x79, 0xa8, 0xbe, 0xd9, 0xc6, 0xa7, 0xbe,
  0x00, 0xa6, 0xe0, 0x3a, 0xe0, 0x09, 0xd0, 0x3d, 0xa4, 0xf3, 0x80, 0x3d,
  0x2d, 0x30, 0x45, 0xbe, 0xcb, 0x53, 0x97, 0xbe, 0x42, 0xbc, 0x16, 0x3e,
  0x56, 0x6d, 0x74, 0xbe, 0xb4, 0xa9, 0xdf, 0xbd, 0x5c, 0x07, 0x63, 0xbe,
  0x72, 0x14, 0x78, 0x3e, 0x53, 0x27, 0x97, 0x3e, 0xcd, 0x99, 0xb2, 0x3e,
  0x63, 0x17, 0xab, 0xbe, 0xc6, 0x04, 0x31, 0x3e, 0xfe, 0xea, 0x89, 0xbe,
  0x33, 0x47, 0xa6, 0x3e, 0x46, 0x6d, 0x6c, 0x3e, 0x54, 0xc5, 0x80, 0xbe,
  0x2d, 0x56, 0x68, 0xbe, 0x20, 0x24, 0x8d, 0xbc, 0x00, 0xb5, 0x88, 0x3c,
  0x68, 0x42, 0x8d, 0x3d, 0x7c, 0x65, 0x93, 0xbe, 0x02, 0xf5, 0x68, 0x3e,
  0xe8, 0xf1, 0xd1, 0xbd, 0x0a, 0x68, 0x59, 0x3e, 0x40, 0xf3, 0x8e, 0xbd,
  0x63, 0xb2, 0xaf, 0x3e, 0x2e, 0x43, 0xb0, 0xbe, 0x3c, 0xa1, 0xd5, 0x3d,
  0xf0, 0xa1, 0xb3, 0xbe, 0x58, 0x0c, 0xd0, 0xbd, 0xb4, 0x7f, 0xe3, 0xbd,
  0xc8, 0xcf, 0x46, 0xbd, 0x64, 0xdc, 0xd4, 0xbd, 0xf8, 0xd9, 0xb0, 0xbd,
  0xb0, 0xed, 0x83, 0xbc, 0x42, 0x41, 0x48, 0x3e, 0x99, 0x07, 0x92, 0x3e,
  0xcb, 0xc1, 0xa0, 0x3e, 0x60, 0xe2, 0xa1, 0xbd, 0xf2, 0xcf, 0x44, 0x3e,
  0x85, 0x26, 0xb4, 0x3e, 0x59, 0x88, 0xa1, 0x3e, 0x72, 0x0c, 0x67, 0xbe,
  0x2a, 0x52, 0x8a, 0x3e, 0xc1, 0xc3, 0x80, 0x3e, 0x28, 0xfc, 0x4f, 0x3d,
  0xa6, 0xb8, 0xb5, 0xbe, 0x52, 0xbb, 0x1f, 0xbe, 0xcd, 0xe8, 0x94, 0x3e,
  0x68, 0xea, 0xd5, 0xbd, 0xfb, 0xd8, 0xb6, 0x3e, 0x1c, 0x55, 0x92, 0x3d,
  0xa4, 0x9f, 0x7f, 0x3d, 0xde, 0x30, 0x23, 0x3e, 0x60, 0xd3, 0x68, 0x3e,
  0x7c, 0x44, 0xca, 0x3e, 0xfd, 0x99, 0x31, 0xbe, 0x3c, 0x65, 0x67, 0x3e,
  0x88, 0x7e, 0x73, 0x3e, 0x22, 0x8e, 0xa7, 0xbe, 0x6d, 0xbd, 0x05, 0x3e,
  0xbb, 0x59, 0x25, 0xbe, 0xe5, 0xc3, 0x28, 0xbe, 0x82, 0xa1, 0x7b, 0x3e,
  0x8a, 0x38, 0x11, 0x3e, 0x29, 0xec, 0x8c, 0xbe, 0x8b, 0x69, 0x5f, 0xbe,
  0xdd, 0x7c, 0x90, 0x3e, 0x24, 0x7c, 0xc1, 0xbe, 0x37, 0xad, 0xb8, 0xbe,
  0x26, 0x20, 0xda, 0x3d, 0xaf, 0x19, 0x12, 0x3e, 0x02, 0xad, 0xc1, 0x3e,
  0xd9, 0x5f, 0x52, 0x3e, 0x6a, 0x10, 0xa6, 0xbe, 0x58, 0x7d, 0x3a, 0xbe,
  0x01, 0x4b, 0xeb, 0x3c, 0xce, 0x2d, 0x7d, 0xbe, 0x0d, 0x76, 0xaa, 0xbe,
  0x80, 0xfc, 0x99, 0xbc, 0x45, 0xde, 0x92, 0x3e, 0x62, 0x0c, 0x1c, 0x3d,
  0x1e, 0x4e, 0x12, 0xbd, 0x3d, 0xc8, 0xa6, 0x3e, 0xc9, 0x89, 0xe9, 0xbd,
  0x8d, 0xf4, 0x64, 0x3e, 0x6c, 0x20, 0xf4, 0xbc, 0x2a, 0x52, 0x47, 0x3e,
  0xb7, 0xc4, 0x90, 0x3e, 0xf1, 0x89, 0x85, 0xbe, 0x1b, 0xa9, 0xd1, 0xba,
  0x6b, 0xa9, 0xa1, 0xbe, 0x5e, 0x4f, 0xa8, 0x3e, 0x09, 0xde, 0x82, 0xbe,
  0x88, 0x0f, 0x25, 0x3e, 0x8b, 0x3e, 0x85, 0xbe, 0xf0, 0x4c, 0x8e, 0xbe,
  0xf7, 0xee, 0x46, 0xbe, 0xe2, 0x0c, 0xa6, 0x3e, 0x65, 0x58, 0x91, 0x3e,
  0xb8, 0xc4, 0x09, 0xbe, 0x70, 0xbc, 0x9f, 0xbe, 0xc5, 0x3f, 0x07, 0x3f,
  0x45, 0x6b, 0xc4, 0x3e, 0x9d, 0xfa, 0x10, 0xbd, 0x41, 0x5b, 0x23, 0x3d,
  0xcb, 0x48, 0x3c, 0x3e, 0x12, 0x06, 0x01, 0x3e, 0x03, 0xdc, 0x86, 0x3d,
  0x58, 0xa6, 0x73, 0x3d, 0x33, 0x1a, 0x0f, 0xbe, 0x87, 0x99, 0x87, 0xbe,
  0x22, 0xa0, 0x0c, 0xbe, 0x2c, 0x28, 0x51, 0xbe, 0xc2, 0xf6, 0xb6, 0x3e,
  0xe9, 0x59, 0x17, 0xbe, 0xd3, 0xdd, 0xf5, 0x3e, 0xdf, 0x04, 0xe0, 0x3e,
  0xd2, 0x58, 0x77, 0x3e, 0xa6, 0x42, 0x99, 0xbe, 0xb5, 0x12, 0x56, 0x3b,
  0x7b, 0x24, 0x91, 0x3e, 0xe4, 0x03, 0xb7, 0x3e, 0x9b, 0x6b, 0x79, 0x3c,
  0x2e, 0x84, 0x81, 0x3e, 0xe5, 0x99, 0xa6, 0x3e, 0xb5, 0xe6, 0x94, 0x3e,
  0x00, 0x84, 0xa8, 0x3b, 0xe8, 0x80, 0x83, 0xbd, 0xd4, 0x45, 0xb1, 0x3e,
  0x18, 0x8b, 0xc6, 0x3d, 0x9c, 0xd3, 0x88, 0xbd, 0xd8, 0xfd, 0x0b, 0xbe,
  0x7e, 0xa1, 0xb6, 0x3e, 0x55, 0x28, 0x64, 0xbe, 0xb3, 0x8d, 0x82, 0xbd,
  0xc6, 0x28, 0x86, 0xbe, 0xe9, 0xc2, 0x92, 0xba, 0x1e, 0x69, 0xb8, 0x3e,
  0xdf, 0xb5, 0xa6, 0xbe, 0x6f, 0x98, 0x27, 0xbd, 0xa4, 0x18, 0xb0, 0xbe,
  0xb5, 0x04, 0x0b, 0xbe, 0x91, 0xd5, 0xa5, 0x3e, 0x00, 0x29, 0xb2, 0xbd,
  0xbb, 0x52, 0xa1, 0x3e, 0xae, 0x44, 0xba, 0x3e, 0x6d, 0xa0, 0x78, 0xbe,
  0xab, 0xd6, 0x03, 0x3d, 0x22, 0xcc, 0x3e, 0x3e, 0x3c, 0xcc, 0xe6, 0x3e,
  0xa6, 0xd5, 0x01, 0x3e, 0x8d, 0xb3, 0x4f, 0x3e, 0xf8, 0xc4, 0xff, 0x3d,
  0x6a, 0x1d, 0xbc, 0xbd, 0x51, 0x68, 0x04, 0xbe, 0x3f, 0xe0, 0x00, 0x3e,
  0xdd, 0x89, 0x97, 0x3e, 0xf8, 0xde, 0xd4, 0x3c, 0xf9, 0xd5, 0x9d, 0x3e,
  0xf8, 0x46, 0x08, 0xbe, 0x78, 0xba, 0xa3, 0x3e, 0xb0, 0x30, 0x64, 0x3e,
  0x82, 0xbf, 0x98, 0x3e, 0xfc, 0xc7, 0xd8, 0x3c, 0x74, 0xd3, 0x46, 0x3e,
  0x69, 0xbd, 0xc1, 0x3e, 0xf5, 0xbe, 0x4a, 0xbd, 0x98, 0xe7, 0x66, 0x3e,
  0x34, 0x4e, 0xff, 0xbc, 0x4c, 0x20, 0x6a, 0x3d, 0xfa, 0xa9, 0x8f, 0x3e,
  0xed, 0x2d, 0x6f, 0x3d, 0x2a, 0x1c, 0x04, 0xbe, 0xfb, 0xb7, 0xeb, 0x3d,
  0x3a, 0x3c, 0x69, 0xbe, 0x60, 0x7f, 0x4d, 0xbc, 0xd5, 0x10, 0x2e, 0x3e,
  0x2c, 0x74, 0xb9, 0xbe, 0x77, 0x56, 0x93, 0xbe, 0xa1, 0xac, 0x84, 0xbe,
  0x37, 0xd4, 0x60, 0x3e, 0xef, 0xd9, 0x9f, 0xbd, 0xf0, 0xf3, 0xc0, 0x3d,
  0x6a, 0x21, 0xb7, 0x3e, 0xfb, 0x93, 0x0b, 0x3e, 0x37, 0x17, 0x9a, 0xbe,
  0xb5, 0xcd, 0x8c, 0xbe, 0x6f, 0x71, 0xb4, 0xbe, 0x4c, 0x6a, 0xbb, 0xbd,
  0x48, 0xc9, 0xf8, 0xbd, 0xf4, 0x0e, 0x2e, 0xbe, 0x40, 0xf1, 0x92, 0xbe,
  0xa0, 0x1e, 0x61, 0xbc, 0xa4, 0x86, 0x8c, 0x3e, 0xba, 0x3a, 0x93, 0xbe,
  0x2d, 0x0f, 0x47, 0x3e, 0x56, 0x41, 0x2e, 0x3d, 0x22, 0x19, 0xba, 0xbd,
  0xf7, 0x93, 0x10, 0x3e, 0xbf, 0xdf, 0xb3, 0x3e, 0x46, 0xc3, 0x6b, 0x3e,
  0xa9, 0x22, 0x0f, 0xbe, 0xa5, 0x8a, 0xac, 0x3d, 0x00, 0x5f, 0xd2, 0x3d,
  0xc0, 0x4a, 0x26, 0xbd, 0xc0, 0x3c, 0xab, 0xbc, 0x9e, 0x32, 0x7a, 0xbe,
  0x5c, 0xf1, 0xe5, 0xbd, 0xe7, 0x83, 0x0c, 0x3d, 0x49, 0xa2, 0x93, 0x3e,
  0xdd, 0x04, 0x7b, 0xbe, 0x02, 0xb6, 0xea, 0x3e, 0xe6, 0xf9, 0xbf, 0x3e,
  0x18, 0xb5, 0x8c, 0xbe, 0xfd, 0x3f, 0x68, 0x3e, 0x02, 0x4b, 0x95, 0x3c,
  0xad, 0xe4, 0x86, 0x3e, 0xda, 0xb9, 0x97, 0xbe, 0x60, 0x2f, 0x32, 0x3d,
  0xe0, 0x1a, 0xa1, 0xbe, 0xfd, 0x51, 0x12, 0xbe, 0x21, 0xc8, 0x88, 0x3e,
  0x09, 0x3a, 0x96, 0x3e, 0xa0, 0x0f, 0xbf, 0xbc, 0x00, 0x63, 0x9a, 0xbb,
  0x33, 0xfc, 0x8e, 0xbe, 0x40, 0xa0, 0x8e, 0x3b, 0xb8, 0x7c, 0xdf, 0xbd,
  0x58, 0x37, 0xb6, 0x3d, 0x9f, 0x98, 0x60, 0xbe, 0x1c, 0x50, 0xf8, 0x3d,
  0xad, 0x83, 0xa7, 0x3e, 0x07, 0xda, 0x9f, 0x3e, 0x83, 0x82, 0x4d, 0x3e,
  0x6a, 0x49, 0xea, 0xbd, 0x2d, 0xd1, 0x2d, 0xbe, 0xa9, 0xdb, 0x8e, 0xbe,
  0x74, 0x82, 0x75, 0xbd, 0x28, 0x2b, 0xa0, 0xbe, 0xb9, 0xee, 0xab, 0x3e,
  0x28, 0x2f, 0xbc, 0x3e, 0x63, 0xa8, 0xde, 0xbc, 0x4c, 0x15, 0x12, 0xbd,
  0xe6, 0x8a, 0xa4, 0xbd, 0xc8, 0x78, 0xb7, 0x3e, 0x16, 0x7f, 0x84, 0x3e,
  0x46, 0x21, 0x2c, 0x3e, 0x15, 0xa5, 0x03, 0xbe, 0xea, 0x96, 0xa9, 0x3e,
  0x14, 0xef, 0x8b, 0xbe, 0xf0, 0xa2, 0x06, 0x3e, 0x10, 0xd9, 0x53, 0x3e,
  0xb4, 0xc6, 0x91, 0x3d, 0xc6, 0x0e, 0x82, 0x3e, 0x93, 0x7d, 0x03, 0xbe,
  0x00, 0xe3, 0x82, 0xbb, 0x1a, 0x2e, 0x96, 0x3e, 0x70, 0x12, 0xbd, 0xbc,
  0x49, 0x7c, 0x0a, 0x3e, 0x5b, 0xa9, 0x39, 0xbe, 0x81, 0x77, 0x27, 0x3d,
  0xde, 0x21, 0x45, 0xbe, 0x97, 0x17, 0x34, 0xbe, 0xac, 0x48, 0x2c, 0xbe,
  0xcc, 0x54, 0xa5, 0xbe, 0xba, 0x4c, 0x45, 0xbe, 0x20, 0x35, 0x1a, 0xbc,
  0xde, 0x38, 0xa7, 0xbe, 0xd0, 0xa2, 0xa2, 0xbc, 0x86, 0x46, 0x5c, 0x3e,
  0x26, 0xaf, 0x0d, 0x3e, 0xa9, 0x28, 0x97, 0xbe, 0x1d, 0xc0, 0x73, 0x3e,
  0x73, 0x60, 0x03, 0xbe, 0x80, 0x8f, 0x5d, 0x3d, 0x91, 0xf2, 0x3d, 0xbb,
  0x0b, 0x2b, 0x17, 0xbe, 0xd8, 0x8b, 0x62, 0xbd, 0xc8, 0x25, 0x92, 0x3e,
  0xe0, 0x76, 0x66, 0xbd, 0xa4, 0x49, 0x43, 0xbe, 0xd1, 0x2e, 0xaa, 0x3e,
  0x98, 0xa7, 0x11, 0x3e, 0xa2, 0x2e, 0xdd, 0xbd, 0xeb, 0x28, 0xa5, 0x3e,
  0x1f, 0xad, 0x69, 0xbe, 0x67, 0xc2, 0xa8, 0xbe, 0x20, 0xd2, 0xa1, 0xbe,
  0x24, 0x21, 0x94, 0xbe, 0xe8, 0xe6, 0x8b, 0xbd, 0x13, 0x83, 0x3a, 0xbe,
  0xc8, 0xff, 0x0a, 0x3e, 0x81, 0xf0, 0x5f, 0xbe, 0xb8, 0x12, 0xd3, 0xbd,
  0x85, 0x0c, 0x84, 0xbe, 0x0f, 0x38, 0xa3, 0x3e, 0xa4, 0x88, 0xb5, 0xbd,
  0x46, 0xce, 0xff, 0xff, 0x04, 0x00, 0x00, 0x00, 0x00, 0x04, 0x00, 0x00,
  0x8f, 0x44, 0xb1, 0x3e, 0x92, 0x3a, 0xde, 0x3d, 0xa4, 0xb1, 0xd6, 0xbd,
  0x22, 0x6d, 0x66, 0x3e, 0x36, 0x42, 0xf2, 0xbd, 0x5c, 0x34, 0xd9, 0xbc,
  0x0c, 0xb6, 0x85, 0x3d, 0xc9, 0x4b, 0x49, 0xbe, 0x41, 0x8f, 0xc2, 0x3e,
  0xec, 0x62, 0xd5, 0x3d, 0x3e, 0x8d, 0x8a, 0x3e, 0x17, 0x48, 0x8b, 0xbe,
  0xd0, 0x2a, 0x9d, 0xbe, 0xff, 0x52, 0xa2, 0x3e, 0xbf, 0x79, 0x6d, 0x3e,
  0x72, 0x60, 0x09, 0xbe, 0xc5, 0x72, 0x93, 0x3e, 0x98, 0x7d, 0x25, 0x3e,
  0x00, 0xc6, 0x85, 0x3a, 0x00, 0xb6, 0xda, 0xbd, 0x72, 0xc0, 0x82, 0x3e,
  0x1a, 0x8e, 0xb5, 0xbe, 0x64, 0x50, 0x70, 0xbe, 0xee, 0x57, 0x13, 0x3e,
  0xa5, 0xfb, 0xf8, 0xbc, 0x28, 0x3b, 0x95, 0xbe, 0xb4, 0xc1, 0xd9, 0xbe,
  0x8b, 0xc6, 0x11, 0xbe, 0xe2, 0x99, 0x7b, 0x3e, 0x7e, 0x36, 0x76, 0xbe,
  0x83, 0x2a, 0x59, 0x3e, 0x83, 0xcc, 0x35, 0xbe, 0xae, 0x90, 0x61, 0xbe,
  0xf5, 0x43, 0x84, 0x3e, 0x74, 0x5b, 0x33, 0xbe, 0x01, 0x9f, 0x9d, 0x3e,
  0x37, 0x5f, 0x71, 0xbe, 0x77, 0x44, 0xa3, 0x3c, 0xb1, 0x60, 0x74, 0x3e,
  0xd7, 0xdc, 0xa7, 0x3e, 0x7b, 0xf7, 0xde, 0x3e, 0x60, 0x8d, 0x80, 0xbc,
  0x97, 0x9d, 0x26, 0x3e, 0x5a, 0xf2, 0x77, 0x3e, 0xba, 0x02, 0x3a, 0xbd,
  0xa2, 0x34, 0x09, 0xbe, 0x2f, 0x1f, 0xc7, 0x3e, 0xf8, 0x5c, 0x05, 0x3e,
  0xdd, 0x03, 0xa7, 0xbe, 0xc3, 0x32, 0x95, 0x3e, 0x2e, 0x32, 0x15, 0x3e,
  0xe1, 0x65, 0x84, 0x3e, 0x1a, 0x20, 0x2c, 0x3e, 0x36, 0x34, 0x9c, 0xbe,
  0xf0, 0xfd, 0xd5, 0xbe, 0x3a, 0x4f, 0x84, 0xbe, 0x04, 0x6a, 0xdd, 0x3d,
  0x13, 0x5c, 0xd6, 0x3e, 0x84, 0xac, 0xc2, 0xbd, 0x8a, 0x07, 0x31, 0xbe,
  0x9c, 0xae, 0xc4, 0x3d, 0x80, 0x04, 0x7a, 0xbe, 0x6a, 0x70, 0xb9, 0xbe,
  0x8c, 0xfe, 0xfd, 0x3d, 0xef, 0x20, 0x61, 0xbe, 0x81, 0x2f, 0xef, 0x3d,
  0x50, 0x6c, 0xab, 0xbc, 0x94, 0x31, 0x96, 0xbd, 0xc3, 0x1f, 0x76, 0xbe,
  0xe1, 0x2d, 0xa4, 0xbe, 0x5d, 0x17, 0x6d, 0x3e, 0xa2, 0xc8, 0xad, 0xbe,
  0x4f, 0xae, 0xd2, 0x3d, 0x63, 0x13, 0xd6, 0xbe, 0x70, 0x8f, 0xfb, 0xbd,
  0xac, 0x49, 0xb8, 0xbe, 0xde, 0xd9, 0x72, 0xbd, 0x09, 0x95, 0x9b, 0xbe,
  0xdd, 0x73, 0x11, 0xbe, 0x50, 0x96, 0x3c, 0x3d, 0xd0, 0xd3, 0xc0, 0xbe,
  0x54, 0x8a, 0xb7, 0xbe, 0xc5, 0x88, 0xc3, 0xbe, 0x84, 0xcd, 0x10, 0xbe,
  0x70, 0xf1, 0x91, 0xbc, 0xdc, 0xdd, 0xf2, 0xbd, 0xfe, 0x57, 0x63, 0x3e,
  0x1b, 0x40, 0xc9, 0x3e, 0xbd, 0x98, 0xd6, 0xbe, 0x00, 0x05, 0xc1, 0xbe,
  0x09, 0x03, 0x43, 0xbe, 0xac, 0x4a, 0xda, 0xbd, 0x84, 0x98, 0x5f, 0xbe,
  0xbc, 0xde, 0x0f, 0xbe, 0xa4, 0x2b, 0xb9, 0x3d, 0x44, 0x14, 0xbc, 0xbe,
  0xc2, 0x21, 0x18, 0x3e, 0x40, 0x96, 0x75, 0xbe, 0x31, 0x34, 0x82, 0x3e,
  0x9e, 0xd5, 0x18, 0xbe, 0xf8, 0x31, 0x1e, 0xbe, 0xbb, 0x25, 0xd0, 0xbe,
  0x28, 0x55, 0xf3, 0xbd, 0x5a, 0x6f, 0x5b, 0x3e, 0xde, 0x48, 0x38, 0x3e,
  0xb6, 0xe3, 0x33, 0xbe, 0xf9, 0x91, 0xa5, 0x3e, 0x7b, 0x67, 0x92, 0xbe,
  0xde, 0xc1, 0x0a, 0x3e, 0x10, 0xd8, 0x05, 0xbd, 0xac, 0x17, 0xd6, 0x3d,
  0x7b, 0x7c, 0xcd, 0xbe, 0xd0, 0xf9, 0xf5, 0x3c, 0x2c, 0xc9, 0x81, 0x3d,
  0xfa, 0x0d, 0xb1, 0xbe, 0x96, 0x3e, 0x37, 0x3e, 0xe9, 0xae, 0x21, 0x3e,
  0x76, 0xa1, 0x90, 0x3e, 0x40, 0x7b, 0xda, 0xbd, 0x85, 0x33, 0x55, 0xbe,
  0xb4, 0xc8, 0x51, 0x3e, 0x92, 0xd4, 0xca, 0xbe, 0x3f, 0x71, 0x93, 0x3e,
  0xc7, 0x93, 0x69, 0x3e, 0x91, 0x03, 0x33, 0xbc, 0x5f, 0x87, 0x64, 0xbe,
  0xa9, 0xcf, 0xcc, 0x3e, 0xaa, 0xcf, 0x83, 0x3e, 0xe9, 0x7b, 0x8e, 0x3e,
  0xcc, 0xe6, 0x51, 0x3e, 0x27, 0x7f, 0x70, 0xbe, 0xeb, 0x98, 0xc2, 0x3e,
  0xcf, 0x8b, 0x33, 0xbd, 0x8a, 0x78, 0xde, 0x3e, 0x2e, 0x7f, 0xd8, 0x3d,
  0xb6, 0x7c, 0xd5, 0xbe, 0xb3, 0x00, 0x61, 0x3e, 0x8c, 0x32, 0xc7, 0x3d,
  0x32, 0xe2, 0x8d, 0x3e, 0x5f, 0xf3, 0x00, 0x3c, 0x8b, 0x09, 0x3a, 0xbe,
  0x8e, 0xc1, 0x3e, 0x3e, 0x43, 0x02, 0x68, 0xbc, 0xc3, 0xe8, 0xc1, 0x3e,
  0xe0, 0xae, 0x17, 0xbc, 0x50, 0x2d, 0xdc, 0xbe, 0xdd, 0xb2, 0x94, 0xbe,
  0xde, 0x50, 0x3c, 0x3e, 0xc2, 0xe4, 0xa1, 0x3e, 0x95, 0x71, 0x73, 0x3e,
  0x8d, 0x96, 0xa8, 0xbe, 0xf6, 0xd2, 0x74, 0x3e, 0x6d, 0x19, 0x9b, 0x3c,
  0x5c, 0x8f, 0xb1, 0xbe, 0xdc, 0x06, 0x84, 0x3d, 0xcf, 0xf7, 0xb1, 0xbe,
  0x03, 0x6c, 0x9c, 0x3e, 0xf2, 0x92, 0x07, 0xbe, 0xb1, 0x5e, 0x0b, 0xbe,
  0xaf, 0x4e, 0x76, 0xbe, 0x17, 0xc5, 0x8c, 0xbe, 0x8b, 0xee, 0x6d, 0xbd,
  0xa7, 0xd3, 0x39, 0x3e, 0x74, 0xdd, 0xcb, 0xbd, 0xa9, 0x18, 0x84, 0x3c,
  0x0b, 0x8e, 0x5b, 0xbe, 0x0c, 0x4f, 0x56, 0xbe, 0x83, 0xa7, 0x95, 0x3e,
  0xa3, 0x18, 0xa8, 0x3e, 0xca, 0x14, 0x32, 0x3e, 0x50, 0x21, 0xb7, 0xbe,
  0x45, 0x5c, 0xf9, 0xbe, 0x1d, 0x30, 0xa9, 0x3e, 0x9f, 0xac, 0xbc, 0x3e,
  0x36, 0x59, 0xcd, 0x3e, 0x4f, 0xea, 0x3b, 0xbd, 0x80, 0xc5, 0xb5, 0x3c,
  0xcf, 0x29, 0x07, 0xbe, 0x1e, 0x3a, 0x02, 0xbd, 0xed, 0x32, 0xdb, 0xbe,
  0xa6, 0x02, 0x6f, 0x3e, 0x3a, 0x2a, 0xdd, 0x3e, 0x08, 0xcd, 0xd5, 0xbe,
  0x48, 0x62, 0x52, 0xbe, 0xc3, 0x40, 0x45, 0xbd, 0x47, 0x05, 0x84, 0xbe,
  0x2b, 0x32, 0x11, 0x3e, 0xf5, 0xd0, 0xd9, 0xbc, 0xf2, 0x96, 0x85, 0xbd,
  0xb0, 0x2c, 0xdd, 0xbe, 0xbe, 0x75, 0x6d, 0x3e, 0x50, 0xf2, 0x4e, 0x3e,
  0x74, 0x8b, 0xf6, 0x3d, 0xcd, 0x0c, 0x8a, 0x3e, 0x6f, 0x4d, 0x94, 0xbe,
  0x08, 0x99, 0x64, 0xbd, 0x28, 0xfb, 0xe5, 0xbe, 0x38, 0x77, 0x64, 0xbd,
  0xcf, 0x75, 0x1c, 0xbf, 0x7f, 0x98, 0xdb, 0xbe, 0xe2, 0xfe, 0x7d, 0xbd,
  0x66, 0x41, 0x6d, 0x3e, 0x14, 0xca, 0x1c, 0x3e, 0xf7, 0x68, 0x31, 0x3e,
  0x02, 0xdd, 0x31, 0xbc, 0xdc, 0x02, 0x9b, 0xbd, 0xbf, 0x25, 0x86, 0x3e,
  0x7a, 0x6e, 0xaa, 0x3e, 0x89, 0xd7, 0xa1, 0xbe, 0xc1, 0x46, 0xa6, 0x3e,
  0x26, 0xaa, 0x49, 0x3e, 0x3a, 0x2e, 0x06, 0x3e, 0x95, 0xf5, 0x28, 0xbe,
  0x5c, 0x2f, 0xd7, 0x3e, 0x91, 0x3b, 0xc3, 0xbd, 0xd7, 0x97, 0xc7, 0x3e,
  0x82, 0xdb, 0x32, 0x3e, 0x00, 0xd1, 0xba, 0xbd, 0xc9, 0x6d, 0x69, 0xbe,
  0x48, 0x4e, 0xa1, 0x3e, 0x1f, 0x54, 0x8a, 0xbe, 0xc1, 0xf9, 0xb5, 0x3e,
  0xb0, 0xb2, 0xd3, 0xbe, 0xec, 0xc2, 0xcc, 0x3e, 0xc4, 0x4c, 0xf0, 0x3d,
  0x55, 0x56, 0x61, 0x3e, 0xdb, 0xed, 0x93, 0xbe, 0x85, 0x67, 0x5a, 0xbe,
  0x0a, 0xb4, 0x1f, 0xbe, 0x0f, 0x00, 0xe4, 0xbd, 0x90, 0x83, 0x32, 0x3e,
  0xa3, 0x62, 0xa2, 0x3e, 0xbd, 0x9c, 0x01, 0xbf, 0x5f, 0xf7, 0x98, 0x3e,
  0xd7, 0xa4, 0x8a, 0xbe, 0x37, 0x02, 0x36, 0xbe, 0x1d, 0x7f, 0xce, 0x3e,
  0x0c, 0x9f, 0xe5, 0xbd, 0xce, 0xed, 0x4f, 0xbe, 0xaa, 0xdb, 0x94, 0x3e,
  0xfa, 0x41, 0x23, 0x3e, 0x46, 0x18, 0xb8, 0xbe, 0x98, 0x53, 0x8e, 0xbe,
  0xa8, 0x58, 0xa7, 0xbd, 0xbc, 0xaf, 0xe1, 0xbd, 0x95, 0x44, 0x83, 0xbd,
  0xfa, 0x9d, 0x4e, 0x3e, 0xf4, 0xd2, 0xdf, 0x3d, 0x3a, 0x0e, 0x43, 0xbd,
  0x84, 0x18, 0x86, 0xbe, 0xd0, 0xdc, 0xa6, 0x3e, 0xac, 0xb0, 0x17, 0x3e,
  0x36, 0xc7, 0x89, 0xbe, 0xcf, 0x40, 0x9a, 0xbe, 0x91, 0xeb, 0xad, 0xbe,
  0x38, 0x79, 0x97, 0x3e, 0x52, 0xd2, 0xff, 0xff, 0x04, 0x00, 0x00, 0x00,
  0x00, 0x08, 0x00, 0x00, 0x60, 0x44, 0xe2, 0xbd, 0xe2, 0xae, 0xda, 0xbd,
  0xb6, 0x92, 0x43, 0x3e, 0x52, 0x60, 0x8f, 0xbe, 0x08, 0x02, 0x1c, 0xbe,
  0x10, 0x89, 0x50, 0xbd, 0x3a, 0x00, 0x6b, 0xbe, 0xa0, 0x5d, 0xbc, 0x3d,
  0x58, 0x5a, 0xd0, 0x3d, 0x71, 0x23, 0x8b, 0x3e, 0x14, 0x53, 0x43, 0xbe,
  0x18, 0x5f, 0x76, 0xbe, 0xdb, 0xd5, 0x86, 0x3e, 0x70, 0x30, 0x01, 0xbd,
  0x68, 0x2c, 0xe9, 0x3d, 0x25, 0xe7, 0x89, 0xbe, 0x45, 0x1e, 0xb3, 0x3e,
  0x13, 0x27, 0x92, 0xbe, 0xf4, 0xec, 0x49, 0xbe, 0x95, 0x71, 0x8d, 0x3e,
  0x10, 0xc7, 0x95, 0x3c, 0xd0, 0x7e, 0x36, 0xbd, 0x78, 0x4f, 0xcd, 0xbd,
  0x16, 0xce, 0x7b, 0xbe, 0x68, 0xef, 0x5d, 0xbd, 0x34, 0xd5, 0x48, 0xbe,
  0xf8, 0x25, 0xbd, 0x3d, 0xa9, 0x0b, 0x81, 0x3e, 0x25, 0x96, 0x10, 0xbe,
  0x09, 0x25, 0x9c, 0x3e, 0x44, 0x83, 0x48, 0xbe, 0xd8, 0xc1, 0x8b, 0xbe,
  0x8e, 0x1d, 0x22, 0x3e, 0xe6, 0x3a, 0x06, 0xbe, 0x3f, 0x1e, 0x95, 0x3e,
  0xab, 0xa6, 0x04, 0xbd, 0xa0, 0xad, 0x59, 0x3c, 0x78, 0xe0, 0x9f, 0xbc,
  0xa9, 0x7f, 0x0b, 0xbe, 0x70, 0x78, 0x17, 0x3e, 0x3d, 0xa7, 0x42, 0xbe,
  0xbd, 0xc6, 0xcc, 0xbe, 0x38, 0x72, 0x7e, 0x3d, 0xcd, 0x86, 0xbd, 0x3d,
  0xde, 0xca, 0x47, 0xbe, 0xd7, 0x9e, 0xbf, 0x3e, 0xb6, 0xf4, 0xae, 0xbc,
  0xa6, 0xea, 0x9a, 0xbe, 0x76, 0xad, 0x05, 0x3e, 0xb8, 0x11, 0x89, 0xbc,
  0xa4, 0xea, 0xea, 0x3d, 0x5f, 0xd9, 0x6e, 0xbe, 0x33, 0x87, 0x5e, 0x3e,
  0x60, 0xcc, 0xa0, 0x3c, 0x4a, 0x4a, 0x78, 0x3e, 0x37, 0x0d, 0xb5, 0x3e,
  0x84, 0x48, 0x5b, 0x3e, 0x7b, 0xbc, 0x2c, 0x3e, 0x5b, 0x8c, 0xa9, 0x3e,
  0x91, 0x33, 0x26, 0x3d, 0x1f, 0x7b, 0xe6, 0x3e, 0x33, 0x75, 0x7e, 0x3e,
  0x42, 0x41, 0x60, 0x3e, 0x9a, 0x03, 0x03, 0xbd, 0xbd, 0xc5, 0x9f, 0x3e,
  0x3a, 0x02, 0x91, 0xbd, 0x32, 0xe8, 0xa4, 0xbe, 0xc8, 0x5d, 0xac, 0xbb,
  0xf8, 0x8e, 0x47, 0x3d, 0x6f, 0xf0, 0x6a, 0xbe, 0x86, 0xb5, 0xc3, 0xbe,
  0x42, 0x6f, 0x5f, 0x3e, 0xfa, 0x28, 0x6b, 0x3e, 0x26, 0xa3, 0x04, 0x3e,
  0x78, 0x22, 0x87, 0xbe, 0x25, 0x91, 0x95, 0x3e, 0x96, 0x0a, 0x21, 0x3e,
  0x3c, 0x4a, 0xbb, 0xbe, 0x9d, 0x02, 0x4a, 0x3e, 0x14, 0xc2, 0x03, 0x3e,
  0xc0, 0x62, 0xa3, 0xbb, 0x4f, 0xec, 0xbd, 0xbe, 0x4e, 0x2a, 0xff, 0xbd,
  0x86, 0x73, 0x6c, 0xbe, 0x75, 0x71, 0x29, 0x3e, 0xa9, 0x67, 0x9f, 0x3e,
  0x0f, 0x71, 0x1a, 0xbe, 0x0e, 0xbf, 0x06, 0xbe, 0x12, 0xa7, 0xfd, 0xbd,
  0x3c, 0x73, 0x34, 0x3e, 0x16, 0xf1, 0x55, 0x3e, 0xce, 0x45, 0x0a, 0xbd,
  0xf3, 0xa5, 0x3d, 0xbe, 0xa2, 0x63, 0x1c, 0xbe, 0x44, 0x42, 0x81, 0xbe,
  0x0e, 0xc0, 0x58, 0x3e, 0x8e, 0xb5, 0x73, 0x3e, 0xba, 0xce, 0x45, 0x3e,
  0xdd, 0x30, 0x96, 0x3e, 0x40, 0x1d, 0xdf, 0xbc, 0xb0, 0xfa, 0xf5, 0x3d,
  0x5e, 0xa7, 0x77, 0xbe, 0xc9, 0x69, 0x40, 0xbe, 0xa2, 0xeb, 0x48, 0xbe,
  0xa0, 0xae, 0x2a, 0xbc, 0x58, 0x6f, 0x31, 0xbe, 0x80, 0x65, 0x0a, 0x3e,
  0x23, 0x04, 0x8c, 0x3e, 0xfa, 0x21, 0x72, 0x3e, 0x20, 0xa7, 0x1c, 0xbd,
  0x20, 0x76, 0x7f, 0xbc, 0x0f, 0xa3, 0xa1, 0xbe, 0xb0, 0x9b, 0xaa, 0xbc,
  0xb9, 0xb8, 0x9e, 0x3e, 0x10, 0xe4, 0x2e, 0x3d, 0x08, 0xc8, 0x31, 0xbd,
  0x08, 0x57, 0xa6, 0xbe, 0xf0, 0xcd, 0x8d, 0x3d, 0x68, 0x66, 0x71, 0xbd,
  0x93, 0x75, 0xab, 0xbe, 0x78, 0xea, 0xdb, 0xbd, 0x97, 0xa1, 0x36, 0xbe,
  0x68, 0x1d, 0x1f, 0xbd, 0xfc, 0x25, 0x13, 0x3e, 0x04, 0x85, 0x90, 0xbd,
  0xc9, 0x46, 0x92, 0x3e, 0xc0, 0xb5, 0xe3, 0xbd, 0x40, 0x7c, 0x42, 0xbe,
  0x46, 0x19, 0x6c, 0x3e, 0x54, 0xfe, 0xff, 0x3d, 0x6d, 0xa7, 0xa9, 0xbe,
  0x08, 0x64, 0xc8, 0xbd, 0x7f, 0xa9, 0x61, 0xbe, 0x30, 0x40, 0x6a, 0x3e,
  0x4b, 0x91, 0x18, 0x3e, 0x29, 0x0a, 0x1d, 0x3e, 0xde, 0x19, 0x04, 0xbe,
  0x89, 0x0d, 0xa2, 0x3e, 0xd0, 0x6b, 0x88, 0xbc, 0x94, 0x4c, 0x9d, 0x3e,
  0xe2, 0xd2, 0x7f, 0xbe, 0x25, 0x8c, 0xa7, 0xbe, 0x88, 0xf9, 0xa4, 0x3e,
  0x06, 0x54, 0x23, 0x3e, 0xd0, 0xd0, 0x52, 0xbe, 0xad, 0xfb, 0x10, 0x3e,
  0x70, 0xbd, 0x75, 0xbd, 0x21, 0x81, 0x42, 0x3e, 0x32, 0xbf, 0xd7, 0xbe,
  0x31, 0x8d, 0xa4, 0xbe, 0xfe, 0x96, 0x68, 0x3e, 0x3b, 0xf6, 0x0c, 0x3e,
  0x84, 0x26, 0x22, 0x3e, 0x8e, 0x66, 0x9e, 0x3d, 0x47, 0x6b, 0x49, 0xbe,
  0xb8, 0x45, 0x87, 0xbe, 0xe8, 0xdc, 0x9f, 0xbe, 0x13, 0xd4, 0x2a, 0x3c,
  0xa6, 0x08, 0x14, 0x3d, 0xe8, 0x14, 0x93, 0xbe, 0x53, 0xc4, 0x84, 0x3e,
  0x65, 0x75, 0xb6, 0x3d, 0x7d, 0xf7, 0x8e, 0xbd, 0xd3, 0x26, 0xae, 0x3e,
  0xe7, 0xea, 0x8f, 0x3e, 0xae, 0x77, 0xa3, 0x3e, 0xfb, 0x44, 0x88, 0xbd,
  0x58, 0xd1, 0xad, 0xbe, 0x81, 0xd3, 0x4a, 0xbd, 0xbf, 0x54, 0xb6, 0xbe,
  0x00, 0x62, 0x9c, 0xbd, 0x72, 0x51, 0xad, 0x3e, 0xa0, 0x0b, 0x61, 0xbd,
  0xd8, 0xfd, 0x82, 0xbe, 0x62, 0xca, 0x21, 0x3e, 0xe0, 0xf9, 0x08, 0xbd,
  0xe9, 0x9f, 0x80, 0x3e, 0xd0, 0x4d, 0x87, 0x3e, 0x3b, 0x8e, 0xa2, 0x3e,
  0x52, 0x74, 0x4d, 0x3e, 0xa1, 0x39, 0x99, 0x3e, 0x92, 0xd6, 0x3f, 0x3e,
  0x60, 0x84, 0x26, 0x3d, 0xed, 0x76, 0x90, 0xbe, 0xab, 0x85, 0x04, 0xbe,
  0x54, 0x68, 0xb2, 0x3e, 0x1e, 0x2d, 0xf2, 0x3d, 0xf8, 0x9a, 0x11, 0x3f,
  0x6a, 0xee, 0x97, 0x3c, 0x1d, 0xea, 0xa7, 0xbd, 0xec, 0x3d, 0xd8, 0x3d,
  0x5a, 0xb5, 0xa8, 0x3e, 0x20, 0x6f, 0x84, 0xbc, 0xd6, 0x8d, 0xde, 0xbd,
  0x56, 0x59, 0x46, 0xbe, 0xdf, 0x95, 0xbc, 0x3d, 0x18, 0x1a, 0xe8, 0xbd,
  0x23, 0xfb, 0x8a, 0x3e, 0x20, 0x3a, 0xcc, 0x3e, 0xad, 0x0e, 0x3c, 0x3e,
  0x2f, 0x68, 0xc2, 0x3e, 0x59, 0xbf, 0xee, 0xbd, 0xe6, 0xc1, 0x28, 0x3e,
  0x5c, 0x90, 0xa4, 0x3e, 0xdc, 0xf4, 0x9f, 0xbd, 0xdc, 0xe7, 0x9d, 0xbb,
  0x87, 0x95, 0x33, 0xbd, 0x50, 0xfe, 0x4b, 0xbd, 0xe5, 0xbc, 0xa7, 0x3e,
  0xda, 0x8e, 0x53, 0x3e, 0x30, 0x0b, 0xed, 0xbc, 0x2f, 0x1b, 0x5f, 0xbe,
  0x0e, 0x18, 0xcb, 0xbe, 0xec, 0xea, 0x16, 0xbe, 0x84, 0x9e, 0xe1, 0xbd,
  0x25, 0x84, 0x47, 0xbe, 0xc1, 0x3e, 0xf7, 0xbd, 0xf9, 0xef, 0x4f, 0xbe,
  0x4e, 0xc5, 0x32, 0x3e, 0x3a, 0x83, 0x2b, 0xbe, 0xdd, 0xe7, 0x5b, 0x3e,
  0x43, 0xaa, 0x5d, 0x3e, 0x55, 0xae, 0x6d, 0x3e, 0x25, 0xc8, 0x99, 0xbe,
  0x08, 0xec, 0xa8, 0xbe, 0x20, 0xf9, 0xed, 0x3c, 0xbc, 0xe9, 0x76, 0xbe,
  0x7b, 0x47, 0xaf, 0x3e, 0x4e, 0x3a, 0x6a, 0x3e, 0x6d, 0x49, 0x68, 0xbe,
  0x00, 0x90, 0x99, 0xba, 0x98, 0x86, 0xb4, 0xbd, 0xa6, 0xcf, 0xdb, 0xbd,
  0xd0, 0xd7, 0x57, 0xbd, 0xfa, 0x57, 0xaf, 0xbe, 0x01, 0xc7, 0x9a, 0x3e,
  0x17, 0xea, 0xab, 0x3e, 0x38, 0xe7, 0x45, 0x3d, 0x45, 0x3c, 0x26, 0xbe,
  0xc8, 0x5b, 0x0d, 0x3d, 0x87, 0xe4, 0x4e, 0xbe, 0x28, 0xd2, 0x73, 0xbd,
  0xa7, 0x25, 0x35, 0xbe, 0xb6, 0xa5, 0xa7, 0xbe, 0x7b, 0xe5, 0xb2, 0x3e,
  0x56, 0x98, 0x5c, 0x3e, 0xe0, 0x75, 0x1c, 0x3d, 0x90, 0xf6, 0x06, 0xbd,
  0x4e, 0x90, 0x32, 0x3e, 0xd0, 0x98, 0xfb, 0xbd, 0xe0, 0x32, 0x6a, 0xbd,
  0x5e, 0x69, 0x37, 0x3e, 0x38, 0xd4, 0x66, 0xbd, 0x30, 0x38, 0x29, 0xbd,
  0x3e, 0x2e, 0x6d, 0x3e, 0xbd, 0xfa, 0xaa, 0xbe, 0x11, 0xcb, 0x08, 0xbe,
  0x98, 0xdb, 0x90, 0x3e, 0x7e, 0x5e, 0x92, 0xbe, 0x82, 0x1a, 0x99, 0x3e,
  0xa0, 0x11, 0x11, 0x3c, 0x6a, 0x96, 0xa8, 0x3e, 0xcb, 0x4e, 0xfb, 0xbd,
  0x1a, 0x29, 0x8d, 0x3d, 0x21, 0x49, 0x63, 0x3d, 0xb5, 0xf5, 0x2b, 0xbe,
  0x55, 0x8c, 0xa5, 0x3e, 0x49, 0x85, 0x7b, 0xbe, 0xa4, 0xb6, 0x80, 0xbd,
  0x84, 0x73, 0x4a, 0x3e, 0xcc, 0xfd, 0xbf, 0xbc, 0x38, 0x39, 0x8a, 0xbd,
  0xd1, 0x89, 0x73, 0x3d, 0xe0, 0xaa, 0x76, 0xbd, 0x62, 0x35, 0x50, 0x3e,
  0x0b, 0x17, 0xb6, 0xbe, 0xf6, 0x4a, 0x53, 0x3e, 0x3e, 0x07, 0x39, 0x3e,
  0x34, 0x9c, 0x84, 0x3d, 0x46, 0x7f, 0x6a, 0xbe, 0x2f, 0x50, 0x60, 0x3e,
  0x2c, 0xa4, 0x8a, 0x3e, 0x64, 0x17, 0xf6, 0x3d, 0x46, 0xb5, 0x1a, 0x3e,
  0x47, 0x65, 0x86, 0x3e, 0xd0, 0x72, 0x78, 0x3e, 0x56, 0x84, 0xed, 0xbd,
  0x62, 0xc5, 0x8d, 0x3e, 0x06, 0x1a, 0x2f, 0x3e, 0x68, 0x34, 0x15, 0xbe,
  0xc0, 0xb6, 0xf4, 0xbb, 0x3e, 0x06, 0x9e, 0xbe, 0x89, 0xc8, 0xa6, 0x3e,
  0xc9, 0x7f, 0x20, 0xbe, 0x48, 0x73, 0xa6, 0xbe, 0xfa, 0x72, 0x74, 0x3e,
  0x80, 0xdb, 0x59, 0xbe, 0x68, 0x3f, 0xfb, 0x3d, 0xe0, 0xff, 0x45, 0x3c,
  0x92, 0x0a, 0x7f, 0x3e, 0x00, 0x35, 0xb0, 0xbc, 0xc8, 0x75, 0x01, 0x3e,
  0x37, 0x36, 0x95, 0x3e, 0xa3, 0xd8, 0xa1, 0x3e, 0x04, 0xf7, 0xb1, 0x3d,
  0x80, 0x95, 0x51, 0x3c, 0x08, 0x01, 0xc8, 0xbd, 0x80, 0x24, 0x58, 0xbc,
  0xdc, 0x59, 0x81, 0x3d, 0xcd, 0x13, 0x8f, 0x3e, 0x52, 0xfb, 0x50, 0x3e,
  0x28, 0xe9, 0x4c, 0xbd, 0x90, 0x24, 0xf1, 0xbc, 0xca, 0xe1, 0x56, 0xbe,
  0x90, 0xd2, 0x41, 0x3d, 0xb2, 0x8a, 0x5d, 0x3e, 0x00, 0x06, 0x89, 0xba,
  0x30, 0xa1, 0x87, 0xbe, 0xe3, 0x1f, 0xb2, 0x3e, 0xf1, 0x8f, 0x9f, 0x3e,
  0x6a, 0x58, 0x1f, 0x3e, 0xd0, 0x35, 0xd7, 0xbd, 0x73, 0x3f, 0x2f, 0xbe,
  0x4b, 0x91, 0x95, 0x3e, 0x52, 0x04, 0x11, 0xbe, 0xae, 0x4c, 0x14, 0x3e,
  0xbe, 0x96, 0x3a, 0xbd, 0xcc, 0xb2, 0x72, 0xbe, 0xa8, 0x45, 0x40, 0xbe,
  0x26, 0x4a, 0x83, 0xbc, 0x5a, 0x93, 0x17, 0x3e, 0x52, 0x7a, 0x68, 0x3e,
  0x56, 0x81, 0xaa, 0xbe, 0x91, 0x80, 0x92, 0xbe, 0x58, 0xc8, 0xc0, 0xb8,
  0x22, 0x88, 0x9d, 0xbe, 0x2e, 0x32, 0x5c, 0xbe, 0x58, 0x96, 0x1d, 0xbe,
  0x67, 0x41, 0x5c, 0xbe, 0x72, 0x12, 0x3a, 0xbe, 0x8e, 0x67, 0x99, 0xbe,
  0xa6, 0xb6, 0x3f, 0x3e, 0x02, 0x9e, 0x3b, 0x3e, 0xf0, 0xd1, 0xa4, 0x3c,
  0x92, 0x57, 0x35, 0xbe, 0x60, 0x65, 0x67, 0xbe, 0xb6, 0xe2, 0x93, 0x3e,
  0x6f, 0x14, 0xb1, 0xbe, 0xa5, 0xd9, 0x35, 0x3e, 0x9a, 0xf6, 0x98, 0xbd,
  0x74, 0x08, 0xed, 0xbd, 0x4a, 0x6a, 0x47, 0xbe, 0x3b, 0x42, 0x62, 0xbe,
  0x1e, 0x0f, 0x56, 0xbe, 0x32, 0x96, 0xe1, 0xbc, 0x25, 0x37, 0x06, 0xbe,
  0xdc, 0xdf, 0x64, 0xbe, 0x3a, 0x7d, 0x4f, 0x3d, 0x2a, 0xc0, 0xd4, 0x3e,
  0x82, 0x76, 0xa3, 0xbe, 0x84, 0x78, 0x88, 0xbe, 0xed, 0x5b, 0x22, 0xbf,
  0xd0, 0x61, 0x9f, 0xbc, 0x46, 0x45, 0x4b, 0xbe, 0x90, 0xa4, 0xa4, 0xbd,
  0xde, 0x89, 0x8e, 0x3e, 0xd3, 0x43, 0x8d, 0xbe, 0x90, 0xa2, 0xf8, 0xbc,
  0x92, 0xda, 0x7d, 0xbd, 0xfe, 0x3a, 0x2c, 0xbe, 0xb5, 0x96, 0xae, 0x3e,
  0x17, 0x87, 0x77, 0x3e, 0x13, 0xd6, 0x80, 0x3e, 0x60, 0x92, 0x93, 0x3d,
  0xf6, 0xbd, 0x16, 0x3e, 0x20, 0x60, 0x83, 0x3d, 0xae, 0x67, 0x80, 0xbe,
  0x8e, 0xa6, 0x19, 0x3e, 0x41, 0x97, 0xcb, 0x3e, 0x58, 0x54, 0xea, 0xbd,
  0xc2, 0xe0, 0x44, 0x3e, 0xbe, 0x84, 0xed, 0xbd, 0x08, 0xe2, 0xab, 0x3d,
  0x8b, 0xd1, 0xaf, 0x3e, 0x8e, 0xb4, 0x9a, 0xbe, 0x88, 0x6f, 0xb5, 0xbe,
  0x0c, 0x4d, 0xc3, 0xbd, 0x06, 0x81, 0x35, 0x3e, 0x08, 0x9a, 0x15, 0x3e,
  0xa1, 0xbb, 0x1a, 0x3d, 0xe9, 0xac, 0x90, 0xbe, 0xe8, 0xd9, 0x41, 0x3d,
  0x98, 0x6e, 0x04, 0x3d, 0xbc, 0x00, 0xe6, 0x3d, 0x71, 0x96, 0x62, 0xbe,
  0x56, 0x4a, 0x3d, 0xbe, 0x01, 0x69, 0xaf, 0x3e, 0xa2, 0x8f, 0xa5, 0x3e,
  0x22, 0xb6, 0x99, 0xbe, 0x3c, 0x38, 0xb6, 0xbd, 0x2b, 0xda, 0x96, 0xbe,
  0x35, 0xe0, 0xcf, 0x3d, 0x91, 0xa8, 0x5d, 0xbe, 0x58, 0xdd, 0x24, 0x3d,
  0xaa, 0xf6, 0x9a, 0x3e, 0x20, 0x17, 0x08, 0xbc, 0x60, 0x5c, 0xe6, 0xbc,
  0x80, 0x6a, 0x52, 0x3d, 0x36, 0xdb, 0x27, 0x3e, 0x80, 0x24, 0xa7, 0xbd,
  0xaf, 0x95, 0x63, 0xbe, 0xe9, 0x4e, 0x20, 0xbe, 0x91, 0x30, 0x84, 0xbd,
  0xce, 0xba, 0x46, 0x3e, 0x02, 0x8f, 0x61, 0x3e, 0xcf, 0x9a, 0xcd, 0x3d,
  0x61, 0xa8, 0x39, 0xbe, 0x4c, 0x1e, 0x78, 0xbe, 0xdd, 0xb1, 0xa7, 0x3e,
  0x31, 0x4b, 0x0c, 0xbe, 0x00, 0xce, 0xb6, 0xbd, 0xb9, 0x44, 0xaa, 0x3e,
  0xda, 0xd7, 0x23, 0x3e, 0xde, 0x5d, 0x20, 0xbe, 0x55, 0x3c, 0x96, 0xbe,
  0x54, 0xb4, 0x2e, 0xbe, 0xbd, 0x13, 0x88, 0x3e, 0x10, 0x72, 0x20, 0x3d,
  0x80, 0x56, 0x1e, 0x3c, 0x00, 0x4d, 0x48, 0xbd, 0xa0, 0x88, 0x8e, 0x3c,
  0xd6, 0xa9, 0xe4, 0xbd, 0x2c, 0xaf, 0xb4, 0xbd, 0xe0, 0xbe, 0x8a, 0xbc,
  0xe8, 0x84, 0x4a, 0x3d, 0x84, 0x53, 0xcf, 0x3d, 0x80, 0xac, 0x1b, 0xbb,
  0x80, 0x42, 0x87, 0x3c, 0x64, 0xad, 0xab, 0xbe, 0x4e, 0x00, 0x2d, 0x3e,
  0x38, 0xd8, 0x3e, 0x3d, 0xf5, 0x91, 0x3c, 0xbe, 0xee, 0x92, 0x96, 0xbe,
  0x80, 0x61, 0x84, 0xbc, 0x11, 0x1f, 0x4a, 0xbe, 0x60, 0xce, 0x73, 0x3d,
  0x95, 0xd7, 0x0a, 0xbe, 0xf0, 0xc5, 0x98, 0xbd, 0xc3, 0x8d, 0x6e, 0xbe,
  0xaa, 0xe1, 0x7e, 0x3e, 0x16, 0x20, 0x08, 0xbd, 0x3d, 0x7c, 0x9d, 0x3e,
  0x6c, 0x4f, 0x89, 0xbd, 0xec, 0xbd, 0xb7, 0x3d, 0x5d, 0x9b, 0x23, 0x3e,
  0x3c, 0x79, 0x1b, 0xbe, 0x65, 0x5d, 0x93, 0x3e, 0xf9, 0x71, 0x89, 0x3e,
  0x3a, 0xc9, 0x5d, 0x3e, 0x7f, 0x9a, 0x87, 0xbe, 0xe0, 0xc6, 0x01, 0x3d,
  0x57, 0xcd, 0xc9, 0x3e, 0x4d, 0x56, 0xa1, 0x3e, 0x2a, 0x8a, 0x76, 0x3e,
  0x4d, 0x93, 0xfc, 0xbd, 0x35, 0xb0, 0xb8, 0x3e, 0x75, 0x55, 0xa5, 0x3e,
  0x17, 0x8e, 0x1b, 0xbe, 0x1c, 0x26, 0x64, 0xbc, 0xff, 0xdf, 0x03, 0xbe,
  0xc4, 0xe0, 0xb7, 0xbd, 0xd0, 0xd9, 0xaf, 0x3e, 0xd3, 0xff, 0xa1, 0xbe,
  0xba, 0x4e, 0xdf, 0x3e, 0xc1, 0x3f, 0xba, 0xbe, 0x46, 0x65, 0x1d, 0x3e,
  0x73, 0xf2, 0x99, 0xbe, 0x2e, 0x5e, 0x04, 0xbd, 0x95, 0x41, 0x8b, 0x3e,
  0x53, 0xe4, 0x85, 0x3e, 0xa0, 0x4c, 0xa4, 0xbc, 0x7c, 0xa7, 0x2d, 0x3d,
  0xe9, 0x5e, 0x2c, 0xbe, 0xd4, 0x5b, 0xb9, 0x3d, 0x2a, 0x20, 0xf6, 0xbd,
  0x93, 0x66, 0x9c, 0x3e, 0x16, 0x20, 0x97, 0x3e, 0xfd, 0x54, 0x24, 0x3d,
  0x89, 0x04, 0x83, 0x3e, 0x78, 0x3b, 0x7d, 0xbe, 0x6b, 0xd8, 0xad, 0xbe,
  0xb4, 0xa2, 0x17, 0x3e, 0xa0, 0x8b, 0xbc, 0xbc, 0x09, 0x0e, 0x3d, 0x3e,
  0x0f, 0x9a, 0x5b, 0x3d, 0x3d, 0x54, 0xa8, 0x3e, 0x73, 0xf7, 0x1b, 0x3e,
  0xac, 0x83, 0xae, 0x3e, 0xd5, 0xab, 0x9b, 0xbe, 0xed, 0x82, 0x20, 0xbe,
  0x25, 0xff, 0x23, 0x3f, 0xb3, 0x9a, 0x7d, 0xbe, 0x10, 0xa5, 0x0b, 0xbe,
  0xbf, 0x7c, 0x3d, 0xbe, 0xd2, 0xf7, 0xa8, 0xbe, 0x7a, 0x24, 0x86, 0x3c,
  0xca, 0x10, 0x74, 0x3e, 0x59, 0x1d, 0x57, 0x3d, 0xb0, 0x54, 0x49, 0xbe,
  0x88, 0x6c, 0xdd, 0xbd, 0x36, 0xb4, 0x4a, 0xbe, 0x1c, 0xc0, 0xc4, 0x3d,
  0x5e, 0xda, 0xff, 0xff, 0x04, 0x00, 0x00, 0x00, 0x00, 0x20, 0x00, 0x00,
  0x00, 0x22, 0x98, 0x3d, 0x40, 0x50, 0x30, 0x3e, 0x20, 0xb4, 0xa8, 0x3d,
  0xf0, 0x91, 0x60, 0x3e, 0x80, 0x0e, 0xd4, 0xbc, 0x6c, 0xb0, 0x0d, 0xbe,
  0x60, 0x6f, 0xcc, 0x3d, 0x50, 0xf0, 0x18, 0xbd, 0xc0, 0x38, 0x48, 0xbc,
  0x90, 0x8e, 0x75, 0xbd, 0x94, 0x67, 0x06, 0xbe, 0x98, 0xb5, 0xb4, 0x3d,
  0xe0, 0x39, 0xfb, 0x3c, 0x10, 0x20, 0x3a, 0xbd, 0x00, 0xe4, 0x39, 0xbc,
  0xd0, 0x72, 0x59, 0x3d, 0xa0, 0x10, 0xd2, 0x3c, 0x44, 0x48, 0x70, 0xbe,
  0x70, 0x77, 0x51, 0x3e, 0xd0, 0xbb, 0xc8, 0x3d, 0x68, 0x99, 0x5a, 0x3e,
  0x44, 0x68, 0x3e, 0xbe, 0x60, 0x24, 0x75, 0xbd, 0xd0, 0x04, 0x88, 0x3d,
  0x54, 0x2f, 0x22, 0x3e, 0x74, 0x7b, 0x21, 0x3e, 0x40, 0xba, 0xe3, 0xbd,
  0x58, 0xbc, 0xbe, 0xbd, 0xd0, 0xf4, 0xc8, 0x3d, 0x88, 0xe9, 0x37, 0x3e,
  0x6c, 0x38, 0x65, 0x3e, 0x94, 0x76, 0x1f, 0xbe, 0x00, 0x03, 0xd5, 0x3c,
  0x30, 0x2d, 0xaf, 0xbd, 0x90, 0x8c, 0xeb, 0x3d, 0x00, 0x05, 0xf6, 0xbb,
  0xb0, 0x7c, 0x6a, 0xbe, 0xa0, 0xb7, 0xa9, 0xbc, 0x20, 0x89, 0x60, 0x3d,
  0xc0, 0xfb, 0xc3, 0x3d, 0x18, 0xf9, 0x64, 0xbe, 0xbc, 0x11, 0x57, 0xbe,
  0xc0, 0x15, 0x5a, 0xbd, 0xb8, 0xc8, 0xe4, 0xbd, 0x48, 0x8b, 0xe0, 0xbd,
  0x74, 0x2c, 0x24, 0xbe, 0x20, 0x7c, 0x19, 0xbe, 0x00, 0x18, 0x48, 0x3d,
  0xf0, 0x84, 0x0f, 0xbd, 0x00, 0x3b, 0xb2, 0xbc, 0x00, 0x47, 0x31, 0x3b,
  0x34, 0xa5, 0x77, 0x3e, 0xdc, 0x8f, 0x05, 0xbe, 0x2c, 0x35, 0x43, 0x3e,
  0xf0, 0xed, 0x10, 0x3d, 0xb8, 0x1f, 0xf9, 0xbd, 0x98, 0xf1, 0x00, 0xbe,
  0x60, 0x01, 0x59, 0x3d, 0x80, 0x7c, 0x21, 0xbe, 0x90, 0x97, 0xa3, 0x3d,
  0x80, 0xc1, 0x59, 0x3d, 0xa0, 0x57, 0xca, 0x3c, 0xc0, 0xce, 0x19, 0x3e,
  0x00, 0x2a, 0x58, 0x3d, 0x00, 0x9b, 0x26, 0x3d, 0x70, 0xcb, 0x75, 0x3e,
  0x14, 0xc0, 0xf4, 0x3d, 0x0c, 0x2c, 0x48, 0x3d, 0x40, 0xa2, 0x6a, 0xbe,
  0x30, 0x83, 0x72, 0x3e, 0xb2, 0x72, 0xdb, 0x3d, 0xdb, 0x58, 0xd8, 0xbd,
  0x80, 0xa1, 0x4e, 0x3d, 0x10, 0xaa, 0x37, 0x3d, 0x94, 0x73, 0x43, 0xbe,
  0x70, 0xb0, 0xed, 0x3e, 0x67, 0x22, 0x53, 0x3e, 0x50, 0x91, 0x05, 0xbe,
  0xf2, 0xc5, 0xbe, 0x3e, 0xf8, 0x97, 0x17, 0xbe, 0x4c, 0x0d, 0x00, 0xbd,
  0x78, 0x61, 0xb4, 0xbd, 0x88, 0x86, 0xa0, 0xbd, 0x59, 0xe5, 0x6c, 0x3e,
  0x0d, 0xf1, 0x36, 0xbe, 0xd9, 0x0d, 0xda, 0x3d, 0xf5, 0x4b, 0x28, 0x3e,
  0xc9, 0xd9, 0x89, 0x3e, 0x26, 0xd2, 0x89, 0xbd, 0xd4, 0x09, 0x93, 0x3e,
  0xd6, 0x41, 0x68, 0x3d, 0xf4, 0xbc, 0x24, 0x3e, 0x19, 0x2d, 0x8e, 0x3c,
  0x80, 0x90, 0x57, 0x3e, 0xf4, 0x3c, 0x23, 0x3e, 0x15, 0xe9, 0xbd, 0x3d,
  0xa0, 0xae, 0xe2, 0xbc, 0x23, 0x16, 0x1b, 0xbe, 0xc0, 0x64, 0x18, 0xbc,
  0xd3, 0x72, 0x43, 0x3e, 0xf4, 0xd3, 0xfc, 0xbc, 0x80, 0x05, 0x47, 0x3c,
  0x17, 0x95, 0x81, 0xbe, 0x38, 0x62, 0xd0, 0xbd, 0x0c, 0x8d, 0xc1, 0xbd,
  0xb5, 0xee, 0x76, 0x3d, 0xfd, 0x71, 0x87, 0x3e, 0x00, 0x64, 0x51, 0xba,
  0x48, 0xf3, 0xff, 0x3c, 0xc8, 0x7f, 0x53, 0x3e, 0xc0, 0xa2, 0xac, 0x3a,
  0x17, 0x4f, 0x5e, 0x3c, 0xd8, 0xd5, 0xfa, 0xbd, 0xf8, 0xd2, 0xb4, 0xbd,
  0x82, 0x3d, 0x05, 0x3d, 0xf4, 0x4a, 0x33, 0x3e, 0xb8, 0xd7, 0x46, 0x3e,
  0x00, 0x8e, 0x0e, 0x3c, 0x50, 0x6c, 0x6d, 0xbd, 0xe6, 0x0a, 0x11, 0x3f,
  0xf8, 0x4c, 0x06, 0xbe, 0xe8, 0x59, 0x72, 0xbc, 0x58, 0x3e, 0xdf, 0x3d,
  0xa8, 0xd5, 0x85, 0xbd, 0x57, 0xe2, 0xf0, 0xbd, 0xae, 0x94, 0x81, 0x3e,
  0x68, 0x65, 0x0b, 0xbe, 0x04, 0x09, 0x1b, 0x3e, 0x2c, 0xa0, 0x24, 0x3e,
  0x10, 0xc3, 0x79, 0x3e, 0xe8, 0x22, 0x2b, 0x3d, 0xfb, 0x93, 0x11, 0x3e,
  0x6c, 0x4b, 0x16, 0xbe, 0x9c, 0xd7, 0x35, 0xbe, 0x7b, 0x83, 0xc6, 0xbd,
  0xc0, 0x61, 0x2f, 0x3e, 0x03, 0x7f, 0x8c, 0x3b, 0x84, 0xe7, 0x46, 0x3e,
  0xa0, 0x6d, 0x08, 0x3d, 0x00, 0x67, 0x5d, 0xbe, 0xcf, 0xb0, 0x79, 0xbd,
  0x10, 0xae, 0xfc, 0x3d, 0xb9, 0xb7, 0x71, 0x3c, 0x58, 0xf1, 0x5c, 0xbe,
  0x41, 0xf6, 0x5a, 0xbe, 0x5c, 0x27, 0x6a, 0xbe, 0x68, 0xae, 0x9a, 0xbd,
  0x61, 0x0d, 0x34, 0xbe, 0xf1, 0xa3, 0x9a, 0xbd, 0xfa, 0x22, 0x22, 0x3d,
  0xbb, 0x94, 0xf6, 0x3d, 0xb2, 0x9e, 0x08, 0x3e, 0xe1, 0x96, 0x23, 0x3e,
  0x70, 0xf1, 0x1a, 0x3e, 0x70, 0x16, 0xe9, 0x3d, 0x20, 0x65, 0xa0, 0x3c,
  0x3a, 0x71, 0xd5, 0x3d, 0x88, 0xb9, 0xfa, 0x3d, 0x20, 0x9a, 0x17, 0x3e,
  0xda, 0x26, 0x8b, 0xbe, 0x20, 0xc3, 0xfe, 0xbd, 0xbf, 0x30, 0x82, 0x3d,
  0xb0, 0x31, 0x2a, 0xbe, 0xcb, 0xef, 0x73, 0xbe, 0x1c, 0xb5, 0x8a, 0xbe,
  0xd0, 0x0f, 0x92, 0x3d, 0xfa, 0x2b, 0x3c, 0xbd, 0xe8, 0x36, 0xab, 0x3d,
  0x16, 0x97, 0xa4, 0x3d, 0xc6, 0x15, 0x54, 0xbc, 0x1d, 0xd0, 0x4d, 0xbe,
  0x80, 0x07, 0x7f, 0x3d, 0x64, 0x1f, 0x01, 0xbe, 0x90, 0x15, 0x28, 0xbe,
  0x41, 0xf7, 0xbb, 0x3d, 0x44, 0x13, 0x0a, 0xbe, 0x50, 0xaa, 0x71, 0xbe,
  0xac, 0x18, 0x3d, 0xbe, 0x05, 0x66, 0x14, 0x3c, 0xa0, 0xa6, 0x17, 0xbe,
  0xcc, 0x68, 0x1c, 0xbe, 0xe8, 0xda, 0x70, 0xbe, 0x7c, 0xe5, 0x11, 0xbe,
  0x86, 0x87, 0x96, 0xbc, 0xc8, 0x06, 0xc0, 0xbd, 0xf9, 0x3d, 0x87, 0xbe,
  0x78, 0xd5, 0x41, 0xbe, 0xec, 0x3f, 0x42, 0x3e, 0x5e, 0xcb, 0xda, 0x3d,
  0xe8, 0x9a, 0xd4, 0xbd, 0x80, 0x01, 0xfe, 0x3c, 0x44, 0x22, 0x7c, 0x3e,
  0x50, 0x9f, 0xe2, 0xbd, 0x68, 0x3a, 0x8a, 0x3d, 0xcb, 0x28, 0x9f, 0x3e,
  0x9a, 0xed, 0x08, 0x3e, 0x60, 0x93, 0x88, 0x3c, 0x78, 0xca, 0xaf, 0x3d,
  0xed, 0x5a, 0x5a, 0x3e, 0x42, 0x9e, 0x1c, 0x3e, 0x35, 0x4b, 0x04, 0xbd,
  0x1e, 0x38, 0xd1, 0x3e, 0x40, 0x49, 0x94, 0x3d, 0xa2, 0x2f, 0x77, 0x3e,
  0x07, 0xf1, 0xae, 0x3c, 0xb4, 0xe8, 0x5d, 0xbe, 0x8a, 0xf6, 0xe6, 0xbc,
  0x30, 0x31, 0x2a, 0xbd, 0x3e, 0xf0, 0x7c, 0xbd, 0x24, 0x30, 0x10, 0xbe,
  0x00, 0xea, 0xaa, 0xbd, 0x7f, 0x13, 0x9b, 0x3e, 0x6c, 0xb8, 0x0e, 0xbe,
  0xf4, 0xaf, 0x0d, 0x3e, 0x77, 0x6a, 0xbe, 0x3b, 0x37, 0x65, 0x67, 0xbb,
  0x96, 0x5c, 0x01, 0x3d, 0xa4, 0x8f, 0x0c, 0xbe, 0x51, 0xa6, 0x22, 0xbe,
  0x30, 0x4d, 0x75, 0x3e, 0xdc, 0x6d, 0x67, 0xbd, 0x28, 0x5b, 0x7f, 0x3e,
  0x08, 0xe6, 0x93, 0x3d, 0x6a, 0x0a, 0x4c, 0x3e, 0xc8, 0xdb, 0x2d, 0xbe,
  0x77, 0xf6, 0x3b, 0xbe, 0x20, 0xf6, 0xed, 0x3c, 0x27, 0x33, 0xb3, 0xbd,
  0x5e, 0xbf, 0x43, 0x3e, 0x18, 0xfc, 0x62, 0x3e, 0xe3, 0x96, 0x8a, 0x3d,
  0x38, 0x19, 0x69, 0xbe, 0x86, 0xe5, 0x4b, 0x3e, 0x5d, 0x89, 0x0b, 0x3e,
  0x6e, 0x2e, 0x57, 0x3e, 0x00, 0xed, 0x5c, 0x3e, 0xf1, 0xd5, 0x99, 0x3e,
  0x40, 0xc9, 0xa2, 0xbd, 0x00, 0xdf, 0x4c, 0x3e, 0x15, 0xea, 0xa5, 0xbd,
  0x8c, 0x17, 0x14, 0xbe, 0xa8, 0xf8, 0x9b, 0x3d, 0x47, 0xa6, 0x93, 0x3c,
  0xdc, 0x7b, 0x40, 0x3e, 0x50, 0x30, 0x49, 0x3d, 0x4c, 0x98, 0x51, 0x3e,
  0xc4, 0x95, 0x09, 0xbe, 0x50, 0xfd, 0x93, 0x3e, 0x98, 0x6f, 0xef, 0xbd,
  0xa7, 0x4e, 0xb0, 0xbc, 0x40, 0x59, 0x2f, 0x3c, 0x84, 0xca, 0x47, 0x3e,
  0x79, 0x30, 0xb1, 0xbd, 0xa7, 0x72, 0x7b, 0x3e, 0x90, 0x08, 0x0f, 0xbd,
  0x18, 0x55, 0x69, 0xbe, 0x4c, 0xd7, 0x5e, 0xbe, 0xec, 0xb5, 0x11, 0x3e,
  0x58, 0x43, 0x0b, 0xbe, 0xb0, 0xa9, 0x9a, 0x3d, 0x48, 0x6d, 0xa0, 0xbd,
  0x40, 0x74, 0x61, 0x3d, 0xb0, 0xf1, 0xd2, 0xbd, 0x38, 0x10, 0xc8, 0xbd,
  0xf0, 0x5d, 0x53, 0xbd, 0x74, 0x8d, 0x57, 0xbe, 0x00, 0xda, 0xe8, 0x3c,
  0x58, 0x36, 0x51, 0x3e, 0x18, 0x36, 0x34, 0xbe, 0x08, 0x0d, 0xb3, 0xbd,
  0x60, 0xc6, 0x19, 0x3d, 0xb0, 0xca, 0x33, 0xbd, 0x00, 0xff, 0xb6, 0x3b,
  0x08, 0x36, 0xa3, 0x3d, 0xe8, 0xdb, 0x3a, 0xbe, 0x28, 0xd5, 0x14, 0xbe,
  0x5c, 0x05, 0x01, 0xbe, 0x20, 0x9e, 0xe8, 0xbc, 0x60, 0x8a, 0x86, 0xbc,
  0xf0, 0xf4, 0x40, 0xbe, 0x68, 0x10, 0x36, 0x3e, 0x50, 0xd4, 0x44, 0xbd,
  0x68, 0xc9, 0xd4, 0xbd, 0x10, 0x2d, 0x5b, 0xbe, 0x5c, 0x31, 0x5e, 0xbe,
  0xe0, 0xbe, 0xe3, 0x3d, 0xc0, 0x6c, 0x3c, 0xbe, 0xc8, 0xf6, 0xaa, 0xbd,
  0xe0, 0xaa, 0x7b, 0x3e, 0x80, 0x75, 0xad, 0x3c, 0x50, 0xab, 0xcd, 0xbd,
  0xb4, 0x41, 0x73, 0x3e, 0x88, 0x92, 0xf2, 0x3d, 0x94, 0x0f, 0x11, 0xbe,
  0x00, 0xfe, 0x46, 0x3b, 0xd4, 0x7a, 0x3b, 0x3e, 0x00, 0xa7, 0xb8, 0xbb,
  0xfc, 0xe2, 0x56, 0xbe, 0xc0, 0x3b, 0x0c, 0x3d, 0x90, 0x5b, 0xfe, 0xbd,
  0x70, 0xfc, 0xd9, 0x3d, 0xb8, 0x3c, 0xe0, 0x3d, 0x68, 0x6f, 0xf0, 0x3d,
  0x9c, 0x69, 0x02, 0x3e, 0x20, 0x09, 0xef, 0x3d, 0x78, 0x09, 0x9e, 0xbd,
  0x08, 0x68, 0x90, 0xbd, 0xe8, 0x6c, 0x24, 0xbe, 0xa0, 0x83, 0xf7, 0xbc,
  0x20, 0xa8, 0x17, 0x3d, 0x84, 0x3b, 0x41, 0x3e, 0xc0, 0x0a, 0xd9, 0xbd,
  0x38, 0x59, 0x2c, 0x3e, 0x60, 0x7e, 0x55, 0x3d, 0xe0, 0x40, 0x10, 0xbe,
  0x18, 0xfa, 0x95, 0x3d, 0x00, 0x83, 0x49, 0xbe, 0x00, 0x33, 0x1f, 0x3b,
  0x3c, 0xf0, 0x1c, 0xbe, 0x88, 0xcd, 0x78, 0xbe, 0x80, 0xda, 0x98, 0x3d,
  0xa4, 0x7a, 0x29, 0xbe, 0xdb, 0xe6, 0x41, 0x3e, 0xab, 0x32, 0xcd, 0x3e,
  0x40, 0xae, 0xa2, 0x3c, 0x68, 0x85, 0xfd, 0xbd, 0x05, 0x22, 0x97, 0x3b,
  0x51, 0xd0, 0x93, 0xbd, 0xf1, 0xbc, 0x94, 0xbd, 0x1a, 0x6d, 0x23, 0x3d,
  0x00, 0x2c, 0xf9, 0xba, 0x4f, 0xde, 0x7e, 0xbe, 0x3d, 0x0d, 0x9a, 0x3d,
  0x18, 0xf1, 0x6b, 0xbe, 0xdd, 0x56, 0x85, 0xbd, 0x90, 0x5b, 0x12, 0xbe,
  0x44, 0xd3, 0x92, 0x3d, 0xa8, 0x09, 0xa7, 0x3d, 0xb8, 0xea, 0xc3, 0xbd,
  0x1e, 0x03, 0xd0, 0xbd, 0x5c, 0x8e, 0x09, 0xbd, 0xfa, 0xe5, 0x35, 0x3e,
  0xe3, 0x4d, 0xcc, 0x3d, 0xf6, 0xa2, 0xbc, 0xbc, 0x49, 0x1e, 0xc9, 0x3e,
  0x42, 0x71, 0xb0, 0x3d, 0x63, 0xa7, 0x21, 0xbe, 0xe4, 0xb5, 0x2a, 0xbe,
  0x08, 0x8b, 0x43, 0xbe, 0x10, 0xad, 0x5d, 0xbe, 0xd8, 0xee, 0x0d, 0xbe,
  0x38, 0x54, 0x1a, 0x3c, 0x28, 0xf0, 0xd9, 0xbd, 0xc8, 0xfd, 0x87, 0xbe,
  0x30, 0xf2, 0xd8, 0x3d, 0x9c, 0xcd, 0xe9, 0x3e, 0xde, 0x33, 0x02, 0xbd,
  0x00, 0xc6, 0x3d, 0x3b, 0x46, 0x19, 0xa3, 0x3e, 0xb0, 0xf2, 0x21, 0x3d,
  0xc2, 0x8b, 0x09, 0x3e, 0x39, 0xb3, 0x35, 0xbe, 0xea, 0x49, 0x30, 0x3e,
  0x80, 0x5a, 0xdb, 0x3c, 0x88, 0xb4, 0xc5, 0xbd, 0x50, 0x19, 0xaa, 0x3d,
  0x39, 0xa0, 0x82, 0x3e, 0x0d, 0xc1, 0xd2, 0xbd, 0xf0, 0x90, 0xad, 0x3d,
  0xe4, 0x0d, 0x3b, 0x3e, 0x2e, 0xf7, 0x81, 0x3e, 0x08, 0x49, 0x97, 0xbd,
  0x00, 0xf0, 0xb7, 0xb9, 0x10, 0x99, 0xd4, 0x3d, 0x18, 0x8a, 0x40, 0x3e,
  0xd5, 0x99, 0xaf, 0xba, 0x50, 0x7b, 0xda, 0x3d, 0xcd, 0x36, 0xae, 0x3d,
  0x88, 0xfb, 0xa4, 0x3d, 0x24, 0x03, 0x2a, 0x3e, 0x1e, 0x56, 0x96, 0x3e,
  0x62, 0x68, 0x76, 0x3d, 0x20, 0xf6, 0x85, 0xbc, 0x30, 0x68, 0x7c, 0xbd,
  0x58, 0x3f, 0xfb, 0xbd, 0xa0, 0x68, 0xba, 0xbc, 0xc4, 0xe1, 0xb8, 0xbd,
  0x74, 0xe9, 0xfb, 0x3d, 0xfc, 0x05, 0x56, 0x3e, 0xd8, 0x50, 0x5d, 0xbe,
  0x8c, 0x13, 0xd9, 0x3d, 0x52, 0x97, 0x1d, 0x3d, 0x00, 0xe5, 0x97, 0xbd,
  0x74, 0xa8, 0xbc, 0xbd, 0x14, 0x23, 0x74, 0x3e, 0x69, 0x6b, 0xe9, 0xbe,
  0xf2, 0x42, 0x22, 0xbd, 0xc8, 0x24, 0xdb, 0x3d, 0x79, 0xa2, 0x9a, 0xbc,
  0x3c, 0x96, 0x5b, 0x3e, 0xad, 0xf3, 0x04, 0x3e, 0x80, 0x2e, 0xf6, 0xbc,
  0x38, 0x79, 0x57, 0xbe, 0x09, 0x7a, 0x58, 0x3e, 0xba, 0xd4, 0x91, 0x3e,
  0x7a, 0x21, 0x36, 0x3e, 0x8a, 0x0b, 0x0c, 0xbe, 0xe3, 0x13, 0x85, 0xbe,
  0x1a, 0x59, 0x1b, 0xbe, 0x5c, 0x85, 0xcb, 0x3a, 0x11, 0x85, 0xd1, 0xbd,
  0xd8, 0xf0, 0x24, 0xbe, 0xf4, 0x97, 0x24, 0xbd, 0x00, 0x36, 0x0e, 0xbb,
  0xa0, 0x60, 0xbc, 0x3c, 0x3e, 0xa8, 0x3c, 0x3e, 0xcc, 0x3f, 0x18, 0xbe,
  0x9f, 0x90, 0xb9, 0xbb, 0x00, 0x48, 0x3f, 0xbd, 0xee, 0x39, 0xcc, 0x3e,
  0x6f, 0x69, 0x04, 0x3e, 0x80, 0xa2, 0xe4, 0xbd, 0x17, 0x4c, 0x3d, 0x3e,
  0x50, 0x09, 0x76, 0x3e, 0x10, 0x84, 0x1a, 0x3e, 0x38, 0x5f, 0xf0, 0x3d,
  0x2e, 0x3f, 0x7a, 0xbe, 0xf0, 0x74, 0x31, 0x3e, 0x72, 0x77, 0x22, 0xbe,
  0x78, 0x46, 0xb5, 0xbd, 0x6c, 0x50, 0xed, 0xbd, 0x68, 0xc4, 0x18, 0x3e,
  0xc4, 0x5c, 0x31, 0x3e, 0x00, 0xa4, 0x39, 0xbd, 0x3a, 0x40, 0x6e, 0x3e,
  0x20, 0x6f, 0x18, 0x3d, 0x78, 0xf7, 0x38, 0x3e, 0x8c, 0x16, 0x0c, 0x3e,
  0xd0, 0x52, 0xe2, 0xbd, 0xd7, 0xd6, 0x29, 0xbf, 0x30, 0xde, 0x14, 0xbd,
  0x42, 0xf0, 0xe3, 0xbb, 0xd8, 0x92, 0x68, 0x3e, 0xd8, 0x56, 0xb8, 0xbd,
  0x9b, 0x7f, 0x84, 0xbe, 0xfe, 0x16, 0x88, 0xbe, 0xd0, 0xf7, 0x66, 0x3d,
  0x00, 0x89, 0xb7, 0x3d, 0x00, 0x10, 0x02, 0xba, 0x40, 0xb6, 0xbe, 0x3c,
  0x8c, 0x4d, 0xfc, 0x3d, 0xec, 0x41, 0xf7, 0xbc, 0xf0, 0xe4, 0xed, 0x3d,
  0x30, 0x6b, 0x1c, 0xbe, 0x08, 0x30, 0x11, 0x3e, 0x9b, 0x99, 0x5f, 0x3e,
  0xe7, 0x53, 0x6c, 0x3e, 0x94, 0x59, 0x13, 0xbe, 0xc4, 0xd8, 0x61, 0x3e,
  0x14, 0x8c, 0xf8, 0xbc, 0x23, 0xd8, 0xdb, 0xbc, 0xe0, 0xab, 0x76, 0xbd,
  0x2e, 0xec, 0x2d, 0x3e, 0x28, 0x14, 0xdf, 0x3d, 0xb9, 0x3a, 0xcf, 0x3d,
  0x80, 0x89, 0xb9, 0xbb, 0x4c, 0x05, 0x0c, 0x3e, 0x8c, 0x77, 0x80, 0xbe,
  0x1d, 0x8c, 0x01, 0x3e, 0xb6, 0x44, 0x63, 0xbd, 0x7d, 0xf3, 0x0a, 0xbe,
  0x3b, 0x60, 0xa5, 0xbb, 0x8b, 0x51, 0x92, 0x3d, 0x2c, 0xd5, 0x41, 0xbe,
  0x23, 0xd4, 0x61, 0xbe, 0x0c, 0x50, 0x35, 0xbe, 0x5b, 0x2e, 0x62, 0xbe,
  0x28, 0xdf, 0xfa, 0xbd, 0xd0, 0xb6, 0xad, 0x3d, 0x1e, 0x2f, 0x6b, 0xbe,
  0x00, 0xda, 0x39, 0x3d, 0x67, 0xa1, 0x56, 0xbe, 0xa4, 0xfc, 0x5f, 0xbe,
  0x8f, 0xd4, 0x14, 0xbe, 0xca, 0x1c, 0x58, 0x3e, 0x74, 0x68, 0x36, 0x3e,
  0x23, 0xba, 0x03, 0x3e, 0x30, 0x1b, 0x05, 0x3e, 0x9f, 0xbf, 0x0f, 0xbe,
  0x94, 0x49, 0x4e, 0x3e, 0xd7, 0x06, 0x01, 0x3d, 0xf8, 0x30, 0x91, 0xbd,
  0xd0, 0x2e, 0x00, 0xbd, 0xf0, 0x32, 0x52, 0x3e, 0x74, 0x37, 0x8d, 0x3d,
  0x48, 0x14, 0x92, 0xbd, 0x20, 0xe4, 0x21, 0x3e, 0x3c, 0xbd, 0x5c, 0xbe,
  0xe3, 0x79, 0x67, 0xbc, 0x14, 0x63, 0x66, 0xbe, 0x00, 0x8b, 0xec, 0x3c,
  0x24, 0xf4, 0x02, 0xbe, 0x00, 0x29, 0x81, 0x3c, 0x88, 0x2b, 0x1b, 0xbc,
  0x88, 0x6a, 0x3b, 0x3e, 0x48, 0xe5, 0x19, 0x3e, 0xb8, 0x0a, 0xac, 0x3d,
  0x40, 0xa4, 0x62, 0xbc, 0x64, 0xf8, 0xc8, 0x3d, 0x1b, 0xe9, 0xcb, 0x3d,
  0x80, 0xc3, 0xe5, 0xbd, 0x18, 0x70, 0x30, 0xbe, 0x38, 0x36, 0xf4, 0xbd,
  0x44, 0x32, 0x76, 0xbe, 0x8e, 0x7c, 0xd5, 0xbd, 0xca, 0x4a, 0xaf, 0xbd,
  0xbc, 0xdc, 0x56, 0x3e, 0x80, 0x71, 0x30, 0xbe, 0x1d, 0x52, 0x2e, 0x3e,
  0x50, 0x87, 0x33, 0x3e, 0xf6, 0xa7, 0x50, 0xbe, 0xc3, 0x65, 0x22, 0xbe,
  0xb0, 0xd8, 0x70, 0xbe, 0x08, 0x97, 0xac, 0x3d, 0x2c, 0x1a, 0x3a, 0xbe,
  0x24, 0xc8, 0x78, 0x3e, 0x2a, 0xfb, 0x89, 0xbc, 0x80, 0xe0, 0xa7, 0x3b,
  0xe3, 0xbb, 0x34, 0x3e, 0x20, 0x98, 0x55, 0xbe, 0xc4, 0x74, 0x63, 0x3e,
  0xec, 0x43, 0x57, 0xbe, 0x00, 0xdb, 0x86, 0x3d, 0xc4, 0x0a, 0x25, 0xbd,
  0x48, 0x3b, 0x82, 0xbe, 0x0d, 0x47, 0x9b, 0x3b, 0x0a, 0x1d, 0x8d, 0xbe,
  0xa0, 0x2a, 0x81, 0xbe, 0xec, 0xbb, 0x65, 0x3e, 0x80, 0x88, 0x50, 0x3d,
  0x01, 0xaf, 0xb7, 0xbd, 0x14, 0x55, 0x24, 0x3e, 0x5c, 0x1b, 0x5b, 0xbe,
  0x66, 0xcc, 0xa9, 0xbd, 0xbc, 0x43, 0x6d, 0xbe, 0xd0, 0x83, 0xa4, 0x3c,
  0xac, 0x61, 0x02, 0x3e, 0xac, 0x99, 0x91, 0x3b, 0xc3, 0x57, 0x45, 0x3e,
  0x14, 0xa7, 0x35, 0x3e, 0x63, 0x5b, 0xab, 0xbd, 0x58, 0x9e, 0xe9, 0x3d,
  0x75, 0xf9, 0xe3, 0xbd, 0xda, 0x89, 0xf7, 0x3d, 0x13, 0x1d, 0x22, 0x3e,
  0x10, 0x07, 0x12, 0x3e, 0xa2, 0x5e, 0x14, 0x3e, 0x30, 0x45, 0x08, 0xbd,
  0x90, 0x4f, 0x59, 0x3e, 0x07, 0xfb, 0x5b, 0xbe, 0x88, 0xbb, 0xe8, 0x3d,
  0x60, 0x86, 0xad, 0xbc, 0xc3, 0x2c, 0xb6, 0xbd, 0xa0, 0x45, 0x54, 0xbe,
  0xc0, 0x68, 0x47, 0x3e, 0x58, 0xd0, 0xcb, 0xbd, 0x54, 0xa9, 0x03, 0xbe,
  0xa0, 0xa7, 0xe4, 0xbc, 0x70, 0xe2, 0x74, 0x3d, 0x34, 0x13, 0xe2, 0xbd,
  0x8c, 0x0c, 0x0e, 0xbe, 0xd4, 0x4f, 0x50, 0x3e, 0x94, 0xd4, 0x89, 0x3d,
  0x32, 0x4c, 0x1c, 0x3e, 0x10, 0x7c, 0x5b, 0xbe, 0xf0, 0x69, 0x3a, 0x3d,
  0x6c, 0x72, 0x6e, 0xbe, 0x38, 0x5a, 0x7c, 0xbe, 0xfa, 0x8e, 0x74, 0xbd,
  0x90, 0x42, 0x64, 0xbe, 0xc0, 0xda, 0x65, 0x3c, 0xc0, 0xe0, 0xdb, 0x3d,
  0x40, 0x9c, 0x3a, 0xbe, 0x69, 0xac, 0x48, 0x3d, 0xb8, 0x4f, 0x04, 0xbe,
  0x77, 0x7d, 0xca, 0xbe, 0x40, 0x7f, 0x14, 0xbc, 0x5e, 0x2d, 0xe1, 0x3e,
  0x47, 0xfb, 0x5d, 0x3e, 0x24, 0x85, 0x39, 0x3e, 0x83, 0x07, 0x7f, 0x3e,
  0x68, 0xec, 0xeb, 0x3d, 0xc1, 0xb0, 0x11, 0x3e, 0x20, 0xb0, 0x30, 0xbe,
  0xc8, 0xe3, 0xa4, 0xbd, 0xb9, 0xf9, 0x90, 0x3d, 0x51, 0x20, 0x62, 0x3d,
  0x8d, 0xcd, 0x42, 0xbd, 0x65, 0xfe, 0xf8, 0xbd, 0x79, 0x9d, 0xd7, 0x3e,
  0x36, 0x35, 0xb0, 0xbe, 0xf2, 0x25, 0xe9, 0x3d, 0xef, 0x89, 0x50, 0xbe,
  0xb8, 0x34, 0x3b, 0xbe, 0x92, 0x09, 0xbd, 0x3e, 0x08, 0xc8, 0xea, 0x3d,
  0x2c, 0x2c, 0x15, 0xbe, 0xb5, 0xd7, 0xc6, 0xbe, 0xc4, 0x30, 0x3e, 0xbe,
  0x38, 0xb6, 0x25, 0x3e, 0xbc, 0xe1, 0x27, 0xbe, 0x32, 0x64, 0x6f, 0xbe,
  0xe4, 0x00, 0xf0, 0x3e, 0xd8, 0x32, 0xd7, 0x3d, 0xa2, 0x63, 0xeb, 0xbe,
  0x08, 0x7c, 0x91, 0x3d, 0x4d, 0xb0, 0x23, 0xbe, 0x57, 0xc1, 0x84, 0x3b,
  0xa7, 0xd0, 0xfc, 0xbc, 0x80, 0x4b, 0xdf, 0x3d, 0x1a, 0x3f, 0xb2, 0x3d,
  0x50, 0x9e, 0x24, 0x3d, 0x39, 0x7e, 0x08, 0xbe, 0x56, 0xb6, 0x02, 0xbe,
  0x00, 0x04, 0x87, 0x3a, 0x5c, 0x17, 0x0e, 0xbe, 0x9a, 0xd2, 0x3b, 0x3d,
  0xc8, 0x2a, 0xec, 0x3d, 0xd0, 0xa8, 0x48, 0x3e, 0x80, 0xcb, 0x0a, 0x3c,
  0x38, 0xdd, 0xbd, 0xbd, 0x70, 0x5c, 0x35, 0x3e, 0x20, 0xa1, 0x13, 0xbd,
  0x27, 0xee, 0xf0, 0x3d, 0x58, 0x67, 0x23, 0x3e, 0x34, 0x15, 0x62, 0x3e,
  0xea, 0x9a, 0x46, 0xbb, 0x35, 0x6a, 0x2a, 0xbf, 0x18, 0x06, 0x9d, 0x3d,
  0xa4, 0x8e, 0x73, 0x3e, 0x70, 0x17, 0x5d, 0xbd, 0x70, 0xaf, 0x2f, 0xbd,
  0x50, 0xca, 0x7b, 0xbd, 0x30, 0x02, 0x23, 0xbe, 0xb4, 0x04, 0x62, 0x3e,
  0x88, 0xbd, 0x3d, 0xbe, 0x00, 0xdb, 0x46, 0xbd, 0x60, 0x0e, 0x09, 0x3e,
  0xe0, 0xd5, 0x0e, 0xbd, 0x4c, 0xc0, 0x79, 0xbe, 0xe8, 0xb7, 0x1b, 0x3e,
  0xa0, 0xbb, 0x2c, 0xbd, 0x8c, 0x14, 0x79, 0x3e, 0x40, 0x16, 0x07, 0x3e,
  0x1c, 0xbe, 0x15, 0xbe, 0x28, 0xcf, 0x89, 0xbd, 0x88, 0x11, 0x84, 0xbd,
  0x00, 0x19, 0xdb, 0x3c, 0xf8, 0x43, 0x66, 0xbe, 0x88, 0xce, 0xf7, 0xbd,
  0x80, 0x4a, 0xca, 0xbc, 0x88, 0xb5, 0xe1, 0xbd, 0x70, 0xb4, 0x0f, 0xbe,
  0x7c, 0xe9, 0x53, 0x3e, 0xcc, 0xa1, 0x72, 0xbe, 0xf4, 0x4e, 0x7d, 0x3e,
  0xd8, 0x20, 0x55, 0x3e, 0xe4, 0x62, 0x76, 0x3e, 0xd8, 0xfc, 0x50, 0xbe,
  0x20, 0xf8, 0x1c, 0x3d, 0xb8, 0x46, 0xfa, 0xbd, 0xd8, 0xfd, 0x8a, 0x3d,
  0xf0, 0xf2, 0xa1, 0xbd, 0x68, 0x76, 0xb3, 0xbd, 0x00, 0xd8, 0x8e, 0x3d,
  0x00, 0xed, 0xfe, 0x3c, 0x9c, 0x3d, 0x04, 0xbe, 0xb8, 0x50, 0xd4, 0xbd,
  0xb4, 0xb3, 0x1f, 0xbe, 0x30, 0xf7, 0xa5, 0xbd, 0x30, 0xfa, 0xe4, 0x3d,
  0x10, 0xa3, 0x8f, 0x3d, 0xe0, 0x41, 0x36, 0x3e, 0x84, 0x09, 0x74, 0x3e,
  0xb0, 0x7d, 0x30, 0xbd, 0xc8, 0xb7, 0x3b, 0x3e, 0xb4, 0xc5, 0x56, 0xbe,
  0xa0, 0xf3, 0xdc, 0xbd, 0x54, 0xf9, 0x0c, 0x3e, 0x64, 0x2b, 0x7d, 0xbe,
  0x1c, 0xc9, 0x1f, 0xbe, 0x00, 0x32, 0x59, 0xbe, 0x3c, 0x62, 0x1e, 0x3e,
  0xc0, 0xe3, 0xde, 0xbd, 0x00, 0x90, 0x07, 0x3c, 0x80, 0xec, 0x65, 0xbd,
  0x60, 0xbc, 0x7f, 0x3e, 0x60, 0x42, 0x9d, 0xbd, 0x64, 0x91, 0x1d, 0xbe,
  0xe0, 0xb1, 0x7d, 0xbe, 0x80, 0x84, 0x58, 0x3c, 0xd4, 0xa0, 0x7c, 0x3e,
  0xc0, 0xe0, 0xcb, 0x3d, 0xa8, 0xd5, 0x33, 0xbe, 0xa0, 0x4e, 0xad, 0xbc,
  0x30, 0xde, 0xaa, 0xbd, 0xf2, 0x4f, 0x0d, 0xbe, 0xc0, 0xc3, 0xce, 0x3d,
  0xdc, 0xb1, 0x1b, 0xbe, 0x9c, 0x96, 0x3c, 0xbe, 0xc8, 0x1f, 0x8a, 0xbe,
  0xf0, 0xf4, 0xdd, 0xbd, 0x48, 0x8a, 0x29, 0xbe, 0x35, 0x19, 0xef, 0x3d,
  0x58, 0x9d, 0x97, 0xbd, 0x4e, 0xa8, 0xdb, 0x3d, 0x6e, 0x45, 0xe6, 0x3d,
  0x8c, 0x33, 0x3a, 0xbe, 0x17, 0xc3, 0xf5, 0xbd, 0x08, 0xa3, 0xc0, 0xbd,
  0xf7, 0x80, 0x5a, 0xbe, 0x08, 0xa9, 0xe5, 0xbd, 0x68, 0x98, 0xb7, 0xbd,
  0x34, 0xd7, 0xdd, 0xbd, 0xff, 0x3b, 0xe4, 0x3d, 0x92, 0xff, 0x84, 0x3d,
  0x1a, 0xce, 0x4b, 0xbe, 0x40, 0x62, 0x81, 0xbc, 0xf0, 0x10, 0xc9, 0xbd,
  0x19, 0x22, 0xd2, 0x3c, 0xf0, 0x93, 0x9f, 0xbd, 0x38, 0x01, 0x9d, 0xbd,
  0xac, 0xbb, 0xcd, 0x3d, 0x68, 0xb7, 0x02, 0xbe, 0xa0, 0x5e, 0xc1, 0xbc,
  0x8b, 0x9e, 0x84, 0xbc, 0x7c, 0x54, 0x1a, 0x3e, 0x85, 0xad, 0x0f, 0x3e,
  0x80, 0xaf, 0xf7, 0xbd, 0xc1, 0x84, 0x6d, 0x3d, 0x0f, 0x8d, 0x4e, 0xbe,
  0x18, 0x7c, 0x6d, 0xbe, 0x09, 0x16, 0x1e, 0x3e, 0x84, 0x32, 0x3b, 0xbe,
  0x98, 0x05, 0xf0, 0xbd, 0xd5, 0x3f, 0x05, 0x3d, 0xf4, 0xa1, 0x1f, 0xbd,
  0x00, 0x94, 0x7a, 0xbd, 0xa1, 0xf2, 0x3d, 0x3e, 0x34, 0xb6, 0x3c, 0x3e,
  0x2f, 0x59, 0x06, 0xbd, 0x00, 0xf0, 0xf5, 0xbb, 0x40, 0xbf, 0x03, 0x3c,
  0x38, 0xa5, 0xfc, 0xbd, 0x2e, 0xb6, 0x6a, 0x3d, 0x10, 0x66, 0x2d, 0xbe,
  0x58, 0x21, 0x9e, 0xbd, 0xb0, 0xd0, 0x39, 0x3d, 0xe0, 0x9e, 0xdf, 0x3d,
  0x20, 0x30, 0x49, 0xbd, 0x88, 0x94, 0xc3, 0xbd, 0x44, 0xa5, 0x07, 0x3e,
  0x88, 0xcc, 0x88, 0x3d, 0xd0, 0x26, 0x10, 0x3d, 0x94, 0xb8, 0xb8, 0x3d,
  0x60, 0x19, 0xe7, 0x3c, 0xa8, 0x41, 0xbb, 0x3d, 0xbc, 0x39, 0x68, 0x3e,
  0xb4, 0x8a, 0x4c, 0x3e, 0x18, 0x07, 0x7d, 0x3e, 0xc8, 0xe4, 0x11, 0x3e,
  0x60, 0x93, 0xfb, 0xbd, 0x20, 0x91, 0x59, 0xbd, 0x30, 0x06, 0xff, 0xbd,
  0xe8, 0x49, 0x43, 0x3e, 0x38, 0x62, 0x37, 0xbe, 0x80, 0x78, 0xa7, 0xbb,
  0x44, 0xb5, 0x61, 0xbe, 0x9c, 0xed, 0x1c, 0x3e, 0x70, 0x2d, 0x4d, 0x3e,
  0x5c, 0x06, 0x2f, 0xbe, 0xc8, 0x0b, 0x24, 0x3e, 0x84, 0x7d, 0x67, 0x3e,
  0x88, 0xb9, 0x54, 0x3e, 0x94, 0x53, 0x5d, 0xbe, 0x58, 0x52, 0xc0, 0xbd,
  0xe0, 0x18, 0x2b, 0x3d, 0x24, 0x8f, 0x2d, 0x3e, 0x9c, 0x38, 0x20, 0x3e,
  0xb0, 0x28, 0x22, 0xbe, 0x44, 0xfa, 0x13, 0xbe, 0x00, 0x1b, 0x7c, 0x3e,
  0x30, 0x25, 0x50, 0x3e, 0x00, 0xa4, 0x39, 0x3a, 0xd0, 0x27, 0x2d, 0xbe,
  0xa0, 0x35, 0xb5, 0xbc, 0xe4, 0x54, 0x4e, 0x3e, 0x30, 0x76, 0x8e, 0xbd,
  0x04, 0xd4, 0x28, 0xbe, 0x50, 0x56, 0x2a, 0xbd, 0x08, 0xe6, 0x81, 0xbd,
  0x00, 0xa8, 0x8d, 0x3b, 0x00, 0x12, 0x00, 0x3b, 0x80, 0xef, 0x5e, 0x3c,
  0x08, 0x8e, 0x3e, 0x3e, 0xc8, 0xa9, 0xb6, 0xbd, 0x28, 0x72, 0xe5, 0x3d,
  0x30, 0xdd, 0x66, 0x3e, 0x50, 0x78, 0x0e, 0x3d, 0x94, 0xd4, 0x4f, 0xbe,
  0x80, 0xe4, 0xc5, 0xbc, 0xa0, 0xd2, 0xe6, 0x3c, 0xa0, 0xf8, 0xba, 0xbc,
  0x10, 0xa3, 0xf4, 0x3d, 0x9c, 0x0b, 0x19, 0xbe, 0x78, 0x98, 0x8a, 0x3d,
  0x48, 0x49, 0x13, 0x3e, 0x00, 0x88, 0x62, 0xbc, 0xc8, 0x75, 0x7a, 0xbe,
  0x80, 0x52, 0x1e, 0xbd, 0xf0, 0x34, 0x98, 0xbd, 0xf0, 0xa0, 0x6b, 0xbd,
  0x60, 0x3c, 0xdf, 0x3c, 0x74, 0xec, 0x2d, 0xbe, 0x10, 0xf2, 0xa2, 0xbd,
  0x88, 0x9f, 0x3c, 0xbe, 0x20, 0xe6, 0x1d, 0x3d, 0x44, 0x1c, 0x44, 0x3e,
  0x60, 0xc3, 0x65, 0xbe, 0xdc, 0xc5, 0x15, 0xbe, 0x20, 0xd7, 0x19, 0xbe,
  0xa0, 0xb0, 0x50, 0x3d, 0xe0, 0xa1, 0x04, 0x3d, 0x00, 0xa5, 0x99, 0x3b,
  0x07, 0x70, 0x10, 0xbe, 0x4d, 0xaa, 0x5c, 0x3e, 0x48, 0x3b, 0xad, 0xbd,
  0x70, 0xa2, 0x4d, 0xbe, 0xf7, 0x91, 0x1b, 0xbb, 0x47, 0x8f, 0x27, 0x3d,
  0xf8, 0x62, 0x29, 0xbd, 0x0d, 0xbf, 0xbb, 0x3e, 0xe8, 0xfe, 0xfc, 0x3d,
  0xc3, 0x53, 0xb5, 0x3d, 0xde, 0xbd, 0x92, 0x3d, 0x38, 0x2e, 0x0d, 0x3e,
  0x0f, 0x91, 0xe3, 0x3d, 0x94, 0x05, 0x7e, 0xbe, 0x49, 0x14, 0x87, 0x3e,
  0x54, 0x00, 0x34, 0x3e, 0xfc, 0x4e, 0x46, 0x3e, 0xb8, 0x6d, 0x75, 0x3d,
  0xaa, 0xd9, 0x89, 0xbd, 0x3e, 0x6b, 0x92, 0x3e, 0xe6, 0x7b, 0x2a, 0x3d,
  0x26, 0xac, 0xea, 0x3d, 0xdc, 0xe6, 0xd4, 0x3e, 0xca, 0xdf, 0x1e, 0xbc,
  0x88, 0xea, 0x9d, 0xbd, 0xf0, 0xc0, 0xcb, 0x3d, 0xe3, 0xde, 0x0c, 0xbd,
  0x1c, 0x02, 0x1f, 0xbe, 0x88, 0x11, 0xde, 0x3d, 0xed, 0xfe, 0xe8, 0x3e,
  0xa4, 0xb2, 0x48, 0x3e, 0x81, 0x0f, 0x12, 0xbe, 0x60, 0xb6, 0x44, 0x3e,
  0x48, 0xbf, 0x99, 0x3e, 0xc6, 0xb5, 0xa8, 0xbb, 0x78, 0x85, 0x3b, 0xbe,
  0x28, 0xeb, 0xc9, 0x3d, 0xd8, 0x7a, 0x18, 0x3e, 0xd3, 0xbb, 0xa9, 0x3c,
  0x43, 0x1f, 0x1f, 0xbe, 0x0d, 0x3f, 0x05, 0x3e, 0x90, 0x6e, 0xaf, 0x3d,
  0xad, 0x12, 0x83, 0x3e, 0x6c, 0x8a, 0x07, 0x3e, 0x84, 0x25, 0x06, 0x3d,
  0xcb, 0x1b, 0x25, 0x3d, 0x5c, 0x95, 0x59, 0xbe, 0x40, 0x5a, 0x5e, 0x3c,
  0xce, 0x06, 0x96, 0x3d, 0x00, 0x0b, 0xdf, 0xbb, 0x50, 0x7f, 0x1c, 0xbe,
  0xf0, 0x76, 0x7a, 0x3e, 0xa4, 0xee, 0x3c, 0x3e, 0xc0, 0x90, 0x0f, 0x3f,
  0x18, 0x80, 0x14, 0xbe, 0x58, 0xc1, 0xd9, 0x3d, 0x7c, 0xd4, 0x4b, 0xbe,
  0x80, 0x5c, 0xd2, 0x3d, 0x8e, 0x11, 0x36, 0x3d, 0x53, 0xd6, 0x93, 0x3e,
  0x10, 0x6d, 0x0f, 0xbd, 0xd0, 0x3c, 0xf1, 0x3d, 0xdc, 0x96, 0x59, 0x3e,
  0xb0, 0x7e, 0x5d, 0xbd, 0xff, 0x22, 0x09, 0x3e, 0x94, 0x43, 0xa3, 0x3d,
  0x4c, 0x3d, 0x62, 0xbe, 0xec, 0xa8, 0x78, 0xbe, 0xef, 0x0d, 0x33, 0x3e,
  0x95, 0xd8, 0xf7, 0xbd, 0x65, 0x5d, 0xc2, 0xbd, 0x37, 0xc6, 0x49, 0x3d,
  0x4c, 0x07, 0x05, 0x3e, 0xc3, 0x2d, 0x7b, 0x3e, 0x54, 0x30, 0x1a, 0x3d,
  0xa0, 0x9c, 0xd7, 0x3c, 0x5c, 0xf2, 0x78, 0x3e, 0xd8, 0x0a, 0x13, 0x3e,
  0xc5, 0xb8, 0xac, 0xbd, 0x54, 0x39, 0x18, 0xbe, 0x7c, 0x43, 0x77, 0x3e,
  0x06, 0x5b, 0x09, 0x3d, 0xdc, 0x8c, 0xa3, 0x3d, 0x9a, 0xa3, 0x5c, 0xbd,
  0x06, 0xb7, 0xae, 0x3c, 0x98, 0x8a, 0x94, 0x3e, 0xb1, 0x2c, 0x90, 0xbd,
  0x52, 0x95, 0x29, 0xbd, 0x43, 0xb4, 0xce, 0x3d, 0xb0, 0x23, 0x0d, 0xbd,
  0xe3, 0x22, 0xcf, 0x3e, 0xe0, 0x1e, 0x4d, 0xbd, 0x14, 0xcb, 0x0e, 0xbe,
  0x64, 0x62, 0x3a, 0x3d, 0x68, 0xe5, 0xdb, 0x3d, 0xae, 0x36, 0xc7, 0xbe,
  0x40, 0xf6, 0x46, 0xbd, 0x29, 0x43, 0x81, 0xbe, 0xe3, 0x89, 0x98, 0x3e,
  0xf8, 0x37, 0x98, 0x3d, 0x59, 0x76, 0x86, 0xbe, 0x20, 0x9f, 0x0e, 0xbe,
  0xe0, 0xaa, 0x39, 0x3e, 0xa6, 0x10, 0x33, 0xbc, 0x6d, 0x17, 0x2b, 0x3e,
  0xd4, 0xf1, 0x07, 0x3e, 0xb8, 0xde, 0xef, 0xbd, 0xe4, 0x2f, 0x42, 0x3e,
  0x03, 0xec, 0x57, 0xbe, 0x57, 0x36, 0xb4, 0x3d, 0x80, 0xd6, 0x38, 0x3d,
  0x20, 0x86, 0xdf, 0xbc, 0x53, 0xe1, 0x3d, 0x3e, 0xe8, 0xb2, 0x68, 0x3e,
  0x48, 0x10, 0xa5, 0x3d, 0xc4, 0x29, 0x6f, 0xbe, 0xc0, 0x83, 0x0b, 0xbe,
  0x10, 0x36, 0x9d, 0x3e, 0x74, 0xdd, 0x5e, 0x3e, 0xb9, 0xa7, 0x2d, 0xbe,
  0x00, 0x4a, 0xe7, 0xba, 0xb0, 0xd1, 0x05, 0x3e, 0xef, 0xb6, 0x2e, 0x3e,
  0xc0, 0x38, 0x74, 0x3e, 0xb8, 0x1e, 0x66, 0x3e, 0xfc, 0x39, 0x5c, 0x3e,
  0x30, 0xaa, 0xe8, 0x3d, 0x8c, 0x8f, 0x0e, 0xbe, 0x30, 0x15, 0x30, 0xbd,
  0xe0, 0xd4, 0x2c, 0xbe, 0xe8, 0x89, 0x14, 0xbe, 0x08, 0x0e, 0x2b, 0x3e,
  0x40, 0x4e, 0xd0, 0xbd, 0x10, 0xcc, 0x1f, 0x3d, 0xa8, 0xdd, 0xda, 0xbd,
  0x80, 0x81, 0x2c, 0xbe, 0x74, 0xf8, 0x6f, 0x3e, 0x40, 0x3d, 0x5a, 0xbe,
  0x40, 0x63, 0xaf, 0xbd, 0x38, 0xd6, 0x2c, 0xbe, 0x78, 0x75, 0x68, 0x3e,
  0x40, 0x9e, 0x33, 0x3d, 0xf0, 0x85, 0x09, 0x3d, 0xc4, 0xa9, 0x6b, 0xbe,
  0x04, 0xcc, 0x73, 0xbe, 0x20, 0xae, 0xe5, 0xbd, 0xd4, 0x3e, 0x6c, 0x3e,
  0xd8, 0x61, 0x1e, 0xbe, 0x20, 0x62, 0x61, 0x3e, 0x00, 0xda, 0xd5, 0x3d,
  0x80, 0x49, 0x72, 0x3e, 0x40, 0x7b, 0x1e, 0x3d, 0x38, 0x37, 0x72, 0xbe,
  0xf8, 0x75, 0x58, 0xbe, 0x00, 0xad, 0x07, 0x3c, 0x70, 0x3e, 0x68, 0x3d,
  0x58, 0x59, 0x53, 0x3e, 0xb0, 0x2c, 0x01, 0x3d, 0x80, 0x7d, 0x1c, 0x3c,
  0x20, 0xd8, 0x6e, 0xbd, 0x60, 0x91, 0x41, 0xbe, 0xe0, 0xb7, 0x4a, 0xbd,
  0x80, 0x81, 0x27, 0xbe, 0x50, 0xee, 0x19, 0xbe, 0x38, 0xc7, 0xd4, 0xbd,
  0x90, 0x51, 0x52, 0x3e, 0xa4, 0xd7, 0x18, 0xbe, 0xe0, 0x8a, 0x37, 0x3e,
  0x20, 0xc9, 0x5c, 0xbe, 0xa8, 0x84, 0x07, 0xbe, 0x68, 0x97, 0x24, 0xbe,
  0xc4, 0xb8, 0x3e, 0x3e, 0xc0, 0xcc, 0xe2, 0xbd, 0x10, 0x27, 0x44, 0x3d,
  0xc0, 0xec, 0xbf, 0x3c, 0x88, 0xc5, 0xaa, 0x3d, 0x50, 0x54, 0x22, 0x3e,
  0x50, 0xb2, 0x7e, 0x3e, 0x3c, 0xc2, 0x1e, 0xbe, 0x64, 0xdf, 0x7d, 0x3e,
  0xa0, 0x2b, 0xa8, 0x3d, 0x7c, 0x99, 0x32, 0x3e, 0xb0, 0x56, 0x99, 0x3d,
  0x98, 0xc0, 0xa4, 0x3d, 0x90, 0x75, 0x48, 0x3e, 0x40, 0x12, 0x81, 0x3d,
  0x04, 0xbe, 0x0c, 0x3e, 0x14, 0xfd, 0x5b, 0x3e, 0x68, 0xb0, 0x40, 0xbe,
  0x90, 0x83, 0xf5, 0x3d, 0xdc, 0x65, 0x6a, 0xbe, 0xa0, 0xc4, 0x40, 0x3e,
  0x66, 0x70, 0x8b, 0xbd, 0x0b, 0x16, 0x4d, 0x3e, 0x14, 0x9d, 0x2b, 0xbe,
  0xc8, 0x38, 0x09, 0xbe, 0xd1, 0x98, 0x49, 0x3d, 0x78, 0x0f, 0x55, 0xbe,
  0xf2, 0x21, 0x04, 0x3e, 0xec, 0x60, 0x27, 0xbe, 0xec, 0x65, 0x38, 0xbe,
  0x71, 0x3b, 0xa0, 0xbe, 0x63, 0x17, 0x94, 0xbe, 0xd4, 0xa2, 0x46, 0xbe,
  0xe2, 0xc5, 0x3b, 0xbd, 0xf0, 0x0f, 0x61, 0xbe, 0x6a, 0x63, 0xcb, 0xbb,
  0xd0, 0x29, 0xfb, 0xbd, 0xb8, 0x16, 0x4f, 0x3e, 0xcb, 0xc6, 0x52, 0xbd,
  0x90, 0x0d, 0x8b, 0x3e, 0x5a, 0xee, 0xcd, 0x3c, 0x1a, 0x00, 0x32, 0xbe,
  0xb9, 0xdc, 0xba, 0xbe, 0x7a, 0x44, 0x50, 0x3e, 0x3a, 0xad, 0x3c, 0xbd,
  0x35, 0x97, 0x52, 0xbe, 0x60, 0x63, 0xba, 0xbd, 0x90, 0x32, 0xc3, 0xbd,
  0xa0, 0xa6, 0xf9, 0x3d, 0x40, 0x21, 0xf4, 0xbd, 0xf9, 0x09, 0x79, 0xbd,
  0xac, 0x96, 0x0b, 0x3e, 0x72, 0x0c, 0x71, 0x3e, 0x20, 0xcd, 0xfe, 0xbd,
  0xcd, 0x6b, 0x90, 0x3e, 0x2e, 0xb3, 0x19, 0xbe, 0xa0, 0x3a, 0x5d, 0x3e,
  0x23, 0x55, 0xe3, 0x3e, 0xb0, 0xa5, 0x17, 0x3d, 0xff, 0x3d, 0x42, 0x3e,
  0xd6, 0x6e, 0xa5, 0x3d, 0xc5, 0x7f, 0x1f, 0x3e, 0xc8, 0x37, 0xa1, 0x3d,
  0x36, 0xae, 0x54, 0xbd, 0xe0, 0xee, 0x37, 0x3e, 0xd8, 0x99, 0x83, 0x3e,
  0x38, 0xb0, 0x6c, 0x3e, 0x78, 0x93, 0x7a, 0x3e, 0x80, 0xb3, 0x14, 0xbc,
  0x88, 0x08, 0x04, 0x3e, 0x14, 0x97, 0x75, 0xbe, 0xb8, 0xb2, 0xeb, 0xbd,
  0x70, 0x6a, 0xc5, 0x3d, 0x24, 0x6c, 0x7c, 0xbe, 0x8b, 0xf1, 0xf3, 0x3d,
  0xd8, 0x6e, 0x15, 0x3e, 0xff, 0x28, 0xda, 0xbd, 0x4c, 0xd0, 0x3e, 0xbe,
  0xe0, 0x01, 0xcc, 0x3c, 0xef, 0x2f, 0xcd, 0xbd, 0xcb, 0xed, 0x16, 0x3d,
  0xb0, 0x04, 0x2e, 0xbe, 0x80, 0x35, 0xec, 0x3d, 0x50, 0xe8, 0x8d, 0xbd,
  0x70, 0x8e, 0xf8, 0xbd, 0x07, 0x52, 0x7a, 0x3e, 0xec, 0x96, 0x54, 0x3e,
  0x00, 0xdd, 0xfa, 0x3d, 0xc0, 0x29, 0x12, 0xbd, 0x1a, 0x8d, 0xb7, 0xbd,
  0xe2, 0x01, 0xe2, 0x3d, 0x04, 0x86, 0xe1, 0x3c, 0x50, 0x97, 0xec, 0x3d,
  0x50, 0xce, 0x4e, 0x3e, 0xd9, 0xe3, 0x2f, 0xbd, 0x60, 0x58, 0x7e, 0x3e,
  0xf0, 0xfd, 0x44, 0xbe, 0xdc, 0x50, 0xbe, 0x3d, 0x00, 0x1b, 0xfe, 0x3d,
  0x6f, 0x8e, 0x39, 0x3e, 0x80, 0x30, 0xd0, 0xbd, 0xc8, 0x42, 0x9b, 0xbd,
  0x57, 0x8b, 0x8f, 0x3d, 0x2e, 0x1d, 0xd8, 0xbd, 0xf2, 0x4c, 0xaf, 0xbd,
  0x9e, 0xd5, 0x83, 0x3e, 0x6e, 0x70, 0x83, 0x3e, 0x3e, 0x2a, 0xfe, 0x3c,
  0xc8, 0xc7, 0xf8, 0x3d, 0x00, 0x1c, 0x10, 0xbe, 0x30, 0x35, 0x97, 0xbd,
  0x78, 0x5d, 0xbf, 0x3e, 0x28, 0x85, 0xda, 0x3d, 0x50, 0x40, 0x69, 0xbe,
  0x1a, 0x40, 0xd7, 0x3d, 0xe4, 0xcb, 0x7b, 0x3e, 0x72, 0x80, 0x35, 0x3d,
  0x30, 0xb6, 0x3a, 0x3d, 0x1f, 0xdc, 0x6e, 0x3e, 0xf6, 0xfc, 0xe7, 0x3d,
  0x64, 0x00, 0x56, 0xbe, 0x57, 0x18, 0x33, 0x3d, 0x30, 0x14, 0xd5, 0x3d,
  0xd4, 0xa4, 0x4f, 0xbc, 0x6b, 0x42, 0x49, 0x3d, 0x77, 0x41, 0x71, 0xbd,
  0xc0, 0xdc, 0xa1, 0xbc, 0xe8, 0x05, 0x2c, 0xbe, 0x80, 0xb8, 0x6e, 0x3c,
  0x76, 0x29, 0xb3, 0x3e, 0x65, 0x11, 0x4a, 0x3e, 0x80, 0x79, 0xee, 0xbd,
  0x00, 0x54, 0xbd, 0x3a, 0x8f, 0x9c, 0x37, 0xbd, 0xa0, 0x34, 0xef, 0xbd,
  0xfc, 0x50, 0x6b, 0x3e, 0x10, 0xcc, 0xa9, 0x3d, 0x48, 0x61, 0x20, 0x3e,
  0x38, 0x99, 0xd8, 0x3e, 0x40, 0x6c, 0x74, 0x3c, 0x19, 0x4f, 0x2c, 0x3d,
  0xd8, 0xf1, 0x93, 0x3d, 0xf0, 0x65, 0x7f, 0xbd, 0xed, 0x02, 0x55, 0xbe,
  0x0c, 0x5c, 0xeb, 0x3e, 0xa8, 0xb8, 0xf6, 0x3d, 0x80, 0xb0, 0x1e, 0x3e,
  0x28, 0x2f, 0x64, 0xbe, 0x4c, 0x14, 0x00, 0xbe, 0xe8, 0xca, 0x9a, 0xbd,
  0x40, 0x37, 0x3d, 0x3c, 0x60, 0xc3, 0xbb, 0xbc, 0x5c, 0xde, 0x15, 0x3e,
  0xe8, 0xcf, 0xb1, 0xbd, 0xdc, 0x37, 0x07, 0x3e, 0x58, 0x01, 0x88, 0x3d,
  0xa0, 0x47, 0x32, 0xbd, 0xf0, 0xd6, 0x2d, 0xbd, 0xd0, 0x32, 0x2b, 0x3d,
  0xe0, 0xeb, 0xec, 0xbd, 0x80, 0x76, 0xf8, 0xbc, 0x9c, 0x79, 0x63, 0x3e,
  0x20, 0xa0, 0x2c, 0xbe, 0x08, 0xcb, 0xb7, 0xbd, 0x20, 0xb2, 0x15, 0xbd,
  0x60, 0x01, 0xf3, 0x3d, 0xb4, 0xfd, 0x33, 0xbe, 0x50, 0x08, 0x24, 0x3d,
  0xe0, 0xa7, 0xb6, 0x3c, 0xd8, 0x5b, 0x1a, 0xbe, 0x88, 0xc6, 0x36, 0x3e,
  0x60, 0xa7, 0xab, 0x3c, 0x80, 0x9b, 0x9c, 0x3b, 0x70, 0x32, 0xc4, 0xbd,
  0xec, 0x6b, 0x78, 0xbe, 0x20, 0xe2, 0xcd, 0xbc, 0x10, 0x54, 0x39, 0x3d,
  0xa0, 0xb4, 0x55, 0x3d, 0x20, 0xb9, 0x89, 0xbd, 0xd8, 0x20, 0x83, 0xbd,
  0x40, 0xdf, 0x0c, 0xbc, 0x98, 0x61, 0x10, 0x3e, 0x78, 0xb5, 0x46, 0x3e,
  0xbc, 0x10, 0x25, 0x3e, 0x78, 0x21, 0xfe, 0xbd, 0x50, 0xcb, 0x1a, 0x3d,
  0x00, 0xc2, 0xa7, 0x3b, 0x1c, 0x95, 0x7e, 0x3e, 0x90, 0xf5, 0xcd, 0xbd,
  0xb8, 0xed, 0x78, 0xbe, 0x4c, 0xd6, 0x0e, 0xbe, 0x00, 0x27, 0x53, 0x3e,
  0x6c, 0x85, 0x37, 0xbe, 0x00, 0x28, 0xb2, 0x39, 0xa8, 0x7c, 0x7f, 0x3e,
  0x80, 0x74, 0x5c, 0xbd, 0x28, 0x53, 0xae, 0xbd, 0xc8, 0x72, 0xee, 0xbd,
  0x54, 0x61, 0x7b, 0xbe, 0xf8, 0x50, 0x69, 0x3e, 0x48, 0x86, 0x2b, 0x3e,
  0xb8, 0x04, 0x39, 0xbe, 0xc0, 0x51, 0xc8, 0xbd, 0x88, 0x37, 0x87, 0xbd,
  0x50, 0x0a, 0x68, 0xbd, 0xa0, 0x45, 0x0b, 0xbe, 0x98, 0x0c, 0x6d, 0xbe,
  0x24, 0xb4, 0x1a, 0xbe, 0x40, 0x19, 0xaf, 0x3c, 0xe0, 0xf6, 0x78, 0x3e,
  0x84, 0xa1, 0x32, 0x3e, 0xb8, 0xf0, 0x74, 0x3e, 0x90, 0xce, 0xaa, 0x3d,
  0x58, 0xe3, 0xf1, 0xbd, 0x81, 0x43, 0x70, 0xbe, 0x2c, 0x98, 0x37, 0xbe,
  0x78, 0x65, 0xde, 0x3d, 0x5b, 0x23, 0xbd, 0xbc, 0x88, 0x7b, 0xe2, 0xbd,
  0x58, 0x21, 0x5e, 0xbe, 0xc4, 0x0e, 0x39, 0x3e, 0x7c, 0xea, 0x11, 0xbe,
  0xd7, 0x18, 0x57, 0x3e, 0x99, 0x3d, 0x5b, 0xbd, 0x50, 0x1c, 0x0e, 0x3e,
  0xf8, 0x6e, 0x1c, 0xbe, 0x34, 0x29, 0x59, 0xbe, 0x82, 0xce, 0x88, 0xbe,
  0x30, 0xa2, 0x51, 0xbd, 0x20, 0xed, 0x01, 0xbd, 0xb2, 0x7c, 0x29, 0xbe,
  0x78, 0xe9, 0x82, 0xbe, 0x74, 0x8e, 0x5d, 0x3e, 0x2d, 0xe4, 0x65, 0x3d,
  0x0d, 0x68, 0x84, 0x3d, 0x48, 0x18, 0x0b, 0x3e, 0x3c, 0xcb, 0x50, 0xbe,
  0x00, 0x37, 0x52, 0x3c, 0x8c, 0xa1, 0x0f, 0x3e, 0x1b, 0x8e, 0x26, 0xbb,
  0x60, 0x18, 0xe4, 0xbc, 0xe0, 0x4b, 0x00, 0xbd, 0xbd, 0xeb, 0x6f, 0x3d,
  0x94, 0xcb, 0x4f, 0xbe, 0x02, 0xfd, 0x53, 0x3d, 0xe0, 0xaa, 0xc1, 0xbd,
  0xab, 0xc0, 0xe3, 0xbc, 0xf0, 0x5e, 0x29, 0x3e, 0x90, 0xd2, 0x3f, 0xbd,
  0xbc, 0x7f, 0x6b, 0xbd, 0x58, 0x67, 0x45, 0xbe, 0x1d, 0x70, 0x0b, 0xbd,
  0xb5, 0x91, 0x77, 0xbe, 0x23, 0x8b, 0x39, 0xbe, 0xc0, 0xb3, 0x30, 0xbe,
  0xbf, 0x36, 0x5d, 0x3d, 0x9c, 0x9d, 0x6d, 0xbe, 0x9c, 0xb0, 0x48, 0x3e,
  0x38, 0xa8, 0xd1, 0xbd, 0x74, 0xf7, 0x75, 0xbe, 0x80, 0x2a, 0xfe, 0xbd,
  0x15, 0x24, 0xc1, 0x3d, 0x88, 0xb1, 0xe5, 0xbd, 0xc0, 0x15, 0x5e, 0x3d,
  0x90, 0x7f, 0xe3, 0x3d, 0xb8, 0xe2, 0xd4, 0x3d, 0x4a, 0x16, 0x83, 0xb9,
  0xb0, 0xd0, 0x4a, 0xbd, 0x80, 0x18, 0x11, 0x3e, 0x54, 0xfa, 0x64, 0xbe,
  0x80, 0x08, 0x24, 0x3e, 0x82, 0x5c, 0x65, 0xbe, 0xbd, 0x63, 0x4a, 0x3d,
  0x30, 0xfc, 0xef, 0x3d, 0x80, 0x5d, 0x6e, 0x3c, 0x20, 0x52, 0x21, 0xbe,
  0x20, 0x3e, 0x4a, 0x3e, 0x3e, 0x15, 0x54, 0x3e, 0x74, 0xe3, 0xa5, 0x3e,
  0xe4, 0xa4, 0x62, 0xbe, 0x0c, 0x48, 0x11, 0xbe, 0x1d, 0x2a, 0xb8, 0xbc,
  0xc7, 0xd5, 0xa9, 0xbd, 0x90, 0x58, 0xef, 0xbd, 0xed, 0xd2, 0x83, 0x3e,
  0x28, 0x22, 0x51, 0xbe, 0x25, 0x3a, 0x35, 0xbd, 0xba, 0xe6, 0x4f, 0xbe,
  0xe8, 0x72, 0x00, 0x3e, 0x37, 0x84, 0xb4, 0x3d, 0xac, 0x2a, 0x38, 0xbe,
  0x85, 0xcd, 0x4d, 0xbe, 0x00, 0x48, 0x26, 0x3b, 0x9c, 0xc6, 0x0b, 0xbe,
  0x61, 0x44, 0x3c, 0x3e, 0x23, 0x5a, 0x9d, 0xbd, 0xe7, 0x59, 0x5b, 0x3d,
  0x1e, 0x42, 0xa1, 0xbd, 0xf0, 0xc9, 0xb3, 0xbe, 0x07, 0x3a, 0xae, 0xbd,
  0xac, 0x90, 0x4a, 0xbd, 0x8c, 0xd6, 0x9b, 0xbd, 0x10, 0xa4, 0x47, 0xbd,
  0x0f, 0xed, 0x9e, 0xbe, 0xc0, 0xca, 0x29, 0x3d, 0x70, 0x5d, 0x67, 0xbe,
  0x91, 0x0f, 0xc1, 0x3e, 0x88, 0xfd, 0x9b, 0x3d, 0x00, 0x90, 0x90, 0xbe,
  0x90, 0xc8, 0x0b, 0xbd, 0x72, 0x06, 0x89, 0x3e, 0x71, 0x4d, 0x93, 0xbe,
  0x80, 0x9a, 0x69, 0x3d, 0xfd, 0x3f, 0xa6, 0x3e, 0xc8, 0xab, 0xde, 0x3d,
  0x53, 0x7b, 0xfc, 0xbd, 0xb8, 0x25, 0x91, 0x3d, 0x7a, 0x36, 0x10, 0x3e,
  0x00, 0x3c, 0x96, 0x3d, 0x38, 0x15, 0x4f, 0x3d, 0xc0, 0xdd, 0x17, 0x3e,
  0xeb, 0x41, 0xc3, 0x3e, 0x0e, 0x4a, 0x3d, 0xbe, 0x40, 0x5f, 0x68, 0xbc,
  0xa8, 0x66, 0xe2, 0xbd, 0x33, 0xc5, 0x04, 0x3e, 0xac, 0xaf, 0x5e, 0xbe,
  0x80, 0xd9, 0x39, 0xbc, 0x20, 0xf7, 0xa8, 0x3c, 0xc0, 0xbe, 0x17, 0x3e,
  0x56, 0xb0, 0xbd, 0x3e, 0xf4, 0x28, 0x58, 0x3e, 0x42, 0xee, 0xbb, 0x3d,
  0xa8, 0xf9, 0x6c, 0x3e, 0x74, 0xfa, 0x1a, 0x3e, 0xa6, 0xc1, 0x4e, 0x3d,
  0x8f, 0x15, 0xf4, 0x3e, 0x60, 0x9f, 0xe1, 0xbc, 0x14, 0x0d, 0x08, 0xbe,
  0x20, 0xe8, 0xfc, 0x3c, 0x00, 0x43, 0x58, 0xbd, 0x94, 0x33, 0x5f, 0x3e,
  0x10, 0x52, 0x6a, 0x3d, 0xc0, 0x7e, 0xf0, 0xbd, 0x00, 0x26, 0x79, 0xbe,
  0x00, 0x25, 0x5c, 0xbe, 0x0c, 0x7e, 0x26, 0xbe, 0x6c, 0x65, 0x56, 0x3e,
  0x00, 0x3e, 0xdb, 0xbb, 0xc0, 0xf2, 0x3c, 0xbd, 0x68, 0x78, 0x63, 0x3e,
  0xc0, 0xc7, 0x32, 0x3e, 0x64, 0x52, 0x6f, 0x3e, 0xf0, 0xa8, 0x40, 0xbd,
  0xb4, 0x2e, 0x61, 0xbe, 0xe0, 0xe4, 0x80, 0xbd, 0x40, 0x9f, 0xed, 0xbd,
  0xf8, 0x32, 0x89, 0xbd, 0x38, 0x3b, 0x45, 0xbe, 0x94, 0x6d, 0x5e, 0x3e,
  0x40, 0x53, 0x7d, 0x3c, 0xe4, 0xef, 0x71, 0x3e, 0xf0, 0x22, 0x22, 0xbd,
  0x38, 0x98, 0xf4, 0xbd, 0x30, 0x93, 0x4b, 0x3d, 0x18, 0x9b, 0xe4, 0x3d,
  0x10, 0x95, 0x5c, 0xbd, 0xdc, 0x01, 0x62, 0x3e, 0x88, 0x57, 0xb9, 0x3d,
  0xdc, 0xcd, 0x37, 0x3e, 0xf0, 0x71, 0x65, 0xbd, 0x48, 0xb8, 0xb5, 0xbd,
  0x70, 0x11, 0x67, 0x3d, 0x50, 0xe8, 0x22, 0xbd, 0xa0, 0x9f, 0x43, 0x3d,
  0x88, 0xb1, 0x20, 0xbe, 0x98, 0x4b, 0xef, 0xbd, 0x30, 0x03, 0x2f, 0xbd,
  0xd0, 0x96, 0x83, 0x3d, 0xb4, 0xdd, 0x58, 0xbe, 0x78, 0xe3, 0xff, 0x3d,
  0xfc, 0xe9, 0x4a, 0xbe, 0x58, 0x5b, 0xf1, 0x3d, 0x8c, 0x7b, 0x42, 0xbe,
  0xc0, 0x9e, 0x5e, 0xbc, 0x90, 0x46, 0x57, 0xbe, 0x04, 0x4f, 0x09, 0x3e,
  0x38, 0x58, 0x35, 0xbe, 0xc0, 0xea, 0x04, 0x3c, 0x28, 0x8e, 0xe6, 0xbd,
  0x88, 0xd3, 0x59, 0x3e, 0x70, 0x16, 0x36, 0xbe, 0x58, 0x21, 0x5d, 0xbe,
  0xd0, 0xc4, 0xdb, 0x3d, 0xc0, 0xa3, 0xea, 0xbd, 0xe8, 0x4e, 0xb1, 0xbd,
  0x78, 0x00, 0x40, 0x3e, 0x70, 0x8a, 0x93, 0x3d, 0xd8, 0x50, 0x9c, 0x3d,
  0x00, 0xd5, 0x17, 0x3b, 0x7c, 0x74, 0x78, 0x3e, 0x00, 0x33, 0x6f, 0xbb,
  0x74, 0x11, 0x65, 0x3e, 0x60, 0x2e, 0x92, 0xbd, 0xe0, 0x24, 0x67, 0xbe,
  0x30, 0xa5, 0xb2, 0xbd, 0x6c, 0x17, 0x40, 0x3e, 0x00, 0x43, 0x3e, 0x3b,
  0x70, 0xc8, 0x71, 0x3e, 0x74, 0x07, 0x2d, 0xbe, 0x68, 0x4f, 0xba, 0x3d,
  0xec, 0x3b, 0x39, 0xbe, 0x30, 0xc1, 0x03, 0x3e, 0x4c, 0x66, 0x1f, 0x3e,
  0xcc, 0x85, 0x77, 0xbe, 0x70, 0x1e, 0x5b, 0xbd, 0x70, 0x57, 0x6a, 0x3d,
  0x90, 0xea, 0x79, 0xbe, 0xa0, 0xaa, 0x7a, 0xbe, 0x90, 0x20, 0x6c, 0xbe,
  0xd0, 0x40, 0xe6, 0x3d, 0xa0, 0x93, 0x5f, 0x3e, 0xc0, 0x9c, 0xa3, 0xbd,
  0x3c, 0xbf, 0x4c, 0x3e, 0x80, 0xfa, 0xab, 0xbd, 0xb0, 0x4c, 0x57, 0xbe,
  0x20, 0x54, 0xeb, 0x3c, 0x60, 0x45, 0xe0, 0x3c, 0x30, 0x23, 0x1d, 0x3e,
  0xc8, 0xb8, 0x6f, 0x3e, 0x40, 0x74, 0x5c, 0x3c, 0x74, 0xe4, 0x46, 0x3e,
  0x20, 0xc9, 0x35, 0xbe, 0x00, 0x03, 0xcb, 0x3b, 0x18, 0xce, 0xa4, 0x3d,
  0xe0, 0x9a, 0x0b, 0x3d, 0x80, 0xd2, 0x97, 0xbd, 0x80, 0x4f, 0x7f, 0x3d,
  0xe0, 0x8b, 0x0d, 0x3d, 0x40, 0x25, 0xcf, 0x3d, 0xc0, 0xbf, 0x4e, 0x3d,
  0x10, 0x3b, 0x7f, 0xbd, 0x60, 0xc7, 0x06, 0xbd, 0x10, 0xf7, 0xbe, 0xbd,
  0x4c, 0xa1, 0x32, 0xbe, 0x78, 0x78, 0xe6, 0x3d, 0xa0, 0x1c, 0xd3, 0x3c,
  0xe0, 0xb9, 0xd2, 0x3c, 0xe8, 0x12, 0xc6, 0xbd, 0x60, 0x8d, 0x4c, 0xbe,
  0xf0, 0x44, 0x12, 0x3d, 0xe0, 0xca, 0xe9, 0xbc, 0x60, 0x7d, 0xc7, 0x3d,
  0xf0, 0x3a, 0x24, 0xbe, 0x08, 0x00, 0x3d, 0xbe, 0x68, 0x11, 0xb3, 0x3d,
  0x88, 0x24, 0x80, 0x3d, 0x04, 0x37, 0x23, 0x3e, 0x30, 0xaf, 0x97, 0xbd,
  0xf8, 0xad, 0x61, 0x3e, 0x40, 0x19, 0xaf, 0xbc, 0xc0, 0x9b, 0x33, 0xbe,
  0xcc, 0x49, 0x33, 0x3e, 0xf8, 0x93, 0xa5, 0x3d, 0xc0, 0x6d, 0x26, 0xbd,
  0x40, 0x9d, 0xfa, 0x3d, 0xb8, 0x35, 0xaf, 0x3d, 0x10, 0xd4, 0x52, 0x3d,
  0x10, 0xe7, 0xc8, 0x3d, 0x62, 0xb0, 0x7a, 0xbe, 0x50, 0xc1, 0x24, 0x3e,
  0x10, 0x6b, 0x57, 0xbd, 0xc8, 0x35, 0xab, 0xbd, 0x0c, 0x02, 0x1e, 0xbd,
  0x6c, 0x63, 0x6e, 0xbe, 0x30, 0x32, 0x1b, 0x3d, 0x4c, 0x6f, 0x2e, 0xbe,
  0x68, 0x1b, 0xa0, 0x3d, 0xe9, 0xbf, 0x80, 0xbe, 0xe1, 0xcd, 0xcb, 0xbd,
  0x70, 0x48, 0x89, 0xbd, 0xb0, 0x98, 0x41, 0xbe, 0x04, 0xad, 0x58, 0xbe,
  0xe0, 0xca, 0xc1, 0x3d, 0xf0, 0x54, 0x44, 0xbe, 0x80, 0x9f, 0x88, 0xbc,
  0xf1, 0xa2, 0x9e, 0xbd, 0x85, 0x9a, 0x96, 0x3d, 0xd9, 0x46, 0x6c, 0xbe,
  0x5e, 0xeb, 0xa3, 0x3d, 0xba, 0xec, 0x8e, 0xbd, 0x10, 0x9b, 0x74, 0xbd,
  0x5d, 0x8b, 0x61, 0x3a, 0xc0, 0xf9, 0x44, 0xbc, 0x80, 0xd6, 0x67, 0x3e,
  0xc2, 0x01, 0x0e, 0xbe, 0x38, 0xab, 0xd0, 0xbd, 0x40, 0x68, 0xa0, 0x3c,
  0x33, 0x0e, 0x1b, 0x3d, 0xe0, 0xe9, 0xe3, 0xbd, 0xc1, 0xc4, 0x04, 0x3d,
  0x80, 0x0e, 0x81, 0x3c, 0x45, 0xc5, 0x18, 0xbc, 0xb1, 0x6d, 0x1b, 0x3e,
  0x30, 0x18, 0x2c, 0xbe, 0xcf, 0xae, 0x09, 0xbe, 0xcc, 0xc5, 0x52, 0x3e,
  0x57, 0x41, 0x09, 0xbe, 0x1f, 0x66, 0x5a, 0xbd, 0x66, 0xaf, 0x09, 0x3e,
  0xc4, 0x7e, 0x28, 0x3e, 0xca, 0xea, 0xec, 0xbd, 0xe0, 0xd3, 0xd4, 0x3d,
  0x43, 0x79, 0x55, 0x3d, 0xbc, 0x0f, 0x28, 0x3e, 0x38, 0xfe, 0x62, 0xbe,
  0xe4, 0x7e, 0x29, 0x3e, 0xf5, 0x6b, 0x1c, 0x3e, 0x08, 0x9e, 0xac, 0x3d,
  0x80, 0x59, 0xce, 0xbb, 0x58, 0x19, 0x16, 0x3e, 0xe0, 0x95, 0xf0, 0x3d,
  0xb5, 0x18, 0x81, 0x3c, 0x80, 0x86, 0xf4, 0x3b, 0xd8, 0xf5, 0xcc, 0xbd,
  0x50, 0xfd, 0x1c, 0xbe, 0xb0, 0xe4, 0xc5, 0x3d, 0xc3, 0xba, 0x5c, 0xbe,
  0xab, 0xb1, 0x84, 0x3d, 0x74, 0xbd, 0x44, 0xbe, 0x20, 0x7f, 0x06, 0x3d,
  0x90, 0x41, 0xeb, 0xbd, 0x60, 0x18, 0xfe, 0xbd, 0xd7, 0xfd, 0x18, 0x3e,
  0x47, 0x32, 0x65, 0xbe, 0xf0, 0xef, 0xd2, 0x3d, 0x0c, 0x97, 0x29, 0x3e,
  0xcf, 0x7b, 0x3e, 0xbe, 0xc5, 0x83, 0xcf, 0xbd, 0x86, 0xe4, 0xfe, 0xbd,
  0x69, 0x80, 0x04, 0x3e, 0x00, 0x32, 0xde, 0x3c, 0x2c, 0x19, 0x74, 0xbe,
  0xb2, 0x06, 0x33, 0x3e, 0x4c, 0x95, 0x45, 0x3e, 0xa2, 0xc4, 0x69, 0x3d,
  0x98, 0xe8, 0x24, 0x3e, 0x0b, 0x69, 0xb3, 0xbd, 0xb0, 0x02, 0xb1, 0xbd,
  0xe0, 0x70, 0x95, 0xbc, 0x37, 0x3e, 0x92, 0xbe, 0xdb, 0x7a, 0x38, 0xbe,
  0xdd, 0x82, 0x40, 0x3e, 0x9d, 0x9d, 0xb3, 0x3c, 0x32, 0x21, 0xee, 0x3d,
  0xb6, 0xbe, 0xcf, 0xbc, 0xc0, 0xdb, 0x48, 0xbe, 0xa1, 0xf8, 0x0e, 0xbd,
  0xd4, 0x48, 0x77, 0xbe, 0x72, 0x58, 0x40, 0xbd, 0x10, 0x0d, 0xa7, 0x3d,
  0x18, 0x7f, 0x5a, 0x3e, 0x33, 0x96, 0x35, 0x3e, 0x60, 0xf9, 0x69, 0x3d,
  0xda, 0x5c, 0x42, 0xbe, 0x10, 0xdb, 0x7f, 0xbe, 0x4a, 0x22, 0x47, 0xbe,
  0x90, 0x3d, 0xd4, 0x3d, 0xc8, 0x81, 0xeb, 0xbd, 0xdc, 0x1a, 0x47, 0x3e,
  0xa0, 0x8a, 0x69, 0x3e, 0xc5, 0x4f, 0x39, 0xbc, 0x1e, 0x72, 0x14, 0xbc,
  0xeb, 0xce, 0xd9, 0xbd, 0x90, 0x09, 0x42, 0x3d, 0xd0, 0x49, 0xa3, 0xbc,
  0x2c, 0xa1, 0x5c, 0xbe, 0x8f, 0x1b, 0x2b, 0x3e, 0x42, 0x86, 0x2f, 0xbe,
  0x40, 0xab, 0x0e, 0x3c, 0x30, 0xc8, 0x36, 0xbe, 0x0f, 0x17, 0x28, 0x3d,
  0x38, 0xfc, 0x99, 0xbd, 0xc0, 0xf8, 0xd2, 0x3d, 0x6c, 0xd5, 0x05, 0x3e,
  0x00, 0x08, 0xf5, 0xbd, 0x79, 0xb3, 0x50, 0xbe, 0x08, 0xeb, 0x3d, 0xbe,
  0x0b, 0xfd, 0xed, 0x3c, 0xa0, 0x95, 0xd6, 0x3c, 0xc0, 0x31, 0x46, 0x3c,
  0xad, 0xe2, 0xcf, 0xbd, 0xd3, 0x84, 0xb6, 0x3d, 0x58, 0x41, 0xa1, 0x3d,
  0x98, 0x34, 0xfc, 0xbd, 0x00, 0x58, 0xa4, 0x3b, 0x70, 0x9f, 0x6e, 0xbe,
  0xf6, 0xf1, 0x8c, 0x3e, 0x8f, 0xe1, 0xb7, 0x3e, 0xb8, 0x8d, 0xa9, 0x3d,
  0x5c, 0xc9, 0x3a, 0x3e, 0xbd, 0xac, 0x98, 0x3c, 0x31, 0xd1, 0x57, 0xbe,
  0xcd, 0x7b, 0x65, 0xbb, 0xd7, 0x7a, 0x09, 0x3e, 0x40, 0x20, 0x0f, 0xbd,
  0x00, 0xab, 0xcf, 0x3e, 0x0e, 0xc6, 0x22, 0xbc, 0x98, 0x25, 0xad, 0x3d,
  0x14, 0x2b, 0x5f, 0x3e, 0x70, 0x46, 0xb5, 0xbd, 0x23, 0x1d, 0xd4, 0x3d,
  0x40, 0x44, 0x39, 0x3c, 0x18, 0xea, 0x6d, 0xbe, 0xbc, 0x40, 0xae, 0x3b,
  0x29, 0x8d, 0x7f, 0xbd, 0x0c, 0xed, 0xae, 0x3e, 0x36, 0x11, 0xf1, 0x3b,
  0xcb, 0x56, 0xf1, 0x3c, 0x47, 0x4e, 0x94, 0x3a, 0x8a, 0x9e, 0x1d, 0xbe,
  0x39, 0xa7, 0x0c, 0xbe, 0x10, 0x75, 0x92, 0xbd, 0xe3, 0x2b, 0xd6, 0x3d,
  0x24, 0xdd, 0x26, 0x3e, 0x64, 0x74, 0x27, 0xbe, 0x3f, 0x89, 0xc6, 0x3e,
  0x88, 0x91, 0x4a, 0xbe, 0xff, 0x8a, 0x91, 0xbe, 0xcc, 0x31, 0x79, 0x3e,
  0xec, 0x34, 0x93, 0x3e, 0xf2, 0xf8, 0x4c, 0x3e, 0x80, 0xde, 0xd4, 0xbb,
  0xdc, 0x47, 0x29, 0x3e, 0xd0, 0xe1, 0x17, 0xbd, 0xbd, 0x75, 0x6a, 0x3e,
  0x69, 0x65, 0x8a, 0xbd, 0xf3, 0x36, 0x90, 0x3d, 0x54, 0x1d, 0x04, 0x3e,
  0x52, 0x68, 0xb0, 0xbd, 0xa8, 0xa9, 0x89, 0x3d, 0xdc, 0x6e, 0xc4, 0x3e,
  0x33, 0x84, 0x25, 0x3e, 0xcc, 0x05, 0x6f, 0xbe, 0x48, 0x0f, 0xf1, 0xbd,
  0xbd, 0xf8, 0x36, 0x3e, 0x60, 0x88, 0xed, 0x3d, 0x60, 0x8e, 0x2f, 0xbe,
  0xd0, 0x41, 0x79, 0xbe, 0xd4, 0xd9, 0x2d, 0x3e, 0xec, 0x50, 0x8a, 0x3d,
  0x20, 0x6f, 0x94, 0x3c, 0x0b, 0x71, 0xfc, 0xbd, 0x3c, 0x7f, 0x1f, 0x3e,
  0x40, 0x26, 0x6a, 0xbc, 0xb2, 0xbc, 0x23, 0xbc, 0x78, 0x3b, 0xc0, 0x3e,
  0x10, 0x3e, 0x61, 0xbe, 0xd0, 0x31, 0x91, 0x3d, 0xc8, 0x40, 0x54, 0x3e,
  0xe8, 0xa1, 0x3d, 0x3e, 0x30, 0xec, 0x03, 0x3e, 0xba, 0x9d, 0x9f, 0x3d,
  0xec, 0x00, 0x7c, 0x3e, 0xdc, 0x2a, 0x4d, 0xbe, 0x20, 0x0e, 0xa7, 0x3e,
  0xda, 0x07, 0xf4, 0x3d, 0xad, 0xe3, 0x6e, 0xbb, 0xf2, 0x62, 0x79, 0xbe,
  0xf0, 0xc0, 0xcd, 0x3d, 0x6e, 0x26, 0xe1, 0xbe, 0xe6, 0x9c, 0xa8, 0xbe,
  0x68, 0x15, 0xe9, 0x3d, 0x2a, 0xe4, 0x0f, 0xbe, 0x94, 0x1e, 0x28, 0x3e,
  0x40, 0xea, 0x53, 0x3e, 0x80, 0x70, 0x84, 0x3c, 0xd0, 0x72, 0xa6, 0x3d,
  0x5a, 0x9d, 0xd1, 0x3b, 0xda, 0x57, 0xb8, 0x3a, 0x3b, 0x7e, 0x35, 0xbe,
  0xdd, 0x09, 0x62, 0x3c, 0x49, 0xd3, 0x5b, 0xbe, 0x3b, 0xcf, 0xf1, 0xbd,
  0xb5, 0xae, 0x76, 0xbe, 0x2f, 0xc4, 0x6b, 0xbe, 0x84, 0x31, 0x44, 0xbe,
  0xbf, 0x27, 0x67, 0xbe, 0x40, 0xbf, 0xd4, 0x3c, 0x1c, 0x9d, 0x79, 0xbe,
  0xdb, 0x5b, 0xc2, 0x3e, 0xc0, 0x54, 0x44, 0x3e, 0x5f, 0x1b, 0x9a, 0x3e,
  0x40, 0x5c, 0x5e, 0xbe, 0xc6, 0xfd, 0xd0, 0x3d, 0xf0, 0x4d, 0x47, 0xbe,
  0xa0, 0xba, 0xe2, 0x3c, 0x72, 0x2f, 0xfc, 0x3e, 0x58, 0xf4, 0x2b, 0x3e,
  0x37, 0x67, 0xe0, 0x3d, 0x4e, 0x4a, 0x90, 0x3e, 0x20, 0xab, 0x91, 0xbe,
  0xb8, 0xcd, 0x0f, 0xbe, 0x82, 0xa4, 0x05, 0xbd, 0x10, 0x8f, 0x11, 0x3e,
  0xe8, 0xac, 0x87, 0x3e, 0x54, 0xb6, 0x54, 0x3e, 0xa8, 0xf4, 0xbe, 0x3d,
  0xc8, 0xfe, 0x23, 0xbe, 0xbc, 0xe5, 0x8b, 0x3e, 0xe0, 0xe2, 0x5c, 0x3d,
  0xd4, 0x52, 0x0d, 0xbe, 0x84, 0x2f, 0x52, 0xbe, 0x40, 0x8f, 0x03, 0xbe,
  0xa3, 0x7e, 0xda, 0x3c, 0xb0, 0xfc, 0x4d, 0x3e, 0xe2, 0x98, 0x43, 0x3e,
  0x00, 0xe2, 0xe2, 0x3d, 0x88, 0x33, 0x78, 0xbe, 0xf3, 0xd9, 0x0a, 0x3b,
  0xe3, 0xd3, 0xc4, 0xbc, 0xd0, 0x41, 0x5d, 0x3e, 0xa8, 0x41, 0xe2, 0x3d,
  0xe0, 0xc0, 0xc2, 0xbd, 0x80, 0x2e, 0xfa, 0x3b, 0x7d, 0xb1, 0x92, 0x3e,
  0xae, 0xd6, 0x5d, 0x3e, 0x90, 0x68, 0x2f, 0xbe, 0x50, 0x38, 0xb9, 0xbd,
  0xb5, 0xf6, 0x42, 0x3d, 0xfe, 0x9e, 0x43, 0xbe, 0x6b, 0x44, 0x8b, 0x3e,
  0x31, 0xd3, 0xa7, 0x3e, 0xc0, 0x42, 0x3a, 0xbc, 0x02, 0x8d, 0x2e, 0x3e,
  0xc9, 0x77, 0xd4, 0xbd, 0xd0, 0x2b, 0xa3, 0x3d, 0x6f, 0x0e, 0x86, 0x3e,
  0x90, 0x97, 0x80, 0xbd, 0x05, 0x04, 0x9e, 0xbd, 0x80, 0x74, 0xfa, 0x3d,
  0xb8, 0x7b, 0xf2, 0x3d, 0x78, 0xca, 0x63, 0x3e, 0xab, 0x4c, 0x24, 0xbe,
  0x44, 0x26, 0xc4, 0xbd, 0x83, 0xb7, 0x13, 0x3e, 0x77, 0x1c, 0x8f, 0x3d,
  0x8e, 0xd9, 0xc0, 0xbd, 0x9a, 0xa4, 0x2a, 0x3e, 0xb8, 0xca, 0x02, 0xbd,
  0xf8, 0xbe, 0x66, 0x3e, 0xba, 0xe5, 0x36, 0x3e, 0x40, 0x06, 0x95, 0x3c,
  0x60, 0xe5, 0x17, 0x3d, 0xdf, 0xf5, 0x82, 0x3e, 0xc4, 0xe8, 0x4d, 0x3e,
  0xbe, 0x58, 0xf3, 0xbe, 0xa0, 0x46, 0x44, 0x3e, 0x52, 0x7f, 0x49, 0x3e,
  0x7a, 0x09, 0xfc, 0xbd, 0x10, 0xe0, 0x90, 0x3d, 0xe5, 0xe5, 0x65, 0x3e,
  0xf8, 0x40, 0xd6, 0x3d, 0xab, 0x81, 0x0f, 0xbd, 0xbf, 0x35, 0xd6, 0xbe,
  0x80, 0x72, 0x34, 0xbe, 0x20, 0x1d, 0xab, 0x3c, 0x1d, 0xd5, 0x66, 0xbe,
  0xf4, 0xbf, 0x00, 0x3e, 0xc4, 0xcc, 0x1c, 0x3c, 0x3c, 0xbc, 0xe9, 0x3d,
  0x40, 0xbe, 0xcb, 0x3d, 0x80, 0x14, 0x0e, 0x3c, 0x12, 0x08, 0xcc, 0xbd,
  0x60, 0x94, 0x7a, 0xbe, 0x80, 0xed, 0x6e, 0x3d, 0xd8, 0xc0, 0x1c, 0xbe,
  0x30, 0x15, 0x37, 0x3d, 0x71, 0x1a, 0xd0, 0x3d, 0x78, 0x75, 0xf3, 0x3d,
  0x84, 0xcf, 0x71, 0xbe, 0xc8, 0x26, 0x06, 0xbe, 0x40, 0x47, 0x21, 0xbe,
  0x42, 0x35, 0xa9, 0xbe, 0xba, 0x16, 0x3a, 0x3e, 0x00, 0x43, 0xc4, 0xbb,
  0x60, 0x40, 0x71, 0xbe, 0xc0, 0x7f, 0x61, 0x3e, 0xf8, 0x99, 0xec, 0x3d,
  0x9e, 0xad, 0x7d, 0xbe, 0x78, 0xe1, 0xbd, 0x3d, 0x20, 0xa0, 0x35, 0xbd,
  0x80, 0x2c, 0xa8, 0xbb, 0xc7, 0x46, 0x2a, 0x3e, 0x6c, 0x77, 0xa3, 0xbd,
  0x87, 0xf7, 0x01, 0xbd, 0xe7, 0xb6, 0xc5, 0xbe, 0x08, 0x4d, 0x78, 0xbe,
  0xde, 0xaa, 0x18, 0xbf, 0x84, 0x46, 0x96, 0xbe, 0x20, 0x89, 0xd4, 0xbc,
  0xb2, 0xc1, 0xc7, 0xbe, 0xd0, 0x77, 0xa5, 0x3d, 0x50, 0xa5, 0x99, 0x3d,
  0x20, 0x63, 0x5f, 0xbe, 0xb0, 0x9d, 0x6c, 0x3e, 0x00, 0x52, 0x11, 0x3e,
  0x10, 0xf3, 0xf5, 0x3d, 0x10, 0xe5, 0xa5, 0x3d, 0x29, 0x3b, 0xfe, 0xbd,
  0x5c, 0x6d, 0x6f, 0xbd, 0xea, 0xe3, 0x4a, 0xbe, 0x03, 0x24, 0xbc, 0xbe,
  0xed, 0x9e, 0x4f, 0x3e, 0x30, 0x53, 0x21, 0x3d, 0x9b, 0x5a, 0xa8, 0xbd,
  0x7c, 0x35, 0x5a, 0xbe, 0x74, 0x51, 0x65, 0x3e, 0xea, 0xcb, 0x91, 0xbd,
  0x00, 0xfc, 0xa1, 0xbd, 0xe2, 0x1c, 0xb0, 0xbd, 0xfc, 0xf1, 0x16, 0xbe,
  0xfe, 0x4b, 0x2b, 0x3e, 0x8a, 0xcb, 0x90, 0xbe, 0x00, 0x25, 0x02, 0x3e,
  0x0e, 0xc8, 0xa6, 0x3e, 0xc0, 0x0d, 0xc6, 0x3c, 0xbe, 0x8b, 0x14, 0x3d,
  0xa3, 0x0b, 0x92, 0x3d, 0x81, 0x4d, 0x22, 0x3e, 0xe8, 0x0e, 0x1c, 0x3e,
  0xbd, 0x54, 0x78, 0x3d, 0xb8, 0x1d, 0x91, 0x3d, 0x37, 0x1a, 0x94, 0xbd,
  0xd1, 0xbb, 0xf1, 0x3c, 0x90, 0x18, 0x64, 0x3e, 0xd0, 0xd3, 0x5f, 0x3d,
  0x1d, 0x2d, 0x1f, 0x3e, 0xec, 0x63, 0x42, 0xbe, 0x80, 0xd0, 0x5d, 0xbd,
  0x80, 0x21, 0x96, 0x3b, 0xf0, 0xba, 0x6a, 0xbd, 0x45, 0x18, 0x38, 0xbf,
  0x48, 0xf1, 0x22, 0x3e, 0x45, 0xd4, 0x8f, 0x3d, 0x4c, 0xbc, 0x20, 0xbe,
  0x68, 0xd3, 0x53, 0xbe, 0x83, 0xa0, 0x34, 0x3e, 0x23, 0x21, 0x1a, 0x3d,
  0x30, 0xa6, 0x73, 0xbd, 0xc0, 0x0b, 0x81, 0x3d, 0xe0, 0xe1, 0xb9, 0x3d,
  0x54, 0xf8, 0x48, 0x3e, 0xe5, 0x68, 0x33, 0x3e, 0x7e, 0xae, 0x2c, 0xbe,
  0x00, 0x3a, 0x67, 0x3c, 0x18, 0x51, 0xa3, 0xbd, 0xef, 0x00, 0x62, 0x3c,
  0x85, 0xb0, 0x12, 0x3e, 0x8f, 0x84, 0x04, 0xbe, 0x7a, 0x6f, 0xad, 0xbe,
  0xf8, 0x1b, 0x3a, 0xbe, 0x75, 0x73, 0x03, 0xbe, 0xd3, 0xa8, 0x32, 0xbe,
  0x04, 0xf8, 0x35, 0x3e, 0xe8, 0xae, 0x89, 0x3e, 0xac, 0x09, 0x5f, 0xbe,
  0x79, 0xce, 0x12, 0xbe, 0xa8, 0x26, 0x4a, 0xbe, 0x00, 0xd4, 0x71, 0x3a,
  0x73, 0xe6, 0x72, 0x3e, 0x63, 0x9f, 0xb2, 0x3d, 0x18, 0x7b, 0x75, 0x3d,
  0x9e, 0x69, 0xc1, 0xbd, 0x93, 0x65, 0x18, 0xbe, 0x22, 0x79, 0xca, 0xbd,
  0xcd, 0x58, 0xc6, 0xbd, 0x74, 0x5b, 0x79, 0x3d, 0xd0, 0xce, 0x32, 0xbe,
  0x0b, 0xbd, 0x5b, 0xbe, 0x38, 0x3e, 0xf8, 0xbd, 0xb8, 0x9b, 0xfb, 0xbd,
  0x32, 0x28, 0x2b, 0xbe, 0x40, 0x61, 0x5c, 0xbd, 0xb4, 0x98, 0x5f, 0x3c,
  0xb8, 0x5b, 0x9d, 0xbd, 0x20, 0x92, 0x19, 0x3e, 0xa0, 0xf9, 0xb4, 0xbd,
  0x98, 0xd5, 0xc3, 0xbd, 0xde, 0x0b, 0x70, 0xbd, 0x4c, 0x46, 0x1c, 0xbe,
  0x3b, 0xf1, 0x50, 0x3e, 0x9b, 0xe5, 0x34, 0x3e, 0xab, 0x70, 0xd1, 0x3d,
  0xb8, 0x1f, 0x20, 0xbe, 0xf2, 0x43, 0x02, 0x3e, 0x50, 0xfb, 0x42, 0x3d,
  0x42, 0xb2, 0xd1, 0xbd, 0x37, 0x92, 0xd5, 0x3c, 0x20, 0x05, 0x8b, 0x3d,
  0x50, 0x6b, 0x49, 0xbd, 0x19, 0x84, 0x68, 0xbe, 0x5c, 0xfb, 0x11, 0x3e,
  0x24, 0xed, 0x77, 0x3e, 0x90, 0x86, 0xd4, 0x3d, 0xf8, 0x0b, 0xc3, 0xbd,
  0x22, 0x31, 0x7c, 0xbe, 0x20, 0x11, 0x0a, 0xbe, 0x13, 0x16, 0x65, 0xbe,
  0x80, 0x8f, 0xd0, 0x3d, 0x00, 0x4e, 0x06, 0xbc, 0x31, 0x99, 0x8a, 0x3d,
  0x99, 0xb5, 0x4a, 0xbe, 0x60, 0x3e, 0x17, 0x3e, 0x30, 0x65, 0xac, 0xbd,
  0xa0, 0x56, 0xe0, 0xbd, 0xc8, 0x17, 0x53, 0x3e, 0x8b, 0xe3, 0x4a, 0x3e,
  0xf2, 0x98, 0x02, 0xbe, 0xe0, 0xc9, 0x77, 0xbd, 0x80, 0x58, 0x9e, 0xbc,
  0x93, 0x0d, 0x5d, 0xbe, 0x10, 0xb8, 0x7e, 0xbd, 0x99, 0x5b, 0x3b, 0xbe,
  0x73, 0x55, 0x40, 0xbe, 0xf8, 0xa8, 0xf3, 0x3d, 0x94, 0x4e, 0x9b, 0x3d,
  0xd5, 0x2d, 0xc1, 0x3d, 0x78, 0x20, 0xa9, 0xbd, 0xae, 0xd5, 0x45, 0xbe,
  0x7c, 0xb1, 0x34, 0x3e, 0xe4, 0x09, 0x5f, 0x3e, 0xe0, 0x98, 0x5f, 0xbe,
  0xe0, 0x68, 0x72, 0x3d, 0xec, 0x2c, 0x14, 0xbe, 0xc0, 0x6c, 0x1a, 0x3e,
  0xc4, 0xf5, 0x5e, 0x3e, 0x77, 0xad, 0x29, 0xbe, 0x69, 0xd7, 0x8a, 0xbe,
  0x2c, 0xde, 0x3a, 0xbe, 0x13, 0xb6, 0x4e, 0xbe, 0xc8, 0xb7, 0x59, 0x3e,
  0x10, 0x20, 0x15, 0xbd, 0x66, 0xd1, 0x0d, 0x3e, 0x80, 0xaa, 0xb6, 0xbb,
  0xf4, 0x32, 0x7b, 0xbe, 0x0f, 0x05, 0x3b, 0x3e, 0xa0, 0x7f, 0xa5, 0x3d,
  0xec, 0x6e, 0xfb, 0xbd, 0x00, 0x2b, 0xb7, 0xbd, 0x13, 0x11, 0x01, 0x3e,
  0xc1, 0x32, 0x6f, 0x3e, 0x10, 0x79, 0xcf, 0xbd, 0x7d, 0xba, 0x71, 0xbc,
  0xa4, 0x9e, 0x6e, 0x3e, 0xea, 0x2c, 0x29, 0xbe, 0xa9, 0xef, 0x8b, 0xbe,
  0xb3, 0x7f, 0x72, 0xbe, 0xc0, 0x89, 0xa8, 0xbd, 0xa2, 0x57, 0x8e, 0x3e,
  0xec, 0x4c, 0x47, 0x3e, 0x10, 0x9d, 0x7c, 0x3e, 0xd4, 0x72, 0x34, 0xbe,
  0x40, 0x07, 0x51, 0xbc, 0x90, 0xd4, 0xdf, 0x3d, 0xca, 0xbb, 0x34, 0x3e,
  0x50, 0x43, 0x0f, 0xbd, 0x80, 0xb6, 0x46, 0xbc, 0x90, 0xf7, 0xeb, 0x3d,
  0x40, 0x3d, 0x34, 0xbc, 0x6f, 0xdb, 0x88, 0xbe, 0x80, 0x18, 0xb5, 0x3b,
  0xe4, 0x05, 0x59, 0x3e, 0x40, 0x6d, 0x9c, 0xbc, 0x60, 0x81, 0xda, 0x3c,
  0x5c, 0x41, 0x8b, 0xbd, 0x5e, 0xff, 0x7b, 0xbe, 0x60, 0x42, 0xd0, 0xbc,
  0x18, 0x86, 0x4c, 0xbe, 0x98, 0x12, 0xf9, 0x3d, 0xa0, 0x87, 0xbe, 0x3c,
  0xbd, 0x01, 0x93, 0xbd, 0xf5, 0xf9, 0x08, 0x3e, 0x84, 0xe0, 0x12, 0xbe,
  0x40, 0x35, 0x3c, 0xbc, 0xc2, 0xfc, 0x23, 0x3d, 0x0a, 0x15, 0x14, 0xbe,
  0xdd, 0xfc, 0xce, 0x3c, 0x23, 0x29, 0xd7, 0x3e, 0xc0, 0x7f, 0x42, 0xbe,
  0x37, 0xee, 0xcb, 0xbd, 0x34, 0x2d, 0x00, 0x3d, 0x54, 0x33, 0x77, 0x3e,
  0x10, 0x15, 0x79, 0x3e, 0xc0, 0x1f, 0x3f, 0x3e, 0x29, 0x89, 0x80, 0x3e,
  0xb0, 0x6e, 0x44, 0xbd, 0x18, 0xaf, 0x97, 0x3d, 0x51, 0xc8, 0xa6, 0x3d,
  0x6c, 0x5b, 0xb2, 0x3d, 0xd7, 0x04, 0xb8, 0x3e, 0x46, 0xa2, 0xb4, 0xbd,
  0x18, 0xc8, 0x61, 0xbd, 0x7b, 0x91, 0x5e, 0x3e, 0xb1, 0xfb, 0x58, 0x3e,
  0x81, 0x59, 0x42, 0xbd, 0x44, 0x26, 0x2a, 0xbe, 0x7b, 0x6f, 0x0f, 0x3e,
  0x14, 0xce, 0x5c, 0x3e, 0x40, 0xeb, 0x42, 0xbe, 0xbc, 0xf0, 0xf1, 0x3c,
  0x20, 0xaa, 0x6e, 0xbe, 0xfa, 0x03, 0x4f, 0x3d, 0xc0, 0x51, 0xe4, 0xbc,
  0x4b, 0x94, 0x23, 0x3b, 0xb2, 0xdd, 0x8a, 0xbe, 0x20, 0x3d, 0xd8, 0x3c,
  0xaf, 0x1d, 0xa6, 0x3e, 0xa0, 0x8a, 0x8f, 0x3d, 0xcb, 0x2b, 0x18, 0x3e,
  0xa6, 0x88, 0x9a, 0xbe, 0xea, 0xe3, 0x81, 0xbc, 0x00, 0x34, 0x6e, 0xbb,
  0x5b, 0xde, 0x77, 0x3c, 0x40, 0xd8, 0xf1, 0x3d, 0x45, 0x7a, 0x81, 0x3d,
  0xe3, 0x1f, 0x81, 0x3d, 0xb8, 0x90, 0x6f, 0xbe, 0x00, 0x07, 0x25, 0xbc,
  0xf0, 0x49, 0xdb, 0x3d, 0x98, 0xaa, 0xd5, 0xbd, 0xc0, 0xa4, 0x26, 0xbd,
  0x20, 0xbd, 0x59, 0xbe, 0xb0, 0x48, 0x1b, 0xbe, 0x98, 0x53, 0x6f, 0x3e,
  0x90, 0x5a, 0xcd, 0x3d, 0xf6, 0x19, 0x1f, 0x3e, 0xe8, 0x0b, 0x72, 0x3e,
  0x00, 0x60, 0xcb, 0x3b, 0x7c, 0x18, 0x45, 0xbd, 0x95, 0xad, 0xce, 0x3e,
  0xf4, 0x09, 0x2a, 0xbe, 0x90, 0xea, 0xc6, 0x3d, 0x6a, 0xfa, 0xff, 0xff,
  0x04, 0x00, 0x00, 0x00, 0x00, 0x03, 0x00, 0x00, 0x77, 0x7d, 0x0b, 0xbe,
  0x4a, 0xb9, 0x8d, 0x3e, 0xed, 0xea, 0x26, 0xbe, 0xe0, 0x88, 0xa2, 0xbc,
  0x10, 0x47, 0xe1, 0x3d, 0xd6, 0xba, 0x82, 0xbe, 0x15, 0xdf, 0x49, 0xbe,
  0x28, 0x3a, 0x86, 0x3c, 0x4a, 0xbc, 0xb2, 0x3e, 0x70, 0xc9, 0x57, 0x3e,
  0xed, 0xea, 0x9b, 0xbe, 0x82, 0x54, 0xc8, 0x3e, 0x0a, 0x82, 0x93, 0xbe,
  0x43, 0x0b, 0x19, 0xbe, 0xb2, 0x19, 0x88, 0xbe, 0x1e, 0xf6, 0x33, 0xbe,
  0x00, 0x65, 0x7a, 0xbb, 0x70, 0x7b, 0xc2, 0x3d, 0xca, 0x1e, 0x80, 0x3e,
  0xc5, 0xbe, 0x3a, 0x3e, 0xa9, 0x36, 0xe5, 0xbc, 0x99, 0xe1, 0x13, 0xbe,
  0xe3, 0xb7, 0x01, 0x3e, 0x39, 0xc6, 0x8f, 0x3b, 0x26, 0xe4, 0xf1, 0xbd,
  0xa4, 0xbb, 0xbe, 0x3c, 0x4d, 0xdc, 0x1b, 0x3e, 0x28, 0xef, 0xef, 0xbd,
  0x9a, 0xb6, 0xaa, 0xbd, 0x58, 0x9b, 0x91, 0x3e, 0xf8, 0x06, 0x74, 0x3d,
  0x30, 0x61, 0xaf, 0xbc, 0xd0, 0xe9, 0xe0, 0xbd, 0xb2, 0xcc, 0xbb, 0xbe,
  0x50, 0x2d, 0x3d, 0x3e, 0xa8, 0x79, 0x0f, 0x3e, 0x1c, 0xcd, 0x88, 0xbe,
  0x28, 0x5d, 0x52, 0x3e, 0x6b, 0xee, 0x85, 0x3d, 0x34, 0xdf, 0x7d, 0xbe,
  0x90, 0x83, 0x6a, 0x3d, 0x42, 0x1c, 0x71, 0xbe, 0x6e, 0x80, 0xab, 0xbe,
  0xf3, 0x46, 0x50, 0x3e, 0xb5, 0x5c, 0x65, 0x3e, 0x0c, 0x08, 0x1b, 0xbe,
  0x80, 0x7a, 0x0e, 0xbd, 0x1a, 0x89, 0xa4, 0xbd, 0xe8, 0x87, 0x06, 0x3e,
  0xbe, 0x6f, 0x9f, 0x3d, 0xfb, 0x4d, 0xc0, 0x3d, 0x28, 0xc1, 0xa2, 0xbd,
  0xa8, 0xc3, 0x86, 0x3e, 0x76, 0xd0, 0x7d, 0xbe, 0x40, 0x8f, 0x42, 0xbd,
  0xd4, 0x8a, 0x82, 0x3d, 0xb3, 0x67, 0x51, 0xbe, 0x65, 0x19, 0x80, 0xbd,
  0xad, 0x8d, 0x3a, 0x3e, 0xd9, 0x3b, 0x77, 0x3e, 0x72, 0x27, 0x44, 0x3e,
  0x0b, 0xbd, 0xd3, 0x3d, 0xe0, 0x4c, 0x4a, 0xbe, 0xd3, 0xe0, 0xfe, 0x3b,
  0xe1, 0x76, 0xb5, 0xbd, 0x1d, 0x93, 0xaf, 0x3e, 0xe9, 0x1d, 0x89, 0xbe,
  0xda, 0xc1, 0x50, 0x3e, 0x7c, 0x1e, 0x61, 0x3e, 0xac, 0x5e, 0x9b, 0xbe,
  0xa5, 0xa6, 0x84, 0x3e, 0x6f, 0xfc, 0x0c, 0x3d, 0x3f, 0x59, 0xbb, 0xbc,
  0x24, 0x89, 0xc4, 0xbb, 0x91, 0x8e, 0x18, 0x3e, 0xda, 0xb4, 0xb5, 0xbe,
  0x40, 0x60, 0x90, 0x3e, 0xbd, 0x7d, 0x07, 0x3e, 0x2b, 0x48, 0x11, 0xbe,
  0x6d, 0x23, 0xd0, 0xbd, 0xc1, 0xda, 0x14, 0x3e, 0x83, 0xf2, 0x48, 0xbe,
  0xd4, 0xff, 0x62, 0x3e, 0xfc, 0xdf, 0x8e, 0xbd, 0x3f, 0x94, 0xb9, 0xbe,
  0xb6, 0x2a, 0x6e, 0x3e, 0xc9, 0x5b, 0xec, 0x3d, 0x8a, 0x1f, 0x92, 0xbd,
  0x2e, 0xfb, 0x8c, 0xbe, 0x30, 0xfb, 0x94, 0x3c, 0x64, 0xaf, 0x6a, 0x3e,
  0x74, 0x1b, 0xfd, 0xbd, 0x70, 0xcf, 0x89, 0xbe, 0x8f, 0xfe, 0x26, 0x3e,
  0x3f, 0x2c, 0x79, 0xbe, 0x24, 0x06, 0x91, 0x3e, 0xae, 0x39, 0x83, 0xbe,
  0xa8, 0x2a, 0x90, 0x3e, 0x15, 0x60, 0x12, 0xbe, 0x14, 0xa2, 0x2a, 0x3e,
  0x26, 0x73, 0x33, 0x3e, 0x47, 0x8c, 0x8f, 0xbe, 0x10, 0xc5, 0x2e, 0x3d,
  0x0d, 0xf8, 0x29, 0xbe, 0xe8, 0x81, 0x98, 0xbd, 0x63, 0x38, 0x4e, 0x3e,
  0x3a, 0x6f, 0x8f, 0xbe, 0xc7, 0x51, 0x6d, 0x3e, 0xb5, 0xaa, 0x5c, 0xbe,
  0xa6, 0x93, 0x37, 0x3e, 0x91, 0xfb, 0xcf, 0xbb, 0x1c, 0x81, 0x83, 0x3e,
  0xd8, 0x94, 0x0e, 0xbd, 0xde, 0x9f, 0x79, 0xbe, 0x02, 0xf4, 0x64, 0x3e,
  0x2e, 0x21, 0x1a, 0xbe, 0x34, 0x58, 0xbd, 0x3d, 0xe2, 0xbf, 0x7c, 0xbe,
  0xcc, 0x15, 0xad, 0x3d, 0x58, 0x37, 0x25, 0x3d, 0x25, 0x2d, 0x30, 0x3e,
  0x11, 0x03, 0x50, 0x3e, 0x9c, 0x75, 0xdd, 0x3d, 0xbb, 0x4b, 0x73, 0x3e,
  0x62, 0x8d, 0x7d, 0x3e, 0x25, 0x80, 0x9b, 0xbe, 0x4d, 0x28, 0x64, 0xbe,
  0xc7, 0xbd, 0x3c, 0x3e, 0x60, 0x3e, 0x53, 0x3e, 0x98, 0xcd, 0x90, 0xbe,
  0x1c, 0x66, 0x4a, 0xbe, 0x40, 0xd7, 0x6c, 0x3c, 0x36, 0x2b, 0xd0, 0xbd,
  0x03, 0x64, 0x8a, 0x3e, 0xfc, 0x1b, 0x04, 0xbe, 0x0e, 0x74, 0x9e, 0xbd,
  0x80, 0x04, 0x2a, 0x3c, 0x29, 0x31, 0x88, 0xbe, 0x89, 0x73, 0x59, 0x3e,
  0x07, 0x36, 0x89, 0xbe, 0xeb, 0x4d, 0xbb, 0x3e, 0x38, 0xe7, 0xed, 0x3d,
  0xd7, 0x58, 0xe5, 0xbb, 0x61, 0xc3, 0x3d, 0x3c, 0xf8, 0x6f, 0x11, 0x3e,
  0x30, 0x6e, 0x5d, 0x3d, 0x00, 0xae, 0x5b, 0xbe, 0x50, 0x51, 0x03, 0xbe,
  0x85, 0x46, 0x01, 0xbe, 0x7a, 0x12, 0x44, 0xbe, 0x87, 0x5a, 0x38, 0x3e,
  0x5e, 0x6d, 0x57, 0x3c, 0xbf, 0x1d, 0x8a, 0x3e, 0x60, 0xc4, 0x03, 0xbe,
  0xde, 0x79, 0x93, 0x3e, 0x52, 0x17, 0x7f, 0xbe, 0xb9, 0x05, 0x90, 0xbe,
  0x64, 0x40, 0xdf, 0x3d, 0x69, 0x13, 0x3b, 0xbe, 0xbf, 0x26, 0x1f, 0xbe,
  0x30, 0xdc, 0xbf, 0x3c, 0xd0, 0x9f, 0xf4, 0xbd, 0x8c, 0x57, 0x5e, 0x3e,
  0xd1, 0x0c, 0x93, 0xbe, 0xc0, 0xd7, 0x4f, 0x3c, 0x65, 0x7d, 0xb8, 0xbe,
  0x83, 0x74, 0xc6, 0x3d, 0xff, 0xc6, 0x8f, 0x3e, 0x70, 0x07, 0xad, 0x3d,
  0x29, 0x13, 0x89, 0xbe, 0x80, 0x20, 0x23, 0xbd, 0xd5, 0x9d, 0x04, 0x3e,
  0xf3, 0x59, 0xc0, 0x3c, 0xbf, 0x42, 0xd3, 0xbd, 0x04, 0xd1, 0xa5, 0x3d,
  0x53, 0xd1, 0x1a, 0xbe, 0xd7, 0x72, 0x25, 0xbe, 0x01, 0xd3, 0x05, 0xbe,
  0x9a, 0x70, 0x01, 0xbe, 0x60, 0x33, 0xc5, 0xbc, 0xbd, 0x54, 0xab, 0x3d,
  0x67, 0x9e, 0x2f, 0x3e, 0x40, 0x04, 0x69, 0xbe, 0xae, 0xa7, 0x87, 0xbc,
  0x42, 0xc7, 0x41, 0xbe, 0x35, 0x71, 0x85, 0x3e, 0x9d, 0x11, 0x13, 0xbe,
  0xd8, 0x39, 0x0d, 0x3d, 0x68, 0x72, 0x44, 0xbe, 0xc8, 0xcb, 0x98, 0xbd,
  0x65, 0xdf, 0x85, 0xbe, 0x20, 0xe3, 0x43, 0xbd, 0x76, 0xfd, 0xff, 0xff,
  0x04, 0x00, 0x00, 0x00, 0x00, 0x01, 0x00, 0x00, 0x00, 0x00, 0x00, 0x00,
  0x00, 0x00, 0x00, 0x00, 0x23, 0x28, 0xbb, 0xbd, 0x5c, 0x18, 0xbd, 0xbd,
  0x00, 0x00, 0x00, 0x00, 0x00, 0x00, 0x00, 0x00, 0x41, 0x27, 0x0b, 0xbe,
  0x1a, 0xac, 0x91, 0xbc, 0xd1, 0x4a, 0xba, 0xbd, 0xe1, 0x9e, 0x95, 0xbd,
  0x00, 0x00, 0x00, 0x00, 0xfd, 0xd6, 0xd1, 0x3c, 0xad, 0x38, 0x0a, 0x3c,
  0x00, 0x00, 0x00, 0x00, 0xe9, 0x7c, 0x59, 0xbd, 0x00, 0x00, 0x00, 0x00,
  0xe2, 0x28, 0x21, 0xbe, 0x00, 0x00, 0x00, 0x00, 0x00, 0x00, 0x00, 0x00,
  0x61, 0xb3, 0x10, 0xbe, 0x1e, 0xfe, 0xe7, 0x3c, 0x86, 0x04, 0xe3, 0xbd,
  0xd4, 0x11, 0xbc, 0xbd, 0xf3, 0xfc, 0xbe, 0x3c, 0xaf, 0x03, 0xeb, 0xbd,
  0x9b, 0x91, 0xbd, 0xbc, 0x1d, 0x18, 0xd7, 0xbc, 0x00, 0x00, 0x00, 0x00,
  0x67, 0x8f, 0x8b, 0x3c, 0x00, 0x00, 0x00, 0x00, 0x00, 0x00, 0x00, 0x00,
  0x28, 0xa1, 0xe3, 0xbd, 0x00, 0x00, 0x00, 0x00, 0xb8, 0x9d, 0x8f, 0x3d,
  0x00, 0x00, 0x00, 0x00, 0x34, 0x64, 0xed, 0xbd, 0x83, 0x55, 0x1e, 0x3d,
  0x00, 0x00, 0x00, 0x00, 0xc0, 0x95, 0xc5, 0xbd, 0x00, 0x00, 0x00, 0x00,
  0x1c, 0xd9, 0x05, 0xbe, 0x30, 0x1e, 0xb1, 0x3c, 0x08, 0x6b, 0xbe, 0xbd,
  0x00, 0x00, 0x00, 0x00, 0x7d, 0x6f, 0x4f, 0x3b, 0x00, 0x00, 0x00, 0x00,
  0xb3, 0x81, 0xe1, 0xbd, 0x20, 0x32, 0x92, 0xbd, 0x00, 0x00, 0x00, 0x00,
  0x00, 0x00, 0x00, 0x00, 0xdd, 0xa1, 0xd1, 0xbd, 0x00, 0x00, 0x00, 0x00,
  0x00, 0x00, 0x00, 0x00, 0x00, 0x00, 0x00, 0x00, 0x00, 0x00, 0x00, 0x00,
  0x5e, 0x18, 0x9a, 0xbd, 0x00, 0x00, 0x00, 0x00, 0xce, 0xa0, 0xbc, 0xbc,
  0x00, 0x00, 0x00, 0x00, 0x00, 0x00, 0x00, 0x00, 0xd3, 0x4a, 0xab, 0x3c,
  0xed, 0x8b, 0xa6, 0xbd, 0x00, 0x00, 0x00, 0x00, 0x00, 0x00, 0x00, 0x00,
  0x82, 0xfe, 0xff, 0xff, 0x04, 0x00, 0x00, 0x00, 0x40, 0x00, 0x00, 0x00,
  0x00, 0x00, 0x00, 0x00, 0x85, 0x93, 0x6c, 0xbd, 0x23, 0x01, 0x02, 0xbd,
  0x00, 0x00, 0x00, 0x00, 0x83, 0x0b, 0x79, 0x3d, 0x96, 0x62, 0x17, 0xbd,
  0x5e, 0xfb, 0xa4, 0x3d, 0x00, 0x00, 0x00, 0x00, 0xdd, 0x6c, 0xdf, 0xbb,
  0x00, 0x00, 0x00, 0x00, 0xcf, 0x8f, 0xf6, 0xbc, 0x10, 0x2b, 0x51, 0x3c,
  0x53, 0x61, 0x31, 0xbc, 0x00, 0x00, 0x00, 0x00, 0x87, 0xa5, 0xb9, 0x3c,
  0xdb, 0x43, 0x3c, 0xbd, 0xce, 0xfe, 0xff, 0xff, 0x04, 0x00, 0x00, 0x00,
  0x80, 0x00, 0x00, 0x00, 0x00, 0x00, 0x00, 0x00, 0x31, 0x72, 0x87, 0xbc,
  0xf5, 0x30, 0x52, 0xbd, 0xb9, 0x8a, 0x2f, 0xbd, 0x00, 0x00, 0x00, 0x00,
  0x5a, 0x54, 0x34, 0xbd, 0x34, 0x39, 0xa1, 0x3c, 0x17, 0x3a, 0x75, 0xbc,
  0xc7, 0xf8, 0xa6, 0xbc, 0xc6, 0xa1, 0xbc, 0x3d, 0x00, 0x00, 0x00, 0x00,
  0x79, 0x05, 0xb0, 0xbc, 0x00, 0x00, 0x00, 0x00, 0xd1, 0x17, 0x55, 0xbd,
  0x79, 0x36, 0x06, 0xbd, 0x00, 0x00, 0x00, 0x00, 0xbd, 0xe3, 0x07, 0xbd,
  0x97, 0x47, 0x46, 0xbd, 0x00, 0x00, 0x00, 0x00, 0xc8, 0xab, 0xe1, 0xbc,
  0x3d, 0xf9, 0xc4, 0xbd, 0x00, 0x00, 0x00, 0x00, 0x00, 0x00, 0x00, 0x00,
  0xb2, 0xb2, 0x0f, 0xbc, 0xd0, 0xb3, 0x16, 0xbd, 0xdc, 0xb4, 0x50, 0xbd,
  0x9b, 0x45, 0x60, 0xbc, 0x2f, 0x4b, 0xf2, 0xbd, 0x25, 0x70, 0x66, 0x3c,
  0xbb, 0x25, 0x01, 0x3d, 0xef, 0xd7, 0xa9, 0xbc, 0xc1, 0xd2, 0x6c, 0xbd,
  0x5a, 0xff, 0xff, 0xff, 0x04, 0x00, 0x00, 0x00, 0x0c, 0x00, 0x00, 0x00,
  0x13, 0x4c, 0x67, 0x3d, 0x0a, 0x55, 0x7d, 0xbc, 0x1a, 0xb4, 0x91, 0x3d,
  0x72, 0xff, 0xff, 0xff, 0x04, 0x00, 0x00, 0x00, 0x80, 0x00, 0x00, 0x00,
  0x00, 0x00, 0x00, 0x00, 0xee, 0xb7, 0x7a, 0x3d, 0xda, 0x1b, 0x75, 0x3d,
  0xf0, 0x2a, 0x61, 0x3c, 0x83, 0x65, 0x16, 0x3d, 0x00, 0x00, 0x00, 0x00,
  0x03, 0x65, 0x50, 0x3d, 0x9d, 0x60, 0xb7, 0xba, 0x8e, 0x09, 0x02, 0xbd,
  0xcf, 0xec, 0x91, 0x3d, 0xaa, 0xe6, 0x9e, 0x3d, 0x00, 0x00, 0x00, 0x00,
  0x7d, 0xfa, 0x3f, 0x3d, 0x00, 0x00, 0x00, 0x00, 0x00, 0x00, 0x00, 0x00,
  0x00, 0x00, 0x00, 0x00, 0xe6, 0xb2, 0x8f, 0xbc, 0x09, 0xce, 0x2e, 0xbb,
  0x89, 0xc1, 0xbc, 0xbd, 0x13, 0x0b, 0x68, 0xbc, 0x68, 0xc2, 0x42, 0x3c,
  0x81, 0x14, 0xb4, 0x3c, 0xc3, 0x71, 0xa9, 0x3c, 0xd0, 0x43, 0x41, 0x3d,
  0xfe, 0x6f, 0x4c, 0xbd, 0x99, 0x84, 0x60, 0xbd, 0x3e, 0x8c, 0x6a, 0xbc,
  0x00, 0x00, 0x00, 0x00, 0x95, 0xda, 0xdb, 0xbd, 0x52, 0x5a, 0x03, 0x3d,
  0xb4, 0xb2, 0xdc, 0xbc, 0x00, 0x00, 0x00, 0x00, 0x00, 0x00, 0x06, 0x00,
  0x08, 0x00, 0x04, 0x00, 0x06, 0x00, 0x00, 0x00, 0x04, 0x00, 0x00, 0x00,
  0x40, 0x00, 0x00, 0x00, 0x14, 0xa5, 0xa7, 0xbc, 0xe3, 0x6e, 0x9b, 0xbc,
  0xcf, 0x3b, 0x45, 0xbd, 0x00, 0x00, 0x00, 0x00, 0xc3, 0x5a, 0x0c, 0xbb,
  0x00, 0x00, 0x00, 0x00, 0x00, 0x00, 0x00, 0x00, 0x4e, 0xaf, 0xd8, 0x3c,
  0x0b, 0x41, 0xf0, 0xbc, 0xa6, 0x95, 0xfd, 0xbc, 0xba, 0x04, 0xb6, 0x3d,
  0xf9, 0xef, 0xee, 0x3c, 0xf0, 0x9f, 0xf5, 0xbd, 0x4f, 0xa7, 0x42, 0xbd,
  0xeb, 0xf4, 0x4a, 0xbc, 0xff, 0xa5, 0x9d, 0xbd, 0xcc, 0xf4, 0xff, 0xff,
  0xd0, 0xf4, 0xff, 0xff, 0x0f, 0x00, 0x00, 0x00, 0x4d, 0x4c, 0x49, 0x52,
  0x20, 0x43, 0x6f, 0x6e, 0x76, 0x65, 0x72, 0x74, 0x65, 0x64, 0x2e, 0x00,
  0x01, 0x00, 0x00, 0x00, 0x14, 0x00, 0x00, 0x00, 0x00, 0x00, 0x0e, 0x00,
  0x18, 0x00, 0x14, 0x00, 0x10, 0x00, 0x0c, 0x00, 0x08, 0x00, 0x04, 0x00,
  0x0e, 0x00, 0x00, 0x00, 0x14, 0x00, 0x00, 0x00, 0x1c, 0x00, 0x00, 0x00,
  0xb0, 0x01, 0x00, 0x00, 0xb4, 0x01, 0x00, 0x00, 0xb8, 0x01, 0x00, 0x00,
  0x04, 0x00, 0x00, 0x00, 0x6d, 0x61, 0x69, 0x6e, 0x00, 0x00, 0x00, 0x00,
  0x07, 0x00, 0x00, 0x00, 0x58, 0x01, 0x00, 0x00, 0x10, 0x01, 0x00, 0x00,
  0xd8, 0x00, 0x00, 0x00, 0xa0, 0x00, 0x00, 0x00, 0x68, 0x00, 0x00, 0x00,
  0x34, 0x00, 0x00, 0x00, 0x10, 0x00, 0x00, 0x00, 0x00, 0x00, 0x0a, 0x00,
  0x10, 0x00, 0x0c, 0x00, 0x08, 0x00, 0x04, 0x00, 0x0a, 0x00, 0x00, 0x00,
  0x0c, 0x00, 0x00, 0x00, 0x10, 0x00, 0x00, 0x00, 0x01, 0x00, 0x00, 0x00,
  0x01, 0x00, 0x00, 0x00, 0x13, 0x00, 0x00, 0x00, 0x01, 0x00, 0x00, 0x00,
  0x12, 0x00, 0x00, 0x00, 0xfe, 0xfe, 0xff, 0xff, 0x10, 0x00, 0x00, 0x00,
  0x00, 0x00, 0x00, 0x08, 0x0c, 0x00, 0x00, 0x00, 0x10, 0x00, 0x00, 0x00,
  0x84, 0xf5, 0xff, 0xff, 0x01, 0x00, 0x00, 0x00, 0x12, 0x00, 0x00, 0x00,
  0x03, 0x00, 0x00, 0x00, 0x11, 0x00, 0x00, 0x00, 0x0c, 0x00, 0x00, 0x00,
  0x03, 0x00, 0x00, 0x00, 0x2e, 0xff, 0xff, 0xff, 0x10, 0x00, 0x00, 0x00,
  0x00, 0x00, 0x00, 0x08, 0x10, 0x00, 0x00, 0x00, 0x14, 0x00, 0x00, 0x00,
  0x1e, 0xff, 0xff, 0xff, 0x00, 0x00, 0x00, 0x01, 0x01, 0x00, 0x00, 0x00,
  0x11, 0x00, 0x00, 0x00, 0x03, 0x00, 0x00, 0x00, 0x10, 0x00, 0x00, 0x00,
  0x0b, 0x00, 0x00, 0x00, 0x02, 0x00, 0x00, 0x00, 0x62, 0xff, 0xff, 0xff,
  0x10, 0x00, 0x00, 0x00, 0x00, 0x00, 0x00, 0x08, 0x10, 0x00, 0x00, 0x00,
  0x14, 0x00, 0x00, 0x00, 0x52, 0xff, 0xff, 0xff, 0x00, 0x00, 0x00, 0x01,
  0x01, 0x00, 0x00, 0x00, 0x10, 0x00, 0x00, 0x00, 0x03, 0x00, 0x00, 0x00,
  0x0f, 0x00, 0x00, 0x00, 0x0a, 0x00, 0x00, 0x00, 0x01, 0x00, 0x00, 0x00,
  0x96, 0xff, 0xff, 0xff, 0x10, 0x00, 0x00, 0x00, 0x00, 0x00, 0x00, 0x08,
  0x10, 0x00, 0x00, 0x00, 0x14, 0x00, 0x00, 0x00, 0x86, 0xff, 0xff, 0xff,
  0x00, 0x00, 0x00, 0x01, 0x01, 0x00, 0x00, 0x00, 0x0f, 0x00, 0x00, 0x00,
  0x03, 0x00, 0x00, 0x00, 0x0e, 0x00, 0x00, 0x00, 0x09, 0x00, 0x00, 0x00,
  0x05, 0x00, 0x00, 0x00, 0xca, 0xff, 0xff, 0xff, 0x10, 0x00, 0x00, 0x00,
  0x00, 0x00, 0x00, 0x08, 0x10, 0x00, 0x00, 0x00, 0x14, 0x00, 0x00, 0x00,
  0xba, 0xff, 0xff, 0xff, 0x00, 0x00, 0x00, 0x01, 0x01, 0x00, 0x00, 0x00,
