#ifndef AUTOENCODER_MODEL_H
#define AUTOENCODER_MODEL_H


unsigned int autoencoder_model_len = 18744;
unsigned char autoencoder_model[] = {
 0x1c, 0x00, 0x00, 0x00, 0x54, 0x46, 0x4c, 0x33, 0x14, 0x00, 0x20, 0x00,
  0x1c, 0x00, 0x18, 0x00, 0x14, 0x00, 0x10, 0x00, 0x0c, 0x00, 0x00, 0x00,
  0x08, 0x00, 0x04, 0x00, 0x14, 0x00, 0x00, 0x00, 0x1c, 0x00, 0x00, 0x00,
  0x84, 0x00, 0x00, 0x00, 0xdc, 0x00, 0x00, 0x00, 0x7c, 0x3d, 0x00, 0x00,
  0x8c, 0x3d, 0x00, 0x00, 0xd4, 0x48, 0x00, 0x00, 0x03, 0x00, 0x00, 0x00,
  0x01, 0x00, 0x00, 0x00, 0x04, 0x00, 0x00, 0x00, 0x2a, 0xc2, 0xff, 0xff,
  0x0c, 0x00, 0x00, 0x00, 0x1c, 0x00, 0x00, 0x00, 0x3c, 0x00, 0x00, 0x00,
  0x0f, 0x00, 0x00, 0x00, 0x73, 0x65, 0x72, 0x76, 0x69, 0x6e, 0x67, 0x5f,
  0x64, 0x65, 0x66, 0x61, 0x75, 0x6c, 0x74, 0x00, 0x01, 0x00, 0x00, 0x00,
  0x04, 0x00, 0x00, 0x00, 0x98, 0xff, 0xff, 0xff, 0x13, 0x00, 0x00, 0x00,
  0x04, 0x00, 0x00, 0x00, 0x08, 0x00, 0x00, 0x00, 0x6f, 0x75, 0x74, 0x70,
  0x75, 0x74, 0x5f, 0x31, 0x00, 0x00, 0x00, 0x00, 0x01, 0x00, 0x00, 0x00,
  0x04, 0x00, 0x00, 0x00, 0x46, 0xc3, 0xff, 0xff, 0x04, 0x00, 0x00, 0x00,
  0x07, 0x00, 0x00, 0x00, 0x69, 0x6e, 0x70, 0x75, 0x74, 0x5f, 0x31, 0x00,
  0x02, 0x00, 0x00, 0x00, 0x34, 0x00, 0x00, 0x00, 0x04, 0x00, 0x00, 0x00,
  0xdc, 0xff, 0xff, 0xff, 0x16, 0x00, 0x00, 0x00, 0x04, 0x00, 0x00, 0x00,
  0x13, 0x00, 0x00, 0x00, 0x43, 0x4f, 0x4e, 0x56, 0x45, 0x52, 0x53, 0x49,
  0x4f, 0x4e, 0x5f, 0x4d, 0x45, 0x54, 0x41, 0x44, 0x41, 0x54, 0x41, 0x00,
  0x08, 0x00, 0x0c, 0x00, 0x08, 0x00, 0x04, 0x00, 0x08, 0x00, 0x00, 0x00,
  0x15, 0x00, 0x00, 0x00, 0x04, 0x00, 0x00, 0x00, 0x13, 0x00, 0x00, 0x00,
  0x6d, 0x69, 0x6e, 0x5f, 0x72, 0x75, 0x6e, 0x74, 0x69, 0x6d, 0x65, 0x5f,
  0x76, 0x65, 0x72, 0x73, 0x69, 0x6f, 0x6e, 0x00, 0x17, 0x00, 0x00, 0x00,
  0x9c, 0x3c, 0x00, 0x00, 0x94, 0x3c, 0x00, 0x00, 0x44, 0x3c, 0x00, 0x00,
  0xac, 0x3b, 0x00, 0x00, 0x90, 0x3b, 0x00, 0x00, 0x00, 0x3b, 0x00, 0x00,
  0xb0, 0x3a, 0x00, 0x00, 0xa0, 0x39, 0x00, 0x00, 0x90, 0x36, 0x00, 0x00,
  0x80, 0x16, 0x00, 0x00, 0x70, 0x0e, 0x00, 0x00, 0x60, 0x0a, 0x00, 0x00,
  0x50, 0x02, 0x00, 0x00, 0xc0, 0x00, 0x00, 0x00, 0xb8, 0x00, 0x00, 0x00,
  0xb0, 0x00, 0x00, 0x00, 0xa8, 0x00, 0x00, 0x00, 0xa0, 0x00, 0x00, 0x00,
  0x98, 0x00, 0x00, 0x00, 0x90, 0x00, 0x00, 0x00, 0x88, 0x00, 0x00, 0x00,
  0x68, 0x00, 0x00, 0x00, 0x04, 0x00, 0x00, 0x00, 0x16, 0xc4, 0xff, 0xff,
  0x04, 0x00, 0x00, 0x00, 0x54, 0x00, 0x00, 0x00, 0x0c, 0x00, 0x00, 0x00,
  0x08, 0x00, 0x0e, 0x00, 0x08, 0x00, 0x04, 0x00, 0x08, 0x00, 0x00, 0x00,
  0x10, 0x00, 0x00, 0x00, 0x24, 0x00, 0x00, 0x00, 0x00, 0x00, 0x06, 0x00,
  0x08, 0x00, 0x04, 0x00, 0x06, 0x00, 0x00, 0x00, 0x04, 0x00, 0x00, 0x00,
  0x00, 0x00, 0x00, 0x00, 0x00, 0x00, 0x0a, 0x00, 0x10, 0x00, 0x0c, 0x00,
  0x08, 0x00, 0x04, 0x00, 0x0a, 0x00, 0x00, 0x00, 0x02, 0x00, 0x00, 0x00,
  0x02, 0x00, 0x00, 0x00, 0x04, 0x00, 0x00, 0x00, 0x06, 0x00, 0x00, 0x00,
  0x32, 0x2e, 0x31, 0x35, 0x2e, 0x30, 0x00, 0x00, 0x76, 0xc4, 0xff, 0xff,
  0x04, 0x00, 0x00, 0x00, 0x10, 0x00, 0x00, 0x00, 0x31, 0x2e, 0x31, 0x34,
  0x2e, 0x30, 0x00, 0x00, 0x00, 0x00, 0x00, 0x00, 0x00, 0x00, 0x00, 0x00,
  0x0c, 0xb9, 0xff, 0xff, 0x10, 0xb9, 0xff, 0xff, 0x14, 0xb9, 0xff, 0xff,
  0x18, 0xb9, 0xff, 0xff, 0x1c, 0xb9, 0xff, 0xff, 0x20, 0xb9, 0xff, 0xff,
  0x24, 0xb9, 0xff, 0xff, 0xae, 0xc4, 0xff, 0xff, 0x04, 0x00, 0x00, 0x00,
  0x80, 0x01, 0x00, 0x00, 0x64, 0x3e, 0xf2, 0x3e, 0xe1, 0x47, 0x9d, 0x3e,
  0xde, 0x1d, 0xa4, 0x3e, 0x1b, 0x3f, 0x91, 0xbd, 0xe8, 0xae, 0x86, 0xbd,
  0xe3, 0x78, 0x56, 0x3d, 0xf0, 0xe8, 0x28, 0xbd, 0x48, 0xc5, 0x77, 0x3e,
  0xce, 0x76, 0x96, 0xbe, 0xbf, 0xc2, 0x57, 0xbb, 0xe4, 0x10, 0x40, 0xbe,
  0xed, 0xfd, 0xa5, 0xbe, 0x72, 0xd7, 0x46, 0x3e, 0xbe, 0xed, 0x65, 0xbe,
  0x63, 0x85, 0x44, 0x3e, 0x31, 0x97, 0x89, 0x3e, 0x5e, 0xe2, 0xb8, 0xbe,
  0x10, 0x9a, 0x26, 0xbe, 0xae, 0x0c, 0x4e, 0xbe, 0x75, 0xe2, 0xa4, 0x3e,
  0xff, 0x11, 0x8f, 0x3e, 0xd8, 0xd7, 0x3a, 0x3e, 0xd8, 0x6e, 0x85, 0x3e,
  0x98, 0x66, 0x45, 0x3e, 0x74, 0x28, 0x0b, 0xbe, 0xee, 0x37, 0xc4, 0x3e,
  0x62, 0xba, 0xea, 0x3d, 0x38, 0xfd, 0xb5, 0xbe, 0xc0, 0x47, 0xc4, 0xbb,
  0xe4, 0xbd, 0xbc, 0x3e, 0x2f, 0xf9, 0x4a, 0x3d, 0x4e, 0xf9, 0x24, 0xbe,
  0xe4, 0xbe, 0x83, 0xbe, 0xb6, 0x54, 0xaf, 0xbe, 0x13, 0xba, 0x4a, 0x3e,
  0xd6, 0x9e, 0x59, 0x3e, 0x63, 0x22, 0x2f, 0x3e, 0x1a, 0xf9, 0x1c, 0x3e,
  0x28, 0xdd, 0x5b, 0xbe, 0x75, 0x84, 0x08, 0xbc, 0x33, 0xe8, 0x91, 0x3e,
  0xe8, 0xad, 0x79, 0xbe, 0x1c, 0xa5, 0x8f, 0xbe, 0x7a, 0x0b, 0x1a, 0xbe,
  0x6a, 0xe3, 0xbd, 0xbe, 0x2a, 0xaf, 0x96, 0xbd, 0xb9, 0x08, 0x01, 0xbe,
  0x5a, 0xaa, 0x99, 0x3d, 0x07, 0xc3, 0x54, 0xbe, 0xc3, 0xe2, 0xce, 0xbe,
  0xa3, 0x50, 0xb5, 0x3e, 0x64, 0x46, 0xcd, 0x3d, 0xc7, 0x4e, 0x85, 0x3e,
  0x2e, 0xfd, 0xc2, 0xbe, 0x01, 0xff, 0x82, 0x3e, 0x7e, 0x0f, 0x09, 0x3e,
  0xbc, 0x80, 0x2e, 0xbe, 0x33, 0xb3, 0x2c, 0x3e, 0x7e, 0x28, 0xf9, 0xbd,
  0x36, 0x4a, 0x87, 0x3e, 0x7c, 0xe3, 0xdb, 0x3d, 0xcc, 0x2d, 0x68, 0x3e,
  0xc6, 0xb9, 0xa0, 0x3e, 0x22, 0x56, 0x28, 0x3e, 0x55, 0x07, 0x9e, 0xbe,
  0xdd, 0x92, 0x95, 0x3e, 0xdd, 0xa5, 0xe6, 0x3d, 0x44, 0x9a, 0x76, 0x3e,
  0xa4, 0xbe, 0x73, 0x3e, 0x82, 0xac, 0x20, 0x3f, 0x1c, 0x5f, 0xf0, 0x3d,
  0x75, 0x88, 0x6e, 0xbe, 0x6e, 0xd8, 0x41, 0x3e, 0x1c, 0x1a, 0x80, 0xbe,
  0x4a, 0x2a, 0x83, 0x3d, 0xc6, 0x90, 0xec, 0x3d, 0x16, 0x4b, 0x33, 0x3e,
  0x64, 0x37, 0x36, 0xbd, 0xdc, 0x5d, 0x90, 0x3e, 0xf9, 0x98, 0x0a, 0x3f,
  0x1b, 0xb5, 0x09, 0x3f, 0xce, 0x56, 0x73, 0x3e, 0x3e, 0xdb, 0xa1, 0xba,
  0xc8, 0x70, 0x74, 0x3d, 0x20, 0x7d, 0xaf, 0xbc, 0x46, 0xce, 0xe5, 0xbe,
  0xf3, 0x74, 0x70, 0xbe, 0x65, 0x22, 0xdf, 0xbe, 0x13, 0x3b, 0x2d, 0xbd,
  0x41, 0x29, 0xa1, 0xbe, 0x32, 0x5c, 0x1c, 0x3e, 0x55, 0x0e, 0x9a, 0x3e,
  0x60, 0x12, 0x92, 0xbe, 0xd5, 0x79, 0xdf, 0x3e, 0x46, 0x53, 0x11, 0x3f,
  0x93, 0xe5, 0x69, 0xbd, 0x3a, 0xc6, 0xff, 0xff, 0x04, 0x00, 0x00, 0x00,
  0x00, 0x08, 0x00, 0x00, 0x30, 0x8d, 0x66, 0x3e, 0x4b, 0x69, 0xb2, 0x3e,
  0x2d, 0xc4, 0x3d, 0xbd, 0xc2, 0x2f, 0xbc, 0x3e, 0xf2, 0xf4, 0x36, 0x3e,
  0xae, 0x3d, 0x58, 0xbe, 0x1a, 0xd4, 0x19, 0x3e, 0x11, 0x4f, 0x98, 0x3e,
  0xb0, 0x2f, 0xd0, 0xbc, 0x64, 0xda, 0xd6, 0xbd, 0xf9, 0x6f, 0x1c, 0xbe,
  0x9d, 0x60, 0xd8, 0x3a, 0x41, 0x5b, 0x5c, 0xbe, 0x16, 0x93, 0x02, 0x3e,
  0x42, 0x1f, 0xc2, 0xbe, 0x28, 0xd4, 0x26, 0x3d, 0xe0, 0xee, 0x3b, 0xbc,
  0x18, 0xac, 0xab, 0x3d, 0x60, 0x7e, 0xce, 0xbd, 0xba, 0xf4, 0xaa, 0xbe,
  0xf2, 0x32, 0xd4, 0xbd, 0xb0, 0x98, 0xd6, 0x3c, 0x78, 0x09, 0x1b, 0xbd,
  0x44, 0xb3, 0xbe, 0xbd, 0x18, 0xcd, 0xc4, 0x3d, 0x40, 0x16, 0xb0, 0x3c,
  0x4c, 0xad, 0x94, 0x3d, 0x5e, 0xcd, 0xf4, 0xbd, 0x34, 0x27, 0x9b, 0x3d,
  0x40, 0x31, 0xbe, 0x3b, 0x78, 0x7a, 0x43, 0xbd, 0x7c, 0x22, 0xa4, 0xbe,
  0xb8, 0x84, 0xca, 0x3d, 0x6c, 0x63, 0x2b, 0xbe, 0x20, 0x50, 0xa4, 0xbe,
  0x49, 0x77, 0xa3, 0xbe, 0xde, 0xdd, 0x61, 0xbe, 0x1d, 0xee, 0x96, 0x3e,
  0xaa, 0x28, 0xe7, 0xbd, 0x57, 0x2a, 0xc0, 0xbe, 0xcc, 0x41, 0xe4, 0x3d,
  0x53, 0x01, 0xa4, 0xbb, 0x98, 0xb9, 0x33, 0xbd, 0x87, 0xff, 0x9d, 0x3e,
  0x0e, 0xb7, 0x3f, 0x3d, 0x83, 0x6e, 0x0d, 0xbe, 0x80, 0xc3, 0xdb, 0xbb,
  0x8b, 0xf3, 0x25, 0xbe, 0x16, 0x72, 0xe3, 0xbd, 0x39, 0x79, 0x9a, 0x3e,
  0xe4, 0xcc, 0xab, 0xbe, 0x62, 0x1c, 0x86, 0xbe, 0x20, 0xa9, 0xd8, 0xbc,
  0x10, 0xda, 0x18, 0x3d, 0xe5, 0x3b, 0x8d, 0xbe, 0x7c, 0xa0, 0x65, 0xbe,
  0x98, 0x64, 0xfc, 0x3d, 0x09, 0x45, 0xda, 0x3d, 0xe0, 0xb3, 0x0f, 0xbc,
  0xf2, 0xd5, 0x90, 0x3e, 0xe8, 0xbb, 0x61, 0x3e, 0xbc, 0xff, 0x69, 0xbe,
  0x80, 0x79, 0x30, 0x3d, 0x2e, 0xda, 0xa5, 0xbe, 0x25, 0x42, 0x94, 0x3e,
  0x35, 0x59, 0x85, 0x3e, 0xb5, 0x1f, 0x87, 0x3e, 0x08, 0x7c, 0x8e, 0x3d,
  0x3e, 0x1f, 0x69, 0x3e, 0xec, 0x19, 0x3c, 0xbe, 0x76, 0x84, 0xaa, 0xbe,
  0x4a, 0x30, 0x5e, 0xbe, 0x10, 0x30, 0xa4, 0xbd, 0x06, 0xc4, 0x3c, 0x3e,
  0xf9, 0xd2, 0x83, 0xbe, 0x55, 0x14, 0xd3, 0x3d, 0x44, 0x1b, 0xc6, 0x3c,
  0x63, 0xde, 0xb7, 0x3e, 0x28, 0x6b, 0x8b, 0x3e, 0x2d, 0x2e, 0x1b, 0xbe,
  0x84, 0x9e, 0x35, 0x3e, 0x16, 0xaf, 0x93, 0xbe, 0xd4, 0x8e, 0x4e, 0xbe,
  0xbd, 0x4b, 0x25, 0xbc, 0xc6, 0x33, 0x4e, 0xbe, 0x3b, 0x1f, 0x61, 0xbd,
  0x32, 0x92, 0x0f, 0xbe, 0xaa, 0x29, 0x1d, 0xbe, 0x5d, 0x64, 0x89, 0xbe,
  0x08, 0x7b, 0x02, 0x3f, 0x59, 0xb5, 0x53, 0x3e, 0x3f, 0xb9, 0xab, 0xbd,
  0xb8, 0x7a, 0x04, 0x3e, 0x18, 0x1e, 0x67, 0x3e, 0x6f, 0xfd, 0x7b, 0xbe,
  0x4f, 0x44, 0x71, 0xbe, 0x40, 0xd9, 0x2c, 0x3d, 0x8a, 0xc8, 0x09, 0xbe,
  0x78, 0x59, 0x78, 0x3d, 0xa4, 0x2d, 0x59, 0xbe, 0x58, 0x95, 0xd5, 0xbd,
  0xc8, 0x14, 0x09, 0x3e, 0x02, 0x0f, 0x44, 0x3e, 0x16, 0x82, 0x82, 0xbe,
  0xa0, 0xe1, 0x17, 0xbc, 0xcc, 0xe1, 0xc8, 0xbd, 0xec, 0x4c, 0x74, 0xbe,
  0xc0, 0xd8, 0x66, 0x3c, 0x7e, 0xf9, 0x2a, 0x3e, 0x3c, 0xa3, 0xc4, 0xbd,
  0xe0, 0xba, 0xc6, 0xbd, 0x48, 0x8d, 0x8d, 0xbd, 0xa8, 0xe1, 0xa8, 0xbd,
  0xc1, 0xda, 0x90, 0x3e, 0xd2, 0x24, 0x1f, 0x3e, 0x04, 0x04, 0xaa, 0xbe,
  0x32, 0x66, 0x6c, 0x3e, 0xbc, 0xcb, 0x42, 0xbe, 0xc0, 0xfa, 0xf8, 0xbc,
  0x37, 0xbb, 0x8d, 0xbe, 0xb4, 0x6e, 0x93, 0xbd, 0xc7, 0x8e, 0xbe, 0x3d,
  0x69, 0xb7, 0x8e, 0xbe, 0x1d, 0xd7, 0xbd, 0xbe, 0xc6, 0x9f, 0xb5, 0x3c,
  0x74, 0x36, 0x28, 0xbc, 0x95, 0x76, 0x6e, 0xbe, 0x0d, 0x42, 0x3e, 0x3e,
  0xf0, 0xae, 0xd2, 0x3c, 0xb0, 0xa6, 0x83, 0xbe, 0x3e, 0x70, 0xaa, 0xbe,
  0x68, 0x18, 0xc0, 0x3d, 0xa8, 0xa8, 0x62, 0xbd, 0x70, 0x35, 0x8e, 0xbe,
  0xc9, 0x22, 0x8a, 0xbe, 0x82, 0x38, 0x6b, 0xbe, 0x00, 0x96, 0x28, 0x3d,
  0xf1, 0x03, 0x9c, 0xbe, 0x3b, 0x9c, 0x80, 0x3e, 0x8c, 0xf4, 0x70, 0xbe,
  0x62, 0xf5, 0x79, 0x3e, 0xc0, 0xfe, 0x2e, 0xbe, 0x20, 0x4c, 0x61, 0xbd,
  0xee, 0x59, 0x08, 0x3e, 0x87, 0xac, 0x9b, 0xbc, 0x52, 0x90, 0x7c, 0x3e,
  0xa3, 0x65, 0xe2, 0xbd, 0x23, 0x04, 0x1c, 0x3e, 0x5e, 0xa7, 0x5b, 0x3e,
  0x9e, 0x21, 0x2f, 0xbe, 0xee, 0x1b, 0x32, 0x3e, 0xd1, 0x50, 0x58, 0x3d,
  0x3f, 0x02, 0xa6, 0x3e, 0x9a, 0xb5, 0x4a, 0x3e, 0x04, 0xe5, 0x89, 0x3e,
  0xe2, 0xe4, 0x66, 0x3d, 0xca, 0xac, 0xba, 0xbe, 0x33, 0x40, 0xa4, 0xbe,
  0x80, 0x34, 0xe6, 0xbd, 0x7b, 0x64, 0x2f, 0x3e, 0x60, 0x5d, 0xa1, 0xbe,
  0x42, 0x3e, 0x7e, 0x3e, 0xc6, 0xb7, 0x84, 0xbe, 0x44, 0xdb, 0x88, 0x3d,
  0xc0, 0xd0, 0x40, 0xbd, 0xcb, 0x5e, 0x60, 0xbe, 0xe2, 0xc6, 0x44, 0x3e,
  0xcc, 0xc8, 0xfb, 0xbd, 0x4c, 0xf5, 0xbb, 0x3d, 0x3c, 0x00, 0x50, 0xbe,
  0x50, 0x67, 0xff, 0x3c, 0x37, 0xa4, 0xb4, 0xbe, 0x5c, 0xc3, 0x8e, 0xbe,
  0x47, 0xdb, 0x16, 0x3e, 0x14, 0x80, 0xd2, 0xbd, 0xca, 0x42, 0x7e, 0xbd,
  0x38, 0x8f, 0xac, 0xbd, 0xf0, 0x28, 0x7c, 0x3d, 0x40, 0x41, 0xf0, 0x3d,
  0xb6, 0xdf, 0x95, 0xbe, 0xf7, 0xb7, 0x77, 0xbe, 0xd8, 0xf6, 0xdb, 0x3d,
  0xf8, 0xf3, 0x14, 0xbd, 0x26, 0x8e, 0x27, 0x3d, 0xcd, 0x7e, 0x9e, 0x3e,
  0xa7, 0x8b, 0x5b, 0x3e, 0x06, 0x38, 0x4d, 0x3e, 0xd6, 0x27, 0xc0, 0xbe,
  0xac, 0xcd, 0x7e, 0xbe, 0x7c, 0x67, 0x42, 0xbe, 0xf9, 0x22, 0xed, 0x3c,
  0x75, 0xfe, 0x7f, 0x3e, 0x8e, 0x32, 0x2c, 0x3e, 0x90, 0x43, 0x94, 0x3c,
  0x41, 0x5e, 0x85, 0xbe, 0x09, 0xef, 0x22, 0xbe, 0x34, 0xce, 0xc7, 0xbd,
  0xcb, 0x88, 0x37, 0xbe, 0x75, 0xaf, 0x8c, 0x3e, 0x8c, 0x63, 0xe8, 0xbd,
  0x20, 0x09, 0x1e, 0xbd, 0x54, 0x30, 0x3d, 0xbe, 0x35, 0x7a, 0x81, 0x3e,
  0x0a, 0x74, 0x24, 0x3e, 0x7c, 0xe9, 0xb4, 0xbe, 0xf8, 0x0b, 0xe1, 0xbd,
  0x10, 0xc1, 0x82, 0x3d, 0xc0, 0x3c, 0xd0, 0x3b, 0xa2, 0x8f, 0x91, 0x3e,
  0x86, 0x8e, 0xb3, 0xbe, 0x7f, 0xdf, 0xa6, 0x3e, 0xd6, 0xcb, 0xa3, 0xbe,
  0x82, 0xb6, 0x96, 0xbe, 0x41, 0x2f, 0xdf, 0xbd, 0x91, 0x4f, 0x8c, 0xbe,
  0x89, 0x8b, 0x0e, 0x3e, 0x85, 0x92, 0xa9, 0x3e, 0x1c, 0xe6, 0xc3, 0x3e,
  0x4c, 0xec, 0x2f, 0x3e, 0x21, 0xa1, 0xb3, 0x3d, 0xfb, 0x73, 0x17, 0xbe,
  0x72, 0x87, 0x0d, 0xbe, 0x69, 0x6e, 0xb0, 0x3e, 0x5a, 0x5a, 0xed, 0x3b,
  0x0c, 0xe2, 0x9e, 0xbe, 0x48, 0x1a, 0xf6, 0x3d, 0x9f, 0x5c, 0x0d, 0xbd,
  0x0f, 0x50, 0xd0, 0x3e, 0x00, 0x38, 0x7d, 0x3c, 0x4e, 0xee, 0x63, 0x3e,
  0xb4, 0x51, 0xa4, 0xbe, 0x78, 0xb1, 0xf1, 0x3e, 0xe0, 0xe9, 0xdc, 0xbc,
  0xcf, 0xc1, 0xc1, 0xbe, 0xc9, 0x24, 0x6c, 0xbe, 0xe6, 0x3a, 0xa2, 0x3e,
  0xcc, 0x32, 0xa1, 0x3e, 0x80, 0xac, 0x92, 0x3e, 0x00, 0xac, 0xb6, 0xbe,
  0x2e, 0x20, 0x38, 0xbe, 0x54, 0x3c, 0x28, 0xbe, 0xd8, 0x28, 0xaf, 0xbe,
  0x86, 0xcf, 0x35, 0x3d, 0x49, 0x14, 0x5a, 0x3e, 0xa8, 0x58, 0xe2, 0x3d,
  0xba, 0x22, 0x3b, 0xbe, 0x64, 0x6b, 0x35, 0xbe, 0x65, 0xf8, 0x33, 0x3e,
  0xc0, 0x9c, 0x88, 0xbb, 0x94, 0x38, 0x00, 0xbc, 0xf6, 0x56, 0xa9, 0x3e,
  0xc7, 0xc8, 0x03, 0x3d, 0xb4, 0x4b, 0xa4, 0x3e, 0x66, 0xda, 0x2a, 0x3e,
  0x93, 0x6d, 0xa6, 0xbe, 0x56, 0x98, 0xd3, 0x3e, 0xdf, 0x6a, 0xb0, 0xbe,
  0x50, 0xc1, 0xa3, 0x3d, 0x8f, 0x4c, 0x77, 0x3e, 0x26, 0x2a, 0x3e, 0xbe,
  0xd6, 0xd5, 0x91, 0xbe, 0xfb, 0xd2, 0xb2, 0x3d, 0xb8, 0x8b, 0x82, 0xbd,
  0xdb, 0x85, 0xc1, 0x3d, 0x1a, 0x4c, 0xfc, 0xbd, 0x9b, 0xde, 0x53, 0x3f,
  0x12, 0xa3, 0xcb, 0x3d, 0x19, 0x7e, 0x50, 0x3e, 0x65, 0x50, 0xa4, 0x3e,
  0x29, 0x34, 0x23, 0x3e, 0x0d, 0x29, 0xff, 0x3e, 0xab, 0x9e, 0x11, 0x3e,
  0xc6, 0xcd, 0x26, 0x3e, 0x51, 0x6a, 0x94, 0xbe, 0x80, 0xd4, 0xf2, 0x3b,
  0xe8, 0xd2, 0x89, 0x3d, 0xac, 0xc8, 0x88, 0x3d, 0x30, 0x47, 0x5a, 0x3d,
  0x37, 0xf8, 0x2d, 0xbe, 0x9b, 0xc6, 0x10, 0xbe, 0xbc, 0xf8, 0xc8, 0xbd,
  0x10, 0x2b, 0xb7, 0xbc, 0x54, 0x76, 0xb4, 0x3d, 0x7c, 0x75, 0x88, 0xbe,
  0xab, 0xca, 0xa3, 0xbe, 0x92, 0xdd, 0x66, 0x3e, 0x16, 0x7c, 0x51, 0x3e,
  0x2c, 0x01, 0xb3, 0xbe, 0xcd, 0x98, 0x9f, 0x3e, 0x00, 0x94, 0xdf, 0xba,
  0xd6, 0xaa, 0x95, 0x3e, 0x05, 0x4a, 0x7f, 0xbd, 0x28, 0x7c, 0x39, 0xbd,
  0x52, 0xcd, 0x04, 0x3e, 0xc2, 0xec, 0x15, 0x3e, 0x1c, 0x78, 0xab, 0xbe,
  0x7c, 0xaa, 0xaf, 0xbd, 0x0e, 0xdb, 0x80, 0x3e, 0xd1, 0xcd, 0xf4, 0xbd,
  0x8e, 0x67, 0x45, 0x3e, 0xdd, 0x11, 0x7e, 0xbe, 0xc1, 0x94, 0xf8, 0xbc,
  0x60, 0xb9, 0x8a, 0x3c, 0xae, 0x5e, 0x4b, 0xbe, 0xdc, 0x2a, 0x88, 0x3d,
  0xd2, 0x2e, 0x4f, 0x3e, 0xa4, 0xb7, 0x94, 0x3d, 0xdb, 0xab, 0x8e, 0xbe,
  0xa0, 0x16, 0xdf, 0x3d, 0xed, 0x0f, 0xa3, 0x3e, 0xb5, 0x65, 0xa5, 0x3e,
  0xa0, 0x62, 0x12, 0xbd, 0x80, 0x06, 0x19, 0x3d, 0x69, 0x4a, 0x9e, 0xbe,
  0x40, 0xc1, 0xfc, 0xbb, 0x3c, 0xc9, 0xf0, 0xbd, 0x68, 0x8a, 0xcf, 0x3d,
  0x6f, 0x63, 0x1c, 0xbe, 0x30, 0xb8, 0x05, 0x3d, 0x50, 0xf2, 0xfe, 0x3c,
  0x08, 0xbb, 0x76, 0xbd, 0x20, 0xd9, 0x58, 0xbc, 0x70, 0xd6, 0xd0, 0x3d,
  0x6d, 0x83, 0x2a, 0xbe, 0xbc, 0xdd, 0xd8, 0xbd, 0x40, 0x17, 0xd3, 0xbb,
  0xe0, 0xa2, 0xc1, 0xbd, 0x9e, 0xc3, 0x32, 0xbe, 0x4c, 0xb9, 0xbc, 0xbd,
  0xa0, 0x03, 0x76, 0x3d, 0x08, 0x20, 0x6b, 0xbd, 0xe0, 0x9e, 0x18, 0xbe,
  0xb0, 0x13, 0xb4, 0x3d, 0x72, 0x78, 0xb4, 0xbe, 0xb2, 0x93, 0x30, 0x3e,
  0xf9, 0x4c, 0x94, 0x3e, 0x71, 0x45, 0xb3, 0x3d, 0xa2, 0x3e, 0x05, 0xbe,
  0xae, 0xfe, 0x44, 0xbd, 0x11, 0xe1, 0x75, 0x3b, 0xe0, 0x96, 0xa1, 0xbe,
  0xd6, 0x77, 0x52, 0xbe, 0x20, 0x4e, 0xad, 0x3d, 0xa0, 0xbf, 0x99, 0xbd,
  0xe4, 0x92, 0x00, 0x3e, 0x50, 0x1d, 0x14, 0xbe, 0x5f, 0xb9, 0x24, 0x3e,
  0x6f, 0xab, 0xd9, 0xbe, 0xdb, 0xcd, 0xe3, 0x3d, 0x69, 0xab, 0xf7, 0x3c,
  0xb7, 0x69, 0xb0, 0xbd, 0x83, 0x39, 0x7c, 0x3d, 0xe9, 0x72, 0x65, 0xbd,
  0x85, 0x19, 0x90, 0x3e, 0xd0, 0x3c, 0x82, 0xbe, 0xee, 0xbe, 0x16, 0xbe,
  0x3e, 0xab, 0x25, 0x3e, 0x47, 0xfa, 0x98, 0x3e, 0xf7, 0x5a, 0x93, 0xbe,
  0xe9, 0x08, 0xaa, 0xbe, 0x1a, 0x6d, 0x59, 0xbe, 0x1f, 0xbb, 0x49, 0xbe,
  0x6e, 0xfe, 0x46, 0xbd, 0x8d, 0x62, 0x27, 0xbe, 0x65, 0x0f, 0x21, 0xbe,
  0xa5, 0xb6, 0x1a, 0x3e, 0xf8, 0x2c, 0x6d, 0x3d, 0x1a, 0xb1, 0x50, 0x3e,
  0x5b, 0x8d, 0xaf, 0xbd, 0xd1, 0x56, 0x98, 0x3e, 0xd3, 0xce, 0xbf, 0xbd,
  0xd7, 0xfd, 0x92, 0x3e, 0xa0, 0x11, 0x79, 0xbc, 0x31, 0x57, 0x50, 0xbc,
  0xcd, 0x26, 0xa0, 0x3e, 0x50, 0xe1, 0xba, 0x3e, 0xdc, 0x13, 0xb9, 0xbd,
  0x0f, 0xb1, 0xb7, 0x3c, 0x2c, 0x1c, 0x2e, 0xbd, 0xf5, 0xc4, 0xa2, 0xbc,
  0xcd, 0x11, 0xc1, 0x3d, 0xac, 0x1a, 0x78, 0xbd, 0x75, 0xc3, 0x01, 0xbf,
  0x0f, 0x78, 0x9b, 0xbc, 0x30, 0x4b, 0x85, 0x3c, 0xd0, 0xd1, 0xfe, 0xbc,
  0xb8, 0x65, 0xad, 0x3e, 0x51, 0x69, 0x72, 0xbe, 0x5c, 0x73, 0xed, 0xbd,
  0xd6, 0xcc, 0x60, 0xbe, 0x92, 0x86, 0xdf, 0xbd, 0x75, 0x49, 0x09, 0xbe,
  0xa0, 0x30, 0x47, 0xbc, 0x93, 0x6f, 0xb0, 0xbe, 0x6e, 0xe9, 0xdc, 0xbd,
  0xa1, 0xb2, 0xd7, 0x3c, 0x19, 0xa9, 0x82, 0xbe, 0x66, 0xf3, 0xa6, 0x3e,
  0xbf, 0x03, 0x33, 0xbe, 0x1e, 0x60, 0x2b, 0xbe, 0x92, 0xaf, 0xd9, 0xbd,
  0xbc, 0x70, 0xbf, 0x3d, 0xfd, 0x79, 0x2e, 0x3d, 0x8d, 0xc5, 0xc3, 0xbe,
  0xf0, 0x3f, 0x67, 0x3d, 0x31, 0x76, 0x5c, 0xbe, 0x06, 0xce, 0x2e, 0x3e,
  0x56, 0x2a, 0x25, 0x3e, 0x90, 0xaa, 0x19, 0x3d, 0x8a, 0x2a, 0xd2, 0x3d,
  0xc9, 0x8e, 0x82, 0x3e, 0x31, 0x3f, 0x51, 0xbc, 0x93, 0x21, 0x5f, 0x3e,
  0xc7, 0x5e, 0xa7, 0xb9, 0xc6, 0xa9, 0xd5, 0x3b, 0x5c, 0x85, 0x74, 0xbe,
  0xc4, 0x73, 0xef, 0x3d, 0x80, 0x56, 0x04, 0x3c, 0xe1, 0x64, 0xc0, 0xbd,
  0xf2, 0x80, 0x9c, 0x3d, 0x2a, 0xf6, 0x46, 0x3e, 0xbc, 0x98, 0x30, 0xbe,
  0xe5, 0xf0, 0x9d, 0x3e, 0x82, 0x9a, 0xc4, 0x3e, 0xce, 0xb9, 0x37, 0x3e,
  0xc9, 0x68, 0x92, 0xbe, 0x49, 0x0f, 0xbe, 0xbd, 0x12, 0x3a, 0x26, 0x3e,
  0xfc, 0xfb, 0xad, 0xbd, 0x1b, 0x45, 0x5d, 0x3e, 0xad, 0x15, 0x9c, 0xbe,
  0xf5, 0x3d, 0x13, 0x3e, 0x48, 0xd3, 0x8d, 0xbe, 0x55, 0xd0, 0xad, 0x3e,
  0x1f, 0x8d, 0x12, 0xbe, 0x82, 0x72, 0x7b, 0xbe, 0xb6, 0xa1, 0x6c, 0x3e,
  0x6e, 0xd3, 0x78, 0x3d, 0x5d, 0xb1, 0x8f, 0x3e, 0x0f, 0xd5, 0xd4, 0xbd,
  0x5f, 0xd9, 0x24, 0xbe, 0xb8, 0x92, 0x41, 0x3e, 0xb3, 0xcc, 0xe6, 0x3d,
  0x04, 0xf3, 0x8e, 0x3e, 0xb5, 0x2d, 0x50, 0x3d, 0xaa, 0x8b, 0x23, 0x3e,
  0x15, 0xa6, 0x8a, 0xbc, 0x37, 0x60, 0xea, 0x3c, 0x56, 0xea, 0x42, 0x3e,
  0x2e, 0x3c, 0x30, 0x3e, 0x02, 0x66, 0x38, 0xbe, 0x0a, 0x52, 0x5c, 0x3e,
  0x06, 0xdf, 0x64, 0xbe, 0xbe, 0x7b, 0x4f, 0x3e, 0x24, 0xfc, 0x9d, 0xbe,
  0x92, 0x76, 0x75, 0xbe, 0x10, 0x86, 0xe0, 0x3d, 0x55, 0x23, 0x0f, 0xbe,
  0xe1, 0xdc, 0xad, 0x3e, 0xa4, 0x89, 0xce, 0xbd, 0x9a, 0x75, 0x0f, 0x3e,
  0x10, 0x3b, 0xb1, 0xbe, 0x11, 0xed, 0x55, 0xbe, 0xb6, 0xc4, 0x06, 0xbe,
  0x65, 0x26, 0xb0, 0x3e, 0x30, 0xc7, 0xf7, 0xbc, 0x96, 0xc6, 0x00, 0x3e,
  0x30, 0x2c, 0x3e, 0xbe, 0x08, 0x18, 0x0b, 0x3d, 0x88, 0x58, 0x22, 0xbe,
  0x9e, 0x7d, 0x47, 0xbe, 0xc4, 0x0d, 0x9d, 0x3e, 0x48, 0x72, 0xa0, 0x3d,
  0xbe, 0x67, 0x12, 0xbe, 0x91, 0x39, 0x9c, 0x3e, 0x91, 0x7e, 0x54, 0x3e,
  0x49, 0xd3, 0xe4, 0x3e, 0x27, 0x19, 0x2f, 0x3e, 0xc1, 0x7f, 0x14, 0xbe,
  0x6d, 0x01, 0x47, 0xbe, 0x17, 0xcc, 0x25, 0xbe, 0x00, 0x5e, 0xae, 0x3a,
  0x42, 0x65, 0x82, 0xbc, 0x14, 0xc6, 0x15, 0x3e, 0x4e, 0xeb, 0x46, 0x3e,
  0xf5, 0x1a, 0x21, 0xbe, 0xbc, 0x11, 0x8b, 0xbe, 0x01, 0x4c, 0x32, 0xbd,
  0x82, 0x9d, 0x70, 0x3e, 0xb8, 0x6a, 0xf8, 0x3d, 0x91, 0xaa, 0x10, 0xbe,
  0x8a, 0x1f, 0x2d, 0xbd, 0x5e, 0xaf, 0x53, 0xbe, 0x48, 0xea, 0xee, 0x3e,
  0xd6, 0x6c, 0x38, 0xbe, 0xd0, 0x43, 0xae, 0x3e, 0xf5, 0x6a, 0xa9, 0x3c,
  0x76, 0xcc, 0x25, 0xbe, 0x5b, 0xed, 0xf5, 0x3c, 0x89, 0x56, 0x80, 0xbe,
  0x50, 0x11, 0x1b, 0x3d, 0xa4, 0xdc, 0x93, 0xbe, 0x79, 0x12, 0x74, 0xbe,
  0x87, 0xf6, 0x94, 0xbd, 0x98, 0xf5, 0x23, 0xbe, 0xd3, 0x9c, 0x57, 0x3d,
  0xa8, 0xce, 0x61, 0x3e, 0x0a, 0xd2, 0xb9, 0xbe, 0x65, 0x2e, 0x05, 0x3e,
  0xf4, 0x9e, 0x79, 0x3e, 0x34, 0xee, 0x3d, 0xbe, 0xdb, 0x8e, 0x78, 0xbd,
  0x46, 0xce, 0xff, 0xff, 0x04, 0x00, 0x00, 0x00, 0x00, 0x04, 0x00, 0x00,
  0xa3, 0xea, 0x32, 0xbd, 0xcb, 0x2a, 0xaa, 0x3e, 0x6b, 0x18, 0xd9, 0x3e,
  0x27, 0x73, 0xc2, 0xbe, 0x9e, 0x68, 0x92, 0xbe, 0x04, 0xe5, 0xcb, 0xbe,
  0x16, 0x26, 0x29, 0xbe, 0x80, 0xea, 0x0f, 0x3b, 0x4c, 0x17, 0xab, 0xbd,
  0x23, 0x44, 0x2a, 0xbe, 0xf9, 0x98, 0xde, 0xbe, 0xa2, 0x03, 0xb7, 0xbd,
  0x90, 0x5d, 0x85, 0x3e, 0xb8, 0x54, 0x64, 0xbd, 0x3f, 0xf1, 0x50, 0xbe,
  0x08, 0x7f, 0x9d, 0x3e, 0x4c, 0x88, 0x99, 0x3d, 0x83, 0x93, 0x4b, 0xbe,
  0xc0, 0xa7, 0x8a, 0xbb, 0x74, 0x77, 0x93, 0xbe, 0xd8, 0xcf, 0x9f, 0xbd,
  0xa4, 0xa1, 0xb9, 0x3d, 0x5a, 0x49, 0xa0, 0xbe, 0xbf, 0xbd, 0x80, 0xbe,
  0x0c, 0x61, 0xc4, 0x3d, 0xe4, 0xe9, 0xf0, 0x3d, 0xe7, 0x67, 0xb6, 0x3e,
  0x61, 0x32, 0x8c, 0xbe, 0x98, 0x50, 0x30, 0xbd, 0xac, 0xa0, 0xb4, 0x3d,
  0x78, 0x0d, 0x9f, 0xbe, 0x4e, 0x86, 0xbe, 0xbe, 0x27, 0xe6, 0xbd, 0xbe,
  0x4d, 0x25, 0x63, 0xbe, 0xbb, 0x9b, 0xba, 0x3d, 0x5d, 0x71, 0x17, 0x3e,
  0x40, 0x41, 0x86, 0xbd, 0x16, 0x8a, 0x0d, 0xbe, 0xb6, 0x8c, 0xd4, 0xbc,
  0xe2, 0x03, 0x3c, 0x3e, 0x96, 0x4a, 0xc0, 0x3e, 0x2f, 0x8c, 0xb9, 0x3e,
  0x99, 0x9c, 0x9c, 0xbe, 0x4d, 0x28, 0xbf, 0xbd, 0x9d, 0x52, 0xa8, 0xbe,
  0x74, 0xad, 0xbe, 0xbe, 0x3a, 0xec, 0x3b, 0x3e, 0xa6, 0x95, 0x99, 0xbe,
  0xdc, 0xc3, 0x19, 0x3e, 0xd2, 0x9a, 0x82, 0x3e, 0x2a, 0x30, 0x58, 0x3d,
  0x95, 0x3a, 0x16, 0x3f, 0x6a, 0x82, 0xbc, 0xbd, 0x22, 0x33, 0x16, 0x3e,
  0x18, 0xa2, 0x9c, 0x3e, 0x3f, 0x8b, 0x43, 0xbe, 0xca, 0xb3, 0x15, 0xbe,
  0xc8, 0xd7, 0x85, 0x3e, 0x17, 0x39, 0xc1, 0x3e, 0x3f, 0x80, 0xb4, 0xbe,
  0x1b, 0x84, 0x82, 0x3e, 0x81, 0x23, 0x98, 0x3e, 0x66, 0x11, 0xa7, 0xbe,
  0xa0, 0xc6, 0x05, 0x3e, 0x58, 0x8d, 0x7c, 0xbd, 0xa4, 0x40, 0xbd, 0x3d,
  0xa0, 0x72, 0xf3, 0x3c, 0x40, 0x7c, 0xbd, 0xbc, 0xaa, 0x6b, 0x98, 0xbe,
  0x1a, 0x0a, 0x59, 0x3e, 0xc5, 0xfa, 0xcd, 0xbe, 0xf5, 0x94, 0xc5, 0xbe,
  0xb0, 0x46, 0x66, 0xbd, 0x38, 0x7f, 0xd4, 0xbd, 0x20, 0xfd, 0x18, 0xbc,
  0x83, 0x2d, 0xbe, 0xbe, 0x7f, 0x41, 0x91, 0x3e, 0x0d, 0xb2, 0xab, 0x3e,
  0x6a, 0x68, 0x5d, 0xbe, 0x40, 0x93, 0x41, 0xbc, 0x7d, 0x3d, 0x66, 0xbe,
  0x3e, 0xe3, 0x7a, 0xbe, 0x50, 0x57, 0x33, 0x3d, 0x8b, 0x6d, 0xfb, 0xbe,
  0x59, 0xb3, 0xb3, 0x3e, 0x97, 0x97, 0x80, 0xbc, 0xcf, 0x7a, 0xf4, 0xbe,
  0x70, 0x28, 0xdd, 0xbe, 0x36, 0x51, 0x60, 0xbe, 0x01, 0x0d, 0xa8, 0x3e,
  0x22, 0xf3, 0xc8, 0xbe, 0xae, 0x3c, 0xb3, 0x3e, 0x67, 0xb8, 0xab, 0xbe,
  0x96, 0xe3, 0x6c, 0x3e, 0x02, 0x67, 0x6e, 0x3e, 0x2c, 0x2c, 0xb0, 0x3d,
  0xdc, 0xa7, 0xd3, 0x3d, 0xca, 0x05, 0x43, 0x3e, 0x03, 0xeb, 0xaf, 0xbe,
  0xc0, 0xb0, 0xab, 0xbc, 0xae, 0x3b, 0x19, 0x3e, 0xa0, 0x77, 0xee, 0x3c,
  0xaf, 0x20, 0x97, 0x3e, 0x3a, 0xd2, 0x47, 0x3e, 0x6d, 0x8d, 0x7f, 0xbe,
  0x5e, 0x75, 0x88, 0xbe, 0x5c, 0x18, 0xa9, 0xbe, 0x88, 0x04, 0x61, 0xbd,
  0xa2, 0xe8, 0x54, 0x3e, 0x99, 0x12, 0x9a, 0xbe, 0x83, 0x5d, 0x8d, 0x3e,
  0x59, 0xa8, 0x76, 0xbe, 0x66, 0x5c, 0x28, 0x3e, 0xfd, 0xb0, 0x11, 0x3f,
  0x92, 0x98, 0x5f, 0x3d, 0x92, 0x9c, 0x15, 0x3f, 0x3f, 0xf2, 0xde, 0x3c,
  0x07, 0xdd, 0x02, 0x3d, 0x70, 0xef, 0x50, 0x3e, 0xf0, 0xe7, 0x0e, 0x3d,
  0xba, 0x80, 0x0a, 0x3e, 0xb7, 0x16, 0x2f, 0xbd, 0xb9, 0xbd, 0x01, 0x3f,
  0xb0, 0xd4, 0x97, 0xbe, 0xcd, 0x16, 0x31, 0xbe, 0x14, 0x98, 0xcf, 0x3d,
  0xb5, 0x05, 0x25, 0x3e, 0x76, 0xa6, 0x34, 0x3e, 0x74, 0x6a, 0x9e, 0xbd,
  0x14, 0x7b, 0xc4, 0x3d, 0x82, 0xd6, 0x2c, 0xbe, 0xe2, 0x71, 0x12, 0x3e,
  0x16, 0xce, 0x3a, 0xbe, 0xc8, 0xc0, 0xb2, 0xbd, 0xc0, 0xff, 0xfb, 0x3c,
  0x0a, 0x74, 0x28, 0x3e, 0xe4, 0xc4, 0x9e, 0x3d, 0x52, 0x98, 0x2c, 0xbe,
  0x23, 0x89, 0x88, 0x3e, 0xbe, 0x4d, 0xa4, 0xbe, 0xa0, 0x27, 0x14, 0xbc,
  0x90, 0xc5, 0xad, 0x3c, 0x23, 0x0c, 0xaa, 0x3e, 0x67, 0x5f, 0xd8, 0xbe,
  0x45, 0x18, 0x32, 0x3d, 0xc7, 0x4d, 0x20, 0xbf, 0xa0, 0x09, 0x9a, 0xbd,
  0x72, 0x5e, 0xa0, 0xbe, 0xd9, 0x5d, 0x9a, 0xbe, 0x79, 0x18, 0x8e, 0x3d,
  0x93, 0x29, 0xae, 0x3c, 0x99, 0xf5, 0xb5, 0xbe, 0x59, 0xd2, 0x9d, 0x3e,
  0x4b, 0x83, 0xd2, 0x3d, 0xa9, 0xd8, 0x96, 0xbe, 0xd0, 0x67, 0xd9, 0x3e,
  0x3c, 0x5c, 0xfa, 0x3d, 0x72, 0x31, 0x1f, 0x3e, 0x43, 0x3d, 0xbb, 0x3e,
  0x1c, 0xee, 0x6f, 0xbe, 0x1d, 0x67, 0xfd, 0xbd, 0x08, 0x44, 0x36, 0x39,
  0xf2, 0xe2, 0x11, 0x3e, 0x1b, 0x7b, 0xc1, 0xbe, 0x11, 0x8d, 0xab, 0xbe,
  0xac, 0xdb, 0xc3, 0xbe, 0x10, 0x12, 0x86, 0x3e, 0x42, 0xe6, 0x26, 0x3e,
  0x98, 0x8a, 0x0c, 0xbd, 0x0d, 0x7b, 0x4f, 0x3e, 0x47, 0xcc, 0xb9, 0xbe,
  0x8e, 0x83, 0x8d, 0x3d, 0x3f, 0xf9, 0xc8, 0xbe, 0x22, 0x60, 0x2c, 0xbe,
  0x78, 0xcc, 0xf4, 0xbd, 0x12, 0x8b, 0x5d, 0xbd, 0x6a, 0x02, 0x91, 0x3e,
  0xd0, 0x3b, 0xcb, 0xbe, 0x13, 0x82, 0xb9, 0xbe, 0xb0, 0xca, 0x6d, 0xbd,
  0x55, 0x71, 0xaf, 0x3e, 0x7d, 0x05, 0x3e, 0x3e, 0xb2, 0x71, 0xff, 0xbd,
  0xbc, 0x60, 0xae, 0x3d, 0x7e, 0xf1, 0x2e, 0x3d, 0x46, 0x06, 0xaa, 0x3d,
  0x98, 0xa3, 0x40, 0xbe, 0x13, 0x40, 0x03, 0x3f, 0x01, 0x99, 0xeb, 0x3e,
  0xca, 0x04, 0x99, 0xbe, 0x37, 0xaa, 0xeb, 0xbc, 0x25, 0x95, 0x8a, 0x3e,
  0x4a, 0xe4, 0xbb, 0x3e, 0x38, 0xb1, 0x51, 0xbe, 0xb2, 0x54, 0xaf, 0xbe,
  0x77, 0xd6, 0x3f, 0x3e, 0x76, 0x57, 0x84, 0x3e, 0x1f, 0xa2, 0x04, 0x3f,
  0xab, 0x07, 0xa3, 0x3e, 0xd1, 0xc4, 0x76, 0xbe, 0x27, 0xce, 0xd6, 0x3d,
  0xb6, 0x99, 0x94, 0x3e, 0x15, 0x26, 0xf3, 0x3d, 0x64, 0x2e, 0xdf, 0xbb,
  0xe2, 0xe2, 0xc1, 0xbe, 0x09, 0xb1, 0x69, 0xbe, 0xdd, 0x3c, 0x0a, 0xbe,
  0xe5, 0x9a, 0x28, 0x3e, 0xf7, 0xc6, 0xe6, 0x3e, 0x83, 0xa9, 0xfb, 0xbe,
  0xeb, 0xd9, 0x56, 0xbe, 0x8a, 0x16, 0x19, 0xbd, 0x4f, 0x23, 0x12, 0x3e,
  0xdb, 0xe5, 0x63, 0x3e, 0x50, 0x0a, 0xc7, 0x3e, 0x5c, 0x9d, 0xe7, 0x3d,
  0xa3, 0x6f, 0xe8, 0x3d, 0x8d, 0x71, 0xd9, 0x3e, 0x1b, 0xe6, 0x3b, 0x3e,
  0xbd, 0x8a, 0x08, 0x3f, 0x0a, 0xca, 0xa9, 0xbe, 0x08, 0x50, 0x29, 0xbe,
  0x43, 0xe2, 0xd5, 0x3c, 0xe8, 0xe3, 0x0b, 0x3f, 0xfa, 0x6d, 0x62, 0x3e,
  0x4e, 0x5b, 0x0d, 0xbe, 0x45, 0xe6, 0x9c, 0x3e, 0x75, 0xef, 0xfb, 0xbe,
  0x41, 0x41, 0xa4, 0xbd, 0x67, 0x07, 0xc8, 0xbe, 0x80, 0xbe, 0x87, 0xbd,
  0x96, 0x03, 0x1a, 0x3e, 0xb7, 0xb3, 0x8b, 0xbe, 0x32, 0x60, 0x21, 0xbd,
  0xcd, 0xec, 0x81, 0x3e, 0xcd, 0x5d, 0x8e, 0xbe, 0xcd, 0xe1, 0x80, 0x3e,
  0x98, 0x18, 0xb7, 0xbd, 0xaa, 0x67, 0xd9, 0x3e, 0xa4, 0xf7, 0xda, 0xbe,
  0x53, 0xa2, 0xaa, 0x3e, 0x62, 0x1d, 0x85, 0xbd, 0x92, 0xdd, 0x93, 0x3e,
  0xab, 0x1f, 0xd9, 0xbe, 0xd4, 0x41, 0xcf, 0x3d, 0xf6, 0x19, 0x93, 0x3d,
  0xb3, 0x9a, 0x81, 0x3e, 0x4e, 0xb0, 0xc8, 0xbe, 0x13, 0x0c, 0xed, 0x3e,
  0x51, 0xa5, 0x85, 0xbd, 0x89, 0xed, 0x5b, 0xbe, 0xa8, 0xb0, 0x93, 0x3e,
  0xbe, 0x1f, 0x0c, 0x3f, 0xa8, 0x84, 0x2a, 0xbe, 0x07, 0xf6, 0x31, 0xbc,
  0x15, 0x02, 0xb3, 0xbe, 0x52, 0xd2, 0xff, 0xff, 0x04, 0x00, 0x00, 0x00,
  0x00, 0x08, 0x00, 0x00, 0xf0, 0xd4, 0x6b, 0xbd, 0xe2, 0x40, 0x4d, 0xbe,
  0x15, 0xf4, 0xd6, 0x3e, 0x95, 0xc5, 0xac, 0xbe, 0x58, 0xdb, 0x5e, 0x3e,
  0x87, 0x28, 0x97, 0x3d, 0xa5, 0x24, 0xf6, 0xbc, 0xa0, 0xa3, 0xd5, 0x3e,
  0x04, 0x09, 0x0b, 0xbe, 0xe1, 0x15, 0x34, 0xbe, 0xdc, 0x60, 0xc9, 0xbd,
  0x37, 0xb0, 0xf1, 0x3e, 0x3c, 0x66, 0x50, 0x3e, 0xa8, 0x32, 0xd0, 0x3d,
  0xf1, 0xa9, 0x75, 0x3e, 0x38, 0xdf, 0x2e, 0x3e, 0x37, 0x5d, 0xd3, 0x3c,
  0xc8, 0x97, 0x78, 0xbd, 0x78, 0x57, 0xab, 0xbd, 0xc8, 0x55, 0x28, 0xbe,
  0x40, 0xeb, 0xc5, 0xbd, 0xab, 0xf7, 0x92, 0xbe, 0x48, 0xe7, 0x15, 0x3d,
  0xdf, 0x05, 0xd5, 0x3e, 0xfd, 0xdf, 0x91, 0xbe, 0x38, 0xa0, 0xd0, 0xbd,
  0x4f, 0xfc, 0x39, 0x3e, 0x2c, 0xfe, 0xa6, 0xbd, 0x52, 0x6b, 0x57, 0x3e,
  0x64, 0x2d, 0x44, 0x3e, 0xb0, 0xb1, 0x34, 0x3d, 0x3d, 0xbc, 0x8e, 0x3e,
  0x90, 0x25, 0x6c, 0xbd, 0xf0, 0xc9, 0x94, 0x3d, 0xbb, 0x0b, 0x40, 0xbe,
  0x0a, 0x6a, 0x9c, 0xbe, 0xe6, 0xd0, 0x17, 0xbe, 0x75, 0x4a, 0x9d, 0x3e,
  0xe2, 0xad, 0xa1, 0x3e, 0xc1, 0xd1, 0xba, 0x3e, 0x78, 0xb4, 0x80, 0xbe,
  0x81, 0x2c, 0xba, 0x3e, 0x0a, 0x69, 0x1e, 0xbe, 0x5f, 0xb4, 0xd1, 0xbc,
  0x24, 0x06, 0x5a, 0xbd, 0x78, 0x10, 0x10, 0xbe, 0x55, 0xe6, 0x6d, 0xbe,
  0xfa, 0x38, 0x3c, 0xbd, 0xa6, 0x9f, 0x0f, 0x3d, 0x10, 0xd6, 0x0c, 0x3d,
  0x4a, 0x5b, 0x55, 0x3e, 0x51, 0x64, 0xba, 0x3e, 0x77, 0x3e, 0x9a, 0xbe,
  0xfa, 0x92, 0x42, 0x3e, 0x39, 0x0d, 0x1d, 0x3d, 0xc6, 0x40, 0xab, 0x3e,
  0xaa, 0x8e, 0x9f, 0xbe, 0xce, 0xc6, 0x4f, 0x3e, 0x49, 0xb3, 0xe9, 0xbd,
  0xd0, 0xff, 0xa1, 0xbc, 0x80, 0xcf, 0x70, 0xbd, 0x9a, 0x2f, 0xb2, 0xbe,
  0x4a, 0x7a, 0x23, 0xbe, 0x08, 0x55, 0x55, 0x3d, 0x34, 0x0d, 0x88, 0x3d,
  0x88, 0x90, 0x55, 0xbd, 0xfd, 0x41, 0x02, 0x3e, 0xe5, 0xed, 0xa2, 0xbd,
  0x98, 0x73, 0x02, 0x3d, 0x9f, 0x28, 0xb8, 0xbe, 0xfb, 0xf5, 0xa9, 0xbe,
  0xf8, 0x7d, 0xe7, 0x3d, 0x74, 0x75, 0x92, 0xbd, 0x27, 0xb8, 0xa3, 0x3e,
  0x6b, 0x4a, 0x21, 0xbe, 0x70, 0xb8, 0x85, 0xbe, 0x83, 0x42, 0xa3, 0xbe,
  0x92, 0x98, 0x5d, 0xbe, 0xfe, 0x28, 0xa2, 0xbd, 0x6c, 0x84, 0xa9, 0x3d,
  0xba, 0xd3, 0x54, 0xbe, 0xd1, 0x57, 0xa4, 0x3e, 0x8a, 0x3f, 0x72, 0xbe,
  0x74, 0xef, 0x56, 0x3e, 0xdc, 0xcd, 0x9b, 0xbd, 0x8b, 0xe5, 0x11, 0xbe,
  0x72, 0xe6, 0x8f, 0x3c, 0x07, 0xe4, 0xdb, 0x3d, 0x24, 0xa7, 0xa0, 0xbd,
  0x7b, 0x1d, 0xae, 0x3e, 0xa5, 0x7d, 0x80, 0xbe, 0x48, 0x1c, 0xa8, 0xbd,
  0x26, 0x40, 0x1f, 0x3e, 0xaa, 0xda, 0xad, 0x3d, 0xb1, 0x07, 0xb4, 0x3e,
  0xeb, 0xca, 0x02, 0xbe, 0xf7, 0x3a, 0x48, 0xbe, 0xd0, 0x60, 0x7b, 0xbe,
  0xa9, 0xa8, 0xb3, 0x3e, 0x06, 0x41, 0x4d, 0x3e, 0xfe, 0xdb, 0x42, 0x3e,
  0x38, 0xe2, 0xee, 0x3d, 0xc6, 0x94, 0x7f, 0x3e, 0x80, 0x08, 0xd5, 0x3d,
  0x6c, 0x38, 0xf3, 0xbd, 0xe7, 0xe2, 0x81, 0xbe, 0x97, 0x91, 0x84, 0x3e,
  0x12, 0xc2, 0x0a, 0xbf, 0xb9, 0x36, 0x95, 0xbd, 0xd5, 0x7c, 0x00, 0x3f,
  0x75, 0x08, 0xeb, 0x3d, 0x19, 0x29, 0x9c, 0xbe, 0x70, 0x56, 0xd5, 0x3c,
  0xce, 0x23, 0x6d, 0x3e, 0x0c, 0xdf, 0xdf, 0x3d, 0x98, 0x1d, 0xc0, 0x3e,
  0x0d, 0x0e, 0xa2, 0x3e, 0x9c, 0xb6, 0xa7, 0x3e, 0x63, 0xad, 0x1a, 0xbe,
  0xb6, 0x47, 0x21, 0xbe, 0x66, 0xa6, 0x94, 0xbe, 0xce, 0x60, 0xb3, 0xbe,
  0xe3, 0x3c, 0x34, 0xbc, 0x67, 0xd3, 0x4a, 0xbe, 0x16, 0xcf, 0x22, 0x3e,
  0xd8, 0x50, 0x0a, 0x3d, 0xbb, 0x3c, 0x59, 0xbe, 0x31, 0x20, 0x83, 0xbe,
  0x2f, 0x8c, 0x70, 0xbe, 0xd0, 0x06, 0xa8, 0xbd, 0x9d, 0x03, 0x38, 0xbe,
  0x82, 0x11, 0xda, 0xbd, 0x0c, 0x8d, 0xb1, 0xbd, 0x75, 0x37, 0x13, 0x3d,
  0x3a, 0x0f, 0x4b, 0x3e, 0x4d, 0x76, 0x09, 0x3b, 0x83, 0xf6, 0xab, 0xbe,
  0x0e, 0x73, 0xf6, 0xbc, 0x5a, 0xe0, 0x0b, 0xbe, 0x58, 0x76, 0xb5, 0xbe,
  0x0f, 0xd0, 0xc9, 0xbd, 0x25, 0xb2, 0x8a, 0xbe, 0xab, 0x62, 0xe4, 0x3d,
  0x6e, 0x4b, 0xa0, 0xbe, 0xff, 0x51, 0x93, 0x3e, 0x64, 0x90, 0x93, 0xbd,
  0x16, 0x8f, 0x9a, 0xbe, 0x39, 0x9c, 0x81, 0x3e, 0xca, 0x88, 0x9c, 0xbe,
  0xa6, 0xe5, 0x25, 0xbe, 0x38, 0xab, 0x8c, 0xbe, 0x2c, 0xa7, 0xf6, 0xbd,
  0x1a, 0x56, 0x59, 0x3e, 0x10, 0xcb, 0x2d, 0xbd, 0x84, 0xb7, 0x24, 0xbe,
  0xa7, 0x75, 0xaf, 0xbe, 0x6f, 0xe4, 0x88, 0x3e, 0x3b, 0xd4, 0xa0, 0xbb,
  0xd2, 0x92, 0x63, 0x3e, 0xe9, 0xca, 0x08, 0xbe, 0xc0, 0x2f, 0xcb, 0x3d,
  0xa8, 0xa4, 0x37, 0xbe, 0x27, 0xd5, 0x20, 0x3e, 0x9b, 0x23, 0x8a, 0xbe,
  0x20, 0x48, 0x49, 0x3d, 0xed, 0x32, 0xa2, 0x3e, 0x48, 0x0e, 0x22, 0xbe,
  0xe6, 0xb7, 0xda, 0xbd, 0x90, 0xb0, 0x50, 0x3d, 0xd7, 0xcd, 0xe4, 0x3d,
  0xba, 0x93, 0x92, 0xbe, 0xa2, 0x64, 0x07, 0xbe, 0xe0, 0x3e, 0xf4, 0x3e,
  0x17, 0x4e, 0x6f, 0xbe, 0xb0, 0x95, 0x99, 0x3e, 0x86, 0x08, 0x07, 0xbc,
  0x62, 0xfe, 0x7d, 0xbe, 0xc1, 0x9f, 0x7e, 0xbe, 0x32, 0x18, 0x5a, 0x3e,
  0x79, 0x47, 0x40, 0x3e, 0x1f, 0xd1, 0x9d, 0x3e, 0x65, 0x68, 0xe7, 0x3d,
  0xda, 0xd1, 0x97, 0x3e, 0x66, 0x5b, 0x89, 0x3e, 0xc5, 0xb4, 0x71, 0xbe,
  0xd2, 0xa5, 0x8e, 0xbe, 0x97, 0x75, 0x69, 0x3e, 0x08, 0x0d, 0xc2, 0x3d,
  0x8d, 0x73, 0x8a, 0x3e, 0x17, 0x34, 0x10, 0x3f, 0x1e, 0xee, 0x4e, 0xbe,
  0x3e, 0x72, 0x3d, 0xbe, 0x2c, 0x31, 0x3c, 0xbe, 0x88, 0x29, 0xc7, 0xbd,
  0x2d, 0xce, 0x8c, 0x3d, 0x98, 0x26, 0x3b, 0x3e, 0x19, 0x28, 0x3b, 0x3e,
  0x93, 0x1f, 0x08, 0x3b, 0xb9, 0xbd, 0xa3, 0xbd, 0xc2, 0x41, 0x21, 0x3e,
  0x00, 0xbd, 0xaf, 0xbb, 0xff, 0x3a, 0xd4, 0x3c, 0x50, 0x90, 0xa4, 0xbd,
  0xdb, 0x18, 0x62, 0xbe, 0x28, 0x91, 0xc7, 0x3e, 0x32, 0x42, 0xf0, 0x3e,
  0xe5, 0x04, 0xbc, 0x3e, 0x7f, 0x74, 0x02, 0xbe, 0xcb, 0xb4, 0xac, 0x3d,
  0x3a, 0xfa, 0x20, 0x3e, 0x1c, 0x30, 0x8e, 0xbe, 0x70, 0x72, 0x89, 0x3e,
  0x90, 0x54, 0x60, 0xbd, 0x37, 0xc4, 0xa3, 0xbe, 0xcf, 0x96, 0xe3, 0x3d,
  0x99, 0x1b, 0x96, 0x3e, 0x68, 0xad, 0x3f, 0x3d, 0x1e, 0x91, 0x6a, 0x3e,
  0x53, 0x38, 0x8c, 0x3e, 0xad, 0x43, 0xa1, 0xbe, 0x0f, 0x71, 0x82, 0x3e,
  0xfe, 0xbc, 0x03, 0xbe, 0xc0, 0xbc, 0xd4, 0x3d, 0x5e, 0x32, 0x05, 0xbe,
  0xc1, 0xf2, 0x53, 0xbe, 0xb4, 0x4a, 0x9d, 0xbe, 0xb3, 0xd7, 0xa0, 0xbe,
  0x30, 0xe2, 0xc5, 0x3c, 0x0a, 0x1c, 0x98, 0xbe, 0x90, 0x97, 0x53, 0x3d,
  0x90, 0x58, 0xba, 0x3d, 0x00, 0x5f, 0x9f, 0xbe, 0x50, 0x4d, 0xdb, 0x3d,
  0x13, 0xaa, 0x9b, 0xbe, 0x3a, 0x23, 0x37, 0x3e, 0x0d, 0xd9, 0xac, 0xbe,
  0xec, 0xa0, 0xda, 0x3d, 0x5b, 0x27, 0xa8, 0x3e, 0x74, 0x71, 0x9a, 0xbe,
  0xc0, 0x99, 0x3d, 0x3d, 0x78, 0xdf, 0x75, 0xbd, 0x02, 0x89, 0x61, 0x3e,
  0x3c, 0xd1, 0xac, 0xbd, 0xfc, 0xd5, 0xa5, 0xbd, 0xe0, 0xbb, 0xe2, 0xbd,
  0x58, 0x25, 0x91, 0xbe, 0x08, 0xe2, 0xb9, 0xbd, 0xf2, 0x74, 0xb1, 0xbe,
  0xaf, 0xbe, 0xa1, 0x3e, 0x9c, 0x22, 0x9b, 0xbe, 0x0c, 0xb1, 0xb8, 0x3d,
  0x4e, 0x96, 0x91, 0xbe, 0x28, 0x68, 0x30, 0xbd, 0xe3, 0x33, 0x7c, 0xbe,
  0x75, 0x07, 0xb1, 0xbe, 0x5e, 0x04, 0x4b, 0x3e, 0xcb, 0x0e, 0x87, 0xbe,
  0x86, 0x57, 0x46, 0x3e, 0x27, 0x2b, 0xea, 0xbd, 0x39, 0x46, 0xa5, 0x3e,
  0x60, 0x75, 0x6e, 0x3e, 0xe3, 0xd8, 0x4e, 0x3e, 0x8d, 0xef, 0x1b, 0x3e,
  0x44, 0xa1, 0x63, 0x3d, 0x18, 0xb0, 0x78, 0xbd, 0xd0, 0x46, 0x67, 0x3e,
  0x1e, 0x2c, 0x5c, 0x3e, 0xd9, 0x9c, 0xb2, 0x3e, 0x89, 0xae, 0x02, 0x3e,
  0xe0, 0x57, 0x4b, 0xbe, 0xcb, 0xb9, 0xba, 0x3e, 0x4b, 0xf9, 0x8a, 0xbe,
  0xb6, 0x26, 0x29, 0xbe, 0xf4, 0x90, 0xb7, 0xbd, 0x84, 0x34, 0x91, 0xbd,
  0x86, 0x08, 0x98, 0x3e, 0x1a, 0x07, 0x62, 0x3e, 0x7b, 0x31, 0xbb, 0xbb,
  0x9c, 0x6a, 0xba, 0x3e, 0xf9, 0x33, 0x93, 0x3e, 0xe5, 0x19, 0x9c, 0xbe,
  0xce, 0xe0, 0x43, 0x3e, 0xb8, 0x76, 0xad, 0xbe, 0xc7, 0xf2, 0x9f, 0x3e,
  0xc0, 0x75, 0x90, 0x3b, 0x72, 0x0e, 0xfd, 0x3d, 0xf0, 0x76, 0xde, 0xbc,
  0xb3, 0x53, 0x4b, 0xbe, 0x4b, 0xad, 0x66, 0xbe, 0xe5, 0xf0, 0x0c, 0xbe,
  0x6a, 0x64, 0x33, 0x3e, 0xca, 0xa8, 0xa4, 0x3e, 0x0f, 0x39, 0x68, 0x3d,
  0xa3, 0x5d, 0xd1, 0x3e, 0x57, 0x85, 0x1a, 0x3e, 0x4d, 0xa7, 0xde, 0x3e,
  0xb7, 0x78, 0x4a, 0xbe, 0xe7, 0x7a, 0x10, 0xbe, 0x1e, 0x54, 0x8c, 0xbe,
  0x0c, 0x4c, 0xa4, 0x3e, 0xfa, 0xd1, 0x65, 0x3d, 0x1c, 0x44, 0x85, 0xbc,
  0x15, 0xad, 0x9d, 0x3e, 0x26, 0x95, 0xa7, 0x3e, 0x18, 0x46, 0x16, 0xbe,
  0xb3, 0x22, 0xa1, 0x3e, 0xb9, 0xbb, 0x7b, 0xbe, 0xc0, 0x99, 0x04, 0x3e,
  0x85, 0x6b, 0x3e, 0xbe, 0x9d, 0x44, 0x1e, 0x3d, 0x3a, 0xd6, 0xd3, 0x3e,
  0xc4, 0x32, 0x02, 0xbe, 0xba, 0xf0, 0x91, 0xbe, 0xe0, 0xb0, 0xde, 0x3c,
  0xd2, 0x04, 0x70, 0xbc, 0xe0, 0x81, 0x4a, 0xbd, 0xdb, 0xc1, 0x4a, 0xbe,
  0xf2, 0x2e, 0xf0, 0x3d, 0xe7, 0xcf, 0x80, 0x3e, 0x80, 0x79, 0x0f, 0xbd,
  0x15, 0x59, 0xa7, 0x3e, 0x70, 0x2f, 0xb6, 0x3d, 0xbf, 0x3b, 0xf8, 0x3b,
  0x36, 0x1b, 0x7e, 0x3e, 0x23, 0xf9, 0xa8, 0xbe, 0xfd, 0xb4, 0xc7, 0xbd,
  0x54, 0x6a, 0x48, 0x3e, 0xd4, 0x9c, 0x95, 0x3e, 0xe6, 0x37, 0x1d, 0x3e,
  0x99, 0x24, 0x70, 0x3e, 0x4c, 0x35, 0xb0, 0xbd, 0xa1, 0xac, 0xd0, 0xbe,
  0x6a, 0x7f, 0x5c, 0xbd, 0xab, 0x9b, 0xc3, 0x3e, 0x24, 0x00, 0x3a, 0x3e,
  0x26, 0xe6, 0x06, 0x3e, 0xce, 0x39, 0x63, 0x3e, 0x5e, 0x42, 0x3b, 0x3e,
  0x62, 0x10, 0x6d, 0x3e, 0xaa, 0x59, 0xc3, 0x3e, 0xac, 0x64, 0x83, 0xbd,
  0xf1, 0x29, 0x91, 0xbe, 0x8d, 0x96, 0x85, 0xbe, 0xf7, 0xac, 0xdc, 0x3e,
  0x00, 0x6a, 0x71, 0x3d, 0x29, 0x06, 0xb4, 0xbe, 0x80, 0x45, 0x6d, 0x3e,
  0x13, 0xd1, 0xae, 0x3e, 0x90, 0xfd, 0xbf, 0xbc, 0x7c, 0xa0, 0x57, 0xbe,
  0x9f, 0x16, 0x9f, 0x3e, 0x4a, 0xf9, 0x71, 0x3e, 0x18, 0xfd, 0x5a, 0xbd,
  0x89, 0x47, 0xa0, 0x3e, 0x27, 0xae, 0xab, 0x3e, 0x19, 0xd4, 0x86, 0xbe,
  0x17, 0xc4, 0x09, 0x3e, 0x3a, 0x9a, 0xa9, 0x3e, 0x5a, 0xe5, 0xaa, 0x3e,
  0x61, 0x1c, 0x01, 0xbe, 0x4d, 0x7f, 0x9c, 0xbe, 0x54, 0xaa, 0xa9, 0x3a,
  0xc0, 0x3b, 0x67, 0xbc, 0x33, 0xf0, 0xb7, 0x3e, 0xec, 0xee, 0xae, 0xbd,
  0xc6, 0x0d, 0x6c, 0x3e, 0x6c, 0x34, 0x8c, 0x3e, 0x85, 0x2b, 0xcc, 0xbd,
  0x32, 0x86, 0xb5, 0xbd, 0xc9, 0xa6, 0x94, 0xbe, 0x3c, 0x5a, 0xa8, 0xbe,
  0xae, 0xc5, 0x37, 0x3e, 0xcc, 0xd4, 0xb5, 0xbd, 0xc8, 0x78, 0xbf, 0x3e,
  0xdc, 0xec, 0xf8, 0x3c, 0xd5, 0xd3, 0xd9, 0x3d, 0x00, 0xb2, 0x69, 0xbd,
  0xd8, 0x94, 0x12, 0x3d, 0x04, 0x09, 0x4b, 0x3e, 0xce, 0x01, 0x11, 0x3e,
  0x56, 0x9f, 0x7e, 0x3e, 0x3d, 0x4f, 0xf9, 0x3e, 0x0e, 0xdf, 0x3d, 0x3e,
  0x31, 0x91, 0x32, 0xbe, 0x4f, 0x0c, 0xb3, 0x3e, 0xad, 0x49, 0xb2, 0x3e,
  0xeb, 0x49, 0xe9, 0xbd, 0xcb, 0x47, 0x20, 0xbe, 0xae, 0xbe, 0x00, 0x3e,
  0xb0, 0x9d, 0x4e, 0xbe, 0x0a, 0xb9, 0x30, 0xbd, 0x97, 0x7d, 0x83, 0xbb,
  0x58, 0x90, 0x38, 0xbd, 0x96, 0x93, 0x98, 0x3e, 0x20, 0x17, 0xbc, 0x3c,
  0x66, 0x00, 0x2a, 0x3e, 0xf9, 0xb1, 0xa5, 0xbe, 0xf4, 0x76, 0x21, 0x3e,
  0xaa, 0x6b, 0x72, 0x3e, 0x7a, 0x09, 0x02, 0xbe, 0x51, 0xc5, 0x73, 0x3d,
  0x80, 0xdb, 0x9c, 0xbe, 0x05, 0xee, 0x69, 0xbe, 0x09, 0x1e, 0x31, 0x3e,
  0x28, 0x95, 0x6d, 0x3d, 0x5c, 0x5a, 0x95, 0xbe, 0x49, 0x24, 0x97, 0x3d,
  0x4d, 0x1f, 0xaf, 0xbe, 0x28, 0x0a, 0x0d, 0x3e, 0x2e, 0xcf, 0x03, 0xbe,
  0xbd, 0x54, 0xbd, 0x3e, 0xee, 0x23, 0xb3, 0xbe, 0x3e, 0xcc, 0x31, 0xbe,
  0x01, 0x32, 0xc8, 0xbe, 0x52, 0xea, 0x9f, 0xbe, 0x37, 0x4c, 0xa3, 0x3e,
  0x34, 0x59, 0xad, 0xbe, 0x00, 0x42, 0x4e, 0xba, 0x00, 0xf5, 0x4f, 0xbd,
  0x54, 0xb3, 0x90, 0xbd, 0x20, 0x5b, 0x6d, 0x3c, 0x6a, 0x33, 0x1c, 0x3e,
  0xc2, 0x96, 0x6f, 0x3e, 0x10, 0x58, 0xb0, 0xbe, 0x31, 0x3c, 0x24, 0xbe,
  0x55, 0x0a, 0x97, 0xbe, 0x78, 0xc0, 0x13, 0xbd, 0x8a, 0xe9, 0xed, 0xbd,
  0x42, 0x7d, 0x91, 0xbe, 0x75, 0x44, 0x87, 0x3e, 0xb6, 0x39, 0x8c, 0xbe,
  0xaf, 0x9f, 0xa4, 0x3e, 0xb6, 0xaa, 0xb1, 0xbe, 0x77, 0x2e, 0x8e, 0xbe,
  0x07, 0x53, 0xb3, 0x3e, 0x7c, 0x1a, 0x11, 0x3e, 0xf4, 0x68, 0xf6, 0xbd,
  0x2d, 0x25, 0x96, 0x3e, 0xf8, 0x0c, 0x4d, 0x3d, 0xcb, 0xec, 0x39, 0xbe,
  0x08, 0x43, 0x2a, 0xbd, 0x32, 0x62, 0x20, 0x3e, 0xde, 0x09, 0x8d, 0xbe,
  0xd9, 0x93, 0xad, 0x3e, 0x86, 0x64, 0x3e, 0x3e, 0x5f, 0x11, 0x2c, 0xbe,
  0xd6, 0x76, 0x73, 0x3e, 0x3c, 0xb2, 0xd7, 0x3d, 0x21, 0xe4, 0x9a, 0xbe,
  0x39, 0xf8, 0x83, 0x3e, 0x69, 0x92, 0xab, 0x3e, 0xe9, 0x2b, 0x8a, 0xbe,
  0x00, 0x60, 0x38, 0xba, 0x68, 0xfa, 0x86, 0x3e, 0xe5, 0x03, 0x3c, 0xbe,
  0x30, 0x59, 0x96, 0xbe, 0x18, 0x91, 0x8a, 0xbe, 0x81, 0x2b, 0x36, 0x3e,
  0x54, 0xe2, 0xdd, 0x3d, 0xad, 0x6d, 0x43, 0xbd, 0x55, 0x31, 0x3e, 0xbe,
  0x03, 0x14, 0xff, 0x3d, 0xc3, 0xcb, 0x76, 0xbe, 0x91, 0xf2, 0xa1, 0x3e,
  0x88, 0xec, 0x38, 0xbe, 0xd0, 0xe5, 0xcf, 0x3d, 0x03, 0x20, 0x90, 0x3e,
  0x24, 0x93, 0xdc, 0x3d, 0x78, 0x0e, 0xfd, 0x3d, 0xb0, 0x36, 0x80, 0xbc,
  0x22, 0xd4, 0x6e, 0xbe, 0xa5, 0x25, 0x8b, 0xbd, 0xfa, 0x37, 0x51, 0x3e,
  0x9d, 0x6d, 0x3b, 0xbe, 0x62, 0x46, 0x56, 0xbe, 0xae, 0x39, 0x01, 0xbe,
  0x88, 0x44, 0xe6, 0xbd, 0xf3, 0x4a, 0xad, 0xbe, 0xe2, 0xa2, 0x34, 0xbe,
  0x17, 0xc5, 0x49, 0xbe, 0x78, 0xf2, 0x1c, 0xbe, 0x8d, 0x4d, 0x85, 0x3e,
  0xd1, 0x72, 0x0f, 0x3e, 0xf6, 0xe2, 0x44, 0xbe, 0xd5, 0x44, 0x2d, 0xbe,
  0xa6, 0x5e, 0x62, 0x3e, 0x1e, 0xda, 0x54, 0xbe, 0xc3, 0x4e, 0xb8, 0x3e,
  0x50, 0x01, 0xa6, 0x3c, 0x15, 0x23, 0x01, 0xbf, 0x99, 0xff, 0x9a, 0x3e,
  0xa2, 0xd1, 0x92, 0xbe, 0xc5, 0xea, 0x77, 0x3e, 0x26, 0x7f, 0x6f, 0xbd,
  0x93, 0xf3, 0x8a, 0x3e, 0x33, 0x6f, 0x08, 0xbe, 0xa5, 0xba, 0xb9, 0x3d,
  0x30, 0x17, 0x2d, 0xbd, 0x70, 0xb6, 0x98, 0xbd, 0xa6, 0x47, 0x8a, 0x3e,
  0x9d, 0x83, 0xae, 0xbe, 0x0a, 0x57, 0xa3, 0xbe, 0xba, 0x47, 0xfe, 0x3e,
  0xfe, 0xea, 0x8c, 0x3e, 0xe7, 0x5f, 0x91, 0x3e, 0x08, 0x95, 0x98, 0xbe,
  0xb2, 0x29, 0x9f, 0xbe, 0x0f, 0x43, 0x60, 0xbe, 0x50, 0xa3, 0x84, 0x3d,
  0x4d, 0x3a, 0x33, 0xbd, 0xb0, 0xd5, 0xb6, 0xbc, 0x06, 0xcb, 0x74, 0x3e,
  0x5e, 0xda, 0xff, 0xff, 0x04, 0x00, 0x00, 0x00, 0x00, 0x20, 0x00, 0x00,
  0x00, 0x3a, 0xfc, 0xbc, 0x38, 0x22, 0xb5, 0xbd, 0xf0, 0x40, 0x30, 0xbe,
  0xc0, 0x7a, 0x2d, 0xbd, 0x28, 0xc7, 0x03, 0xbe, 0x4c, 0xe1, 0x39, 0xbe,
  0xd0, 0x9f, 0xd3, 0xbd, 0xa0, 0x58, 0xc6, 0xbd, 0xec, 0x75, 0x62, 0xbe,
  0x00, 0xc4, 0xb6, 0x3d, 0x28, 0x8e, 0xa1, 0xbd, 0x18, 0xd7, 0xbf, 0xbd,
  0x04, 0x0a, 0x23, 0xbe, 0x78, 0xce, 0x8f, 0x3d, 0xc0, 0x59, 0x28, 0x3d,
  0x00, 0xe6, 0xf2, 0x3a, 0x28, 0xc4, 0x8e, 0xbd, 0xbc, 0xba, 0x70, 0xbe,
  0x00, 0xa0, 0xcc, 0x3d, 0x94, 0x36, 0x45, 0x3e, 0xf8, 0xb1, 0xc8, 0x3d,
  0xc0, 0x55, 0x7e, 0x3e, 0x70, 0xfb, 0x72, 0x3d, 0x44, 0x0c, 0x6a, 0xbe,
  0x90, 0x4d, 0x7d, 0xbe, 0x30, 0x20, 0x2f, 0xbe, 0x54, 0xf3, 0x4c, 0x3e,
  0xe0, 0x74, 0xdd, 0xbd, 0xd8, 0x2b, 0xba, 0x3d, 0xb4, 0x24, 0x42, 0xbe,
  0x50, 0x23, 0xc1, 0x3d, 0xb8, 0xad, 0x0f, 0x3e, 0xa4, 0x74, 0x7f, 0x3e,
  0xb8, 0xe1, 0x28, 0xbe, 0x84, 0xd3, 0x1c, 0x3e, 0x78, 0x2c, 0x6c, 0xbe,
  0x88, 0x3f, 0x51, 0x3e, 0x20, 0xcf, 0xa8, 0xbd, 0x78, 0x17, 0x1f, 0xbe,
  0xbc, 0x7b, 0x1d, 0xbe, 0x80, 0x2c, 0x26, 0xbe, 0x78, 0x71, 0xfd, 0x3d,
  0x20, 0x27, 0xe1, 0x3d, 0x78, 0xcb, 0x19, 0xbe, 0x24, 0x64, 0x05, 0xbe,
  0xf8, 0xfc, 0x59, 0xbe, 0x94, 0xcb, 0x10, 0x3e, 0xec, 0xcc, 0x2e, 0x3e,
  0x38, 0x6c, 0x8d, 0xbd, 0x38, 0xb3, 0x80, 0xbd, 0x60, 0x8a, 0x95, 0xbd,
  0x54, 0x3b, 0x45, 0x3e, 0x00, 0xbc, 0x23, 0x3a, 0xe4, 0x44, 0x56, 0x3e,
  0x18, 0x1d, 0x64, 0x3e, 0x04, 0x3d, 0x32, 0xbe, 0xf0, 0xe2, 0x4a, 0x3e,
  0x90, 0xad, 0x5e, 0xbe, 0x20, 0x9a, 0xd7, 0x3d, 0xb0, 0x4c, 0x29, 0x3d,
  0xc0, 0x7f, 0x2c, 0x3d, 0x4c, 0x01, 0x6a, 0x3e, 0x14, 0x9d, 0x43, 0x3e,
  0xe4, 0xe7, 0x1a, 0xbe, 0x7c, 0x9c, 0x5d, 0xbe, 0xe8, 0x4f, 0x87, 0xbd,
  0xa0, 0x51, 0x7c, 0x3e, 0x98, 0x34, 0x88, 0x3d, 0xf4, 0x69, 0x2b, 0xbe,
  0x80, 0x99, 0xc3, 0xbb, 0xa0, 0xd2, 0x6d, 0x3e, 0x30, 0x07, 0x87, 0x3d,
  0xbc, 0x39, 0x0f, 0x3e, 0x50, 0x50, 0xa6, 0x3d, 0x40, 0x09, 0x76, 0xbe,
  0x40, 0x7f, 0x5e, 0x3e, 0x40, 0x41, 0x4d, 0x3d, 0x48, 0xdb, 0x0c, 0x3e,
  0xfc, 0x3d, 0x29, 0xbe, 0xac, 0xa8, 0x76, 0x3e, 0x58, 0x92, 0x6f, 0x3e,
  0xe4, 0xd3, 0x00, 0x3e, 0xb0, 0x40, 0x45, 0x3d, 0xa0, 0x32, 0x34, 0xbe,
  0xc8, 0x44, 0x8d, 0xbd, 0xb0, 0xca, 0x67, 0x3e, 0x48, 0xb8, 0x01, 0xbe,
  0x88, 0x07, 0x71, 0xbe, 0x50, 0x86, 0x68, 0xbd, 0xe0, 0x74, 0xcb, 0xbd,
  0x80, 0x88, 0xc1, 0xbd, 0x60, 0x90, 0x17, 0xbd, 0xa0, 0x5c, 0xa4, 0x3c,
  0x00, 0x66, 0xe5, 0xba, 0xa0, 0xe1, 0xcb, 0xbd, 0x60, 0xb3, 0x67, 0x3d,
  0xf8, 0xf5, 0xd1, 0x3d, 0x58, 0x6e, 0x79, 0x3e, 0x24, 0x88, 0x42, 0x3e,
  0xe0, 0xe5, 0xe3, 0xbd, 0xd0, 0x25, 0xe7, 0xbd, 0x0c, 0x65, 0x37, 0xbe,
  0x58, 0xe2, 0x8a, 0xbd, 0x68, 0x14, 0x7d, 0x3e, 0xe4, 0x4f, 0x20, 0xbe,
  0x00, 0x44, 0xc0, 0x3a, 0x50, 0xa2, 0xd3, 0x3d, 0x10, 0xeb, 0x26, 0xbd,
  0xc4, 0x29, 0x21, 0x3e, 0x08, 0x72, 0xee, 0x3d, 0x74, 0x66, 0x5e, 0x3e,
  0x60, 0xd2, 0xbd, 0x3d, 0x54, 0x5d, 0x4e, 0x3e, 0x00, 0x84, 0x84, 0xbc,
  0x88, 0x67, 0xcc, 0x3d, 0x80, 0xdf, 0x55, 0xbe, 0xf4, 0xc1, 0x36, 0xbe,
  0xa0, 0x6c, 0x29, 0x3e, 0x2c, 0x0d, 0x66, 0xbe, 0xd0, 0xf2, 0xcc, 0xbd,
  0x88, 0x49, 0x9c, 0x3d, 0xe0, 0x0a, 0x23, 0x3e, 0xc0, 0x15, 0x1d, 0x3d,
  0xf4, 0xb4, 0x1f, 0x3e, 0x40, 0x35, 0xaa, 0x3d, 0xb4, 0xa6, 0x7f, 0xbe,
  0x20, 0xfe, 0xa1, 0xbd, 0xb8, 0x52, 0x8a, 0x3d, 0x48, 0xa2, 0xb7, 0x3d,
  0xfe, 0x42, 0xb1, 0x3e, 0xf7, 0x41, 0x8d, 0x3e, 0x0d, 0x35, 0xc4, 0xbb,
  0x52, 0xd9, 0xde, 0xbd, 0x5d, 0x74, 0x20, 0x3e, 0x5e, 0xae, 0x8f, 0x3e,
  0xf4, 0x5e, 0x84, 0x3e, 0xa0, 0x74, 0x2f, 0x3e, 0x38, 0x0d, 0xa9, 0xbd,
  0xa0, 0xe3, 0x46, 0x3d, 0xe0, 0xb8, 0x19, 0xbe, 0x64, 0x63, 0x1f, 0xbe,
  0x74, 0xcf, 0x75, 0xbe, 0xac, 0x64, 0x4e, 0x3e, 0xf0, 0x13, 0x59, 0x3d,
  0x94, 0xf1, 0x79, 0xbe, 0xac, 0x4c, 0x70, 0xbe, 0xd0, 0xbd, 0xfb, 0xbd,
  0x8c, 0xcf, 0x1e, 0x3e, 0x7a, 0xfc, 0x9d, 0x3e, 0x41, 0xc0, 0x75, 0x3e,
  0x44, 0x1b, 0x1f, 0x3e, 0x94, 0x7b, 0x62, 0x3e, 0x58, 0xc1, 0xb3, 0x3d,
  0xcc, 0x07, 0x5f, 0x3e, 0x00, 0x3a, 0x62, 0x3c, 0xd0, 0xb4, 0xbd, 0x3d,
  0x70, 0x69, 0xa9, 0x3e, 0xa1, 0xad, 0x34, 0x3d, 0xac, 0x9d, 0x7c, 0x3e,
  0xb0, 0xd6, 0x11, 0x3d, 0xe4, 0x07, 0x10, 0xbe, 0x44, 0x42, 0x70, 0x3e,
  0x88, 0x77, 0x11, 0xbe, 0xe2, 0x27, 0xd9, 0xbd, 0x68, 0x0a, 0xbb, 0xbd,
  0x25, 0xd9, 0x2f, 0x3d, 0xf0, 0xe2, 0x1a, 0xbe, 0xd8, 0x32, 0x53, 0x3e,
  0x00, 0x09, 0x20, 0xbe, 0xc6, 0x03, 0xb7, 0xbe, 0x38, 0x4a, 0xbd, 0x3d,
  0xf2, 0x74, 0xb1, 0x3e, 0xc0, 0x72, 0xac, 0xbc, 0xc4, 0x00, 0x43, 0xbe,
  0x70, 0x0f, 0x23, 0x3d, 0x8a, 0x8c, 0xa8, 0x3d, 0xc0, 0xab, 0x41, 0x3e,
  0xce, 0xb0, 0xb2, 0x3d, 0x30, 0x80, 0xc4, 0xbd, 0xc1, 0xfe, 0xb3, 0x3e,
  0x18, 0x25, 0x9d, 0xbd, 0xf0, 0x27, 0x61, 0xbe, 0xb7, 0x10, 0xbd, 0x3d,
  0x8b, 0x74, 0x10, 0xbe, 0x00, 0x80, 0x5a, 0x39, 0x50, 0x15, 0x93, 0x3d,
  0xdb, 0x38, 0x8c, 0xbd, 0x49, 0x93, 0x7b, 0x3e, 0xb0, 0xa5, 0x3e, 0xbe,
  0x19, 0xeb, 0xa4, 0x3e, 0x0b, 0x2f, 0x89, 0x3e, 0x9a, 0x04, 0x19, 0xbe,
  0x70, 0x51, 0x9f, 0x3d, 0x4d, 0xd9, 0xd4, 0xbd, 0x45, 0x84, 0xb6, 0x3c,
  0x6f, 0xd4, 0x5b, 0x3e, 0xe0, 0xde, 0x7f, 0xbd, 0x9d, 0x4a, 0x4c, 0xbe,
  0x28, 0xb7, 0x45, 0x3e, 0xdb, 0x10, 0x9f, 0x3d, 0xea, 0x4a, 0x44, 0xbe,
  0xf0, 0x6b, 0x6a, 0xbe, 0x1c, 0x12, 0x28, 0x3e, 0x08, 0x4f, 0x81, 0x3d,
  0xb0, 0x37, 0x0f, 0x3e, 0xfc, 0xb8, 0x75, 0x3e, 0x28, 0x58, 0x43, 0xbe,
  0xe4, 0x3b, 0x1c, 0xbe, 0x3c, 0xcb, 0x3f, 0x3e, 0xc0, 0x32, 0x55, 0xbd,
  0x78, 0x4e, 0xd4, 0x3d, 0x70, 0x20, 0x3e, 0xbd, 0x08, 0xc2, 0x2e, 0xbe,
  0xaf, 0x89, 0x47, 0x3e, 0x34, 0x7f, 0x2d, 0x3e, 0xaa, 0xcb, 0xd0, 0xbd,
  0x9c, 0xbc, 0x20, 0x3e, 0xa0, 0xe4, 0x9e, 0x3d, 0xa0, 0x15, 0x0e, 0x3e,
  0xe8, 0x6c, 0xa3, 0xbd, 0x50, 0x14, 0x31, 0x3e, 0x6c, 0x5b, 0x56, 0xbe,
  0xf0, 0x59, 0xcd, 0x3d, 0xd0, 0x01, 0xe6, 0x3d, 0x80, 0xd1, 0x73, 0x3d,
  0xb0, 0x32, 0x9e, 0x3d, 0x2c, 0x41, 0x7c, 0x3e, 0x3f, 0x3a, 0x8b, 0xbe,
  0x20, 0x37, 0x09, 0xbe, 0x47, 0x0c, 0x4e, 0x3c, 0xf8, 0xf0, 0x9a, 0xbd,
  0x40, 0x8d, 0x5e, 0xbe, 0xd8, 0x20, 0x6f, 0x3e, 0x60, 0x41, 0xbd, 0xbd,
  0x04, 0x69, 0x6e, 0xbe, 0x3d, 0x3f, 0x72, 0xbe, 0xe4, 0xce, 0x46, 0x3e,
  0x58, 0xfc, 0xed, 0x3d, 0xf0, 0x53, 0x0a, 0xbe, 0x9c, 0xc8, 0xc8, 0x3d,
  0x18, 0x4a, 0x01, 0xbe, 0xc5, 0x84, 0x49, 0x3e, 0x20, 0x1c, 0x8b, 0x3d,
  0x51, 0xf4, 0x1f, 0x3e, 0x30, 0x74, 0x49, 0x3e, 0xd0, 0x0c, 0x28, 0x3e,
  0x7e, 0x13, 0xf5, 0x3d, 0x76, 0x46, 0x0b, 0xbd, 0x68, 0x2e, 0xf7, 0x3d,
  0x20, 0xad, 0xc9, 0x3d, 0xeb, 0xb6, 0x35, 0x3e, 0x6d, 0x79, 0x4a, 0x3c,
  0xd8, 0x8a, 0xba, 0xbd, 0xc0, 0xaa, 0xb0, 0x3d, 0x03, 0xb1, 0x45, 0xbe,
  0xbc, 0x41, 0x6b, 0x3e, 0xd0, 0x44, 0x66, 0x3d, 0xa8, 0x1f, 0xfb, 0xbd,
  0xfb, 0x59, 0x3c, 0x3d, 0xb2, 0x56, 0x25, 0x3e, 0x03, 0xae, 0x56, 0x3d,
  0x7f, 0xca, 0x3a, 0xbe, 0xb8, 0x0d, 0x72, 0x3e, 0xf5, 0xbf, 0x42, 0x3d,
  0x81, 0x47, 0x0f, 0xbe, 0x5c, 0xfb, 0x18, 0x3e, 0x04, 0xc2, 0x12, 0xbe,
  0xf8, 0x31, 0xa6, 0x3d, 0xb8, 0xf5, 0x1d, 0xbe, 0x00, 0xf0, 0x72, 0xbb,
  0x18, 0x12, 0x2b, 0x3e, 0xfc, 0x25, 0x01, 0xbe, 0xa5, 0x6d, 0xc8, 0xbc,
  0xd0, 0xf1, 0xaa, 0x3d, 0x08, 0x1d, 0xce, 0xbd, 0x60, 0x88, 0x6b, 0xbe,
  0xcd, 0xfb, 0x2b, 0xbe, 0xba, 0xbf, 0x43, 0x3e, 0x0c, 0xec, 0x46, 0x3e,
  0xf5, 0x63, 0x7d, 0xbe, 0xc0, 0x8b, 0x66, 0x3d, 0x60, 0xa0, 0xe4, 0x3c,
  0x00, 0xc6, 0x17, 0x3b, 0xf8, 0x7e, 0x33, 0xbe, 0x4f, 0x8e, 0x2d, 0x3e,
  0x33, 0x5c, 0x43, 0x3c, 0xa0, 0x35, 0xa0, 0xbc, 0x08, 0x1f, 0xa0, 0xbd,
  0x10, 0x13, 0xb4, 0x3d, 0x08, 0x88, 0xd9, 0x3d, 0x88, 0x8e, 0xac, 0x3d,
  0xa8, 0x48, 0xc5, 0x3d, 0xa0, 0x36, 0xd6, 0x3d, 0x6e, 0xc8, 0xd5, 0xba,
  0xd0, 0x7a, 0x0c, 0x3e, 0x3c, 0xe0, 0x74, 0xbe, 0x84, 0x6b, 0x33, 0x3e,
  0x20, 0x41, 0x82, 0xbe, 0x78, 0x14, 0x4e, 0x3e, 0x3b, 0x27, 0x95, 0xbd,
  0x20, 0x36, 0xc1, 0xbd, 0xe0, 0x6f, 0xa6, 0xbc, 0x80, 0x9b, 0x98, 0x3c,
  0x40, 0x20, 0xfc, 0xbc, 0x00, 0xae, 0x25, 0x3b, 0xf4, 0x89, 0x51, 0x3e,
  0xc8, 0x8b, 0xaf, 0xbd, 0x0f, 0x85, 0xe1, 0xbd, 0x04, 0x47, 0x19, 0xbe,
  0xd0, 0x34, 0x47, 0x3e, 0x43, 0xa8, 0xe5, 0xbb, 0xde, 0x7e, 0xf8, 0xbd,
  0xa0, 0x0d, 0x80, 0xbc, 0xe0, 0xf0, 0x61, 0xbd, 0xd6, 0x55, 0xda, 0x3d,
  0x3a, 0x60, 0x6e, 0xbd, 0xfc, 0x57, 0x0c, 0x3e, 0xc2, 0xb3, 0x7c, 0xbe,
  0x9b, 0x71, 0x19, 0xbe, 0x0e, 0x71, 0xc4, 0x3c, 0x70, 0xa0, 0x73, 0x3d,
  0x13, 0x6d, 0x68, 0x3e, 0x49, 0xef, 0xf3, 0xbd, 0x79, 0xfe, 0x7c, 0xbd,
  0xe2, 0xdc, 0xa5, 0xbd, 0x2f, 0x32, 0xa2, 0xbd, 0x6a, 0xca, 0xf1, 0xbc,
  0xf4, 0x5f, 0xab, 0x3e, 0x2a, 0x2a, 0xcd, 0x3d, 0xe0, 0xa8, 0xb8, 0x3c,
  0x9c, 0x74, 0x02, 0x3e, 0x80, 0x65, 0xc4, 0xbb, 0xb0, 0x9d, 0xb9, 0xbd,
  0x68, 0x7e, 0x92, 0x3d, 0x00, 0x69, 0x2a, 0xbc, 0xac, 0xf2, 0x49, 0x3e,
  0xae, 0x58, 0xbc, 0x3d, 0x40, 0x4a, 0x04, 0x3c, 0x90, 0x93, 0xa6, 0xbd,
  0xb0, 0xc6, 0x08, 0x3d, 0x8e, 0x60, 0x12, 0x3f, 0x42, 0x59, 0xb8, 0xbd,
  0xec, 0xe7, 0x71, 0xbe, 0x76, 0x7e, 0xb3, 0x3e, 0x24, 0xff, 0x31, 0x3e,
  0xd0, 0x56, 0xb3, 0x3d, 0xf8, 0xcd, 0xeb, 0x3d, 0x00, 0xab, 0x9c, 0x3b,
  0x6e, 0x3d, 0x8d, 0x3e, 0xf7, 0x38, 0x1c, 0x3e, 0xe0, 0x1c, 0xce, 0x3d,
  0x40, 0x5f, 0xae, 0x3c, 0x34, 0x33, 0x48, 0xbe, 0x10, 0xf3, 0x85, 0xbd,
  0xc4, 0x1d, 0x3c, 0xbe, 0xf8, 0x03, 0x01, 0x3c, 0x44, 0xad, 0x17, 0xbe,
  0xd2, 0x83, 0x83, 0x3e, 0x90, 0xee, 0x15, 0x3e, 0x48, 0x88, 0x01, 0xbe,
  0x9c, 0xa5, 0x0b, 0xbe, 0x29, 0x3d, 0x51, 0xbe, 0x0c, 0xde, 0x27, 0x3e,
  0xb0, 0x96, 0xe3, 0x3d, 0x50, 0xa3, 0x80, 0x3d, 0xe0, 0x43, 0x9d, 0x3d,
  0x4c, 0x4c, 0x4d, 0xbe, 0xab, 0x41, 0x34, 0xbd, 0xb0, 0x55, 0x03, 0x3e,
  0x33, 0x7a, 0x33, 0x3e, 0x98, 0xdf, 0x52, 0x3e, 0x21, 0xdf, 0xa1, 0x3e,
  0x98, 0x15, 0x63, 0xbe, 0xf0, 0xf7, 0x5e, 0x3d, 0x2d, 0x65, 0x14, 0x3e,
  0x72, 0x84, 0xfd, 0x3d, 0x30, 0x5a, 0x58, 0xbd, 0x9c, 0x5c, 0x15, 0xbe,
  0xc0, 0x6e, 0x55, 0x3a, 0x7f, 0x90, 0xa8, 0x3d, 0xf4, 0xfd, 0x59, 0xbe,
  0xfc, 0x2b, 0x44, 0x3e, 0xc8, 0xd8, 0x57, 0x3e, 0xd0, 0xc6, 0x17, 0xbe,
  0xe8, 0x32, 0x6e, 0xbe, 0x28, 0xe0, 0x85, 0xbe, 0x15, 0x94, 0xe1, 0x3d,
  0xf5, 0xda, 0xb5, 0xbd, 0xf8, 0x4a, 0xbc, 0xbd, 0x56, 0x17, 0xac, 0xbd,
  0x90, 0xe6, 0x19, 0xbe, 0x4c, 0xd4, 0x9e, 0x3c, 0x46, 0xe2, 0xce, 0x3c,
  0x70, 0xf8, 0x51, 0x3e, 0x28, 0x5b, 0xb9, 0xbd, 0x50, 0x34, 0xe4, 0xbd,
  0xd0, 0x58, 0xc5, 0xbd, 0x08, 0xad, 0x6b, 0xbe, 0xe0, 0x36, 0x48, 0x3e,
  0x58, 0xa5, 0x13, 0xbe, 0x66, 0x80, 0xa5, 0x3c, 0x40, 0x55, 0x19, 0xbe,
  0x94, 0x85, 0x35, 0xbe, 0xa0, 0x52, 0x32, 0x3d, 0x89, 0x20, 0x16, 0x3e,
  0x9f, 0x18, 0x6a, 0x3d, 0xa8, 0xb4, 0xc0, 0x3d, 0x3c, 0x90, 0xe3, 0xbb,
  0x60, 0x6d, 0x22, 0xbd, 0x88, 0x1b, 0x74, 0xbe, 0x30, 0xdb, 0x04, 0x3e,
  0xd8, 0x94, 0x0a, 0xbe, 0x5f, 0xf2, 0x06, 0xbc, 0x3a, 0x60, 0x2b, 0xbd,
  0x90, 0x8b, 0x95, 0xbd, 0x58, 0x27, 0x75, 0xbe, 0xf0, 0x2c, 0xf8, 0x3d,
  0x20, 0x98, 0x75, 0x3d, 0x40, 0x7f, 0x99, 0x3d, 0x31, 0xde, 0x34, 0x3e,
  0x2c, 0xa0, 0x1f, 0x3e, 0x46, 0x13, 0x53, 0xbe, 0x68, 0x23, 0x1e, 0xbe,
  0xf8, 0xa5, 0xcb, 0x3d, 0x4c, 0x22, 0x78, 0x3e, 0x5e, 0x17, 0xf7, 0x3d,
  0xf8, 0xcb, 0xca, 0x3d, 0xa9, 0xca, 0x15, 0x3e, 0x80, 0x64, 0x0f, 0x3c,
  0x70, 0x6a, 0x67, 0xbe, 0x00, 0xa4, 0x82, 0xbb, 0xc4, 0xd4, 0x89, 0x3d,
  0xa0, 0x37, 0x74, 0xbe, 0xea, 0xf0, 0xf1, 0x3d, 0xac, 0x56, 0x22, 0xbe,
  0x48, 0x55, 0x23, 0xbd, 0xf0, 0xba, 0xa4, 0xbd, 0xc0, 0xe6, 0x52, 0xbe,
  0x49, 0xee, 0x79, 0xbe, 0xb8, 0x44, 0x76, 0xbe, 0xe0, 0x87, 0xd7, 0xbd,
  0x70, 0x20, 0x13, 0xbd, 0x41, 0x96, 0x1c, 0x3c, 0x5d, 0x4b, 0xd6, 0xbc,
  0x48, 0xc0, 0x95, 0x3d, 0x26, 0xbd, 0x18, 0xbe, 0xb4, 0x09, 0xe8, 0xbb,
  0xe0, 0xbc, 0x5a, 0x3d, 0xa8, 0x2a, 0x10, 0xbe, 0x70, 0xad, 0xb2, 0x3d,
  0x13, 0x32, 0x3a, 0x3d, 0x51, 0xe4, 0xa5, 0x3e, 0xa8, 0x35, 0x49, 0x3d,
  0x52, 0x39, 0xb1, 0x3e, 0x7b, 0xc9, 0x9a, 0x3d, 0x0e, 0x38, 0x91, 0x3e,
  0x4e, 0x19, 0x99, 0xbd, 0x98, 0xac, 0xb4, 0xbd, 0x58, 0x8b, 0xe4, 0x3d,
  0x64, 0xbe, 0x45, 0x3e, 0xd0, 0x2e, 0x71, 0xbd, 0x88, 0x29, 0x19, 0xbe,
  0x18, 0x59, 0x21, 0x3e, 0xe0, 0xef, 0x5e, 0xbe, 0xcd, 0x22, 0xb2, 0xbd,
  0xd0, 0x8b, 0xbf, 0xbd, 0x6c, 0x52, 0x07, 0xbe, 0x60, 0x18, 0xbe, 0x3c,
  0x06, 0x80, 0xcc, 0xbd, 0x04, 0x1d, 0x87, 0xbe, 0xfc, 0x0a, 0x30, 0x3e,
  0xd3, 0x23, 0xb9, 0x3e, 0x50, 0xf8, 0x2e, 0xbe, 0xa0, 0x6a, 0x5e, 0xbe,
  0x7c, 0x85, 0x3c, 0x3e, 0x5c, 0x15, 0x56, 0xbe, 0xd8, 0x4e, 0x28, 0xbe,
  0x4b, 0xeb, 0xf3, 0x3e, 0x0c, 0x21, 0x1c, 0xbe, 0x44, 0xb2, 0x7d, 0xbe,
  0xc8, 0xcc, 0xfb, 0xbd, 0x80, 0x8d, 0xa4, 0xbb, 0x38, 0x71, 0x12, 0xbe,
  0x5a, 0xc4, 0x50, 0x3e, 0x4c, 0x29, 0x50, 0x3e, 0x64, 0xf2, 0x1b, 0x3d,
  0x00, 0xf0, 0x84, 0x3b, 0xe0, 0x10, 0xd5, 0x3c, 0x00, 0x3b, 0x34, 0xbd,
  0xa3, 0x0a, 0x3c, 0x3e, 0xb0, 0x43, 0x29, 0x3e, 0x00, 0xda, 0xaa, 0x3e,
  0x40, 0x3e, 0x7d, 0xbd, 0xa0, 0xb1, 0xcc, 0x3d, 0x30, 0x90, 0x14, 0xbd,
  0x48, 0xef, 0xe5, 0xbd, 0xc0, 0x10, 0x57, 0x3d, 0xd2, 0x2d, 0x96, 0xbd,
  0xfc, 0xb2, 0x2a, 0xbe, 0xf1, 0x40, 0x56, 0xbd, 0x8c, 0xd8, 0x7f, 0x3e,
  0x98, 0x78, 0x2b, 0xbe, 0x50, 0xc2, 0x40, 0xbe, 0x8e, 0x9e, 0x90, 0x3e,
  0xb0, 0x62, 0x41, 0x3d, 0x18, 0x4f, 0xae, 0xbd, 0xc6, 0x6f, 0x1b, 0xbf,
  0xfd, 0x1f, 0x10, 0x3e, 0xd0, 0x38, 0x82, 0xbd, 0x42, 0xe4, 0x19, 0xbe,
  0xa0, 0x5f, 0x9b, 0x3d, 0x35, 0x7f, 0xb9, 0x3d, 0xb8, 0xf1, 0x67, 0xbe,
  0x10, 0x05, 0x9e, 0xbd, 0xac, 0xca, 0x27, 0xbe, 0x20, 0x25, 0x7e, 0xbe,
  0xa0, 0x56, 0xa7, 0xbd, 0x70, 0xab, 0x71, 0x3d, 0x60, 0xf4, 0x72, 0xbe,
  0xd0, 0xf6, 0x27, 0x3d, 0x30, 0xe8, 0x03, 0xbd, 0x4c, 0x13, 0x61, 0x3e,
  0x78, 0x64, 0xbb, 0x3d, 0x00, 0xea, 0x72, 0x3e, 0xd0, 0xc3, 0x3f, 0x3d,
  0x68, 0x3c, 0x5a, 0xbe, 0xa4, 0x87, 0x42, 0xbe, 0x20, 0x0c, 0x1d, 0x3d,
  0x00, 0x34, 0xdb, 0xbd, 0x60, 0xe9, 0x73, 0xbd, 0x20, 0x78, 0xe5, 0x3d,
  0x48, 0x07, 0x38, 0xbe, 0xd0, 0x3d, 0xcb, 0xbd, 0x90, 0x91, 0xda, 0x3d,
  0xa0, 0xe2, 0xf8, 0x3c, 0x00, 0x33, 0x29, 0xbd, 0x40, 0x98, 0x24, 0xbd,
  0x30, 0xea, 0x44, 0xbe, 0xc8, 0xd7, 0xe0, 0xbd, 0x1c, 0x4a, 0x36, 0xbe,
  0x58, 0x2c, 0xc8, 0x3d, 0x80, 0x28, 0x9b, 0xbb, 0xc0, 0xd3, 0x40, 0xbe,
  0x20, 0x96, 0x93, 0x3c, 0xe0, 0xbc, 0x86, 0xbc, 0x38, 0xae, 0xd0, 0x3d,
  0x20, 0xdb, 0x19, 0x3e, 0xc8, 0x06, 0x74, 0xbe, 0x1c, 0x9c, 0x55, 0x3e,
  0xe0, 0xcc, 0xc7, 0xbc, 0x80, 0x77, 0xfb, 0xbb, 0x20, 0xb0, 0xdb, 0xbd,
  0x60, 0xca, 0x49, 0x3e, 0x08, 0x22, 0xae, 0x3d, 0xb0, 0xc8, 0x1e, 0xbe,
  0x68, 0x37, 0xd2, 0xbd, 0x48, 0x3d, 0x2f, 0xbe, 0x00, 0x10, 0xab, 0xbc,
  0x98, 0xaa, 0x85, 0xbd, 0x78, 0xb2, 0x3e, 0xbe, 0xe8, 0x45, 0x84, 0x3d,
  0xa8, 0x73, 0x6b, 0xbe, 0xe0, 0x0b, 0xad, 0xbd, 0x80, 0xb1, 0xab, 0xbd,
  0x70, 0xe3, 0x6e, 0xbd, 0xa8, 0x1d, 0xf2, 0x3d, 0xe8, 0xbd, 0x53, 0xbe,
  0xb8, 0x00, 0xc8, 0x3d, 0x48, 0xc6, 0xc0, 0x3d, 0xb8, 0xc3, 0xc8, 0xbd,
  0x20, 0xc8, 0xce, 0xbc, 0x1c, 0xda, 0x0e, 0xbe, 0x58, 0xea, 0x33, 0xbe,
  0xc8, 0xc2, 0xdb, 0xbd, 0x14, 0xf8, 0x70, 0xbe, 0x20, 0x26, 0x54, 0xbd,
  0xd0, 0x54, 0x4d, 0xbe, 0xd7, 0xc3, 0x13, 0xbe, 0xe6, 0x70, 0x84, 0x3e,
  0xdd, 0x54, 0x30, 0xbd, 0x4b, 0xd5, 0x12, 0x3e, 0xd7, 0x5c, 0x03, 0xbd,
  0x38, 0x81, 0x86, 0xbe, 0xf0, 0x76, 0x6c, 0xbe, 0x9a, 0x70, 0x02, 0xbe,
  0x00, 0x3f, 0x5b, 0x3e, 0x38, 0xf5, 0x5b, 0xbe, 0x88, 0x54, 0xc6, 0x3d,
  0x00, 0xc3, 0x0a, 0x3e, 0x38, 0x01, 0x34, 0x3e, 0x1c, 0xa1, 0x55, 0xbe,
  0x18, 0x84, 0xe8, 0xbd, 0x60, 0x2e, 0x2c, 0x3e, 0x60, 0x84, 0x31, 0x3e,
  0x74, 0x29, 0x2a, 0x3e, 0x58, 0x49, 0x3f, 0xbe, 0x7f, 0x33, 0x4e, 0xbe,
  0x8c, 0xf9, 0x37, 0xbd, 0x4c, 0x07, 0x24, 0x3e, 0xce, 0xa1, 0x3e, 0xbe,
  0x80, 0x73, 0xe1, 0x3c, 0xc0, 0xe6, 0x53, 0x3e, 0x8c, 0x9f, 0x48, 0xbe,
  0x00, 0xd9, 0x1c, 0x3b, 0xd8, 0x33, 0xe6, 0xbd, 0x9c, 0x54, 0x4f, 0xbe,
  0xac, 0x96, 0x32, 0xbe, 0x00, 0x07, 0x0a, 0x3e, 0x14, 0x55, 0x4f, 0xbe,
  0x50, 0xdf, 0x30, 0xbd, 0x94, 0xdd, 0x53, 0x3e, 0xe4, 0x79, 0x8c, 0x3d,
  0x70, 0xd8, 0x5e, 0x3e, 0xeb, 0x69, 0xab, 0xbe, 0x98, 0xd6, 0xcb, 0x3d,
  0x0c, 0xd2, 0x2b, 0x3e, 0x80, 0xd8, 0x25, 0x3e, 0xc2, 0xed, 0xfb, 0x3e,
  0xe0, 0xed, 0x94, 0xbc, 0x36, 0x24, 0x0b, 0x3d, 0x48, 0xc6, 0x88, 0xbd,
  0xcc, 0xf4, 0x43, 0x3e, 0xe8, 0x04, 0x83, 0xbd, 0x93, 0x94, 0x22, 0x3e,
  0x98, 0x58, 0xb2, 0x3d, 0xeb, 0xab, 0xef, 0xbd, 0x60, 0x4a, 0xbe, 0x3d,
  0x34, 0x9d, 0xe6, 0xbd, 0x38, 0x0e, 0x7f, 0x3e, 0x40, 0xdf, 0x49, 0xbc,
  0xec, 0x19, 0xa1, 0xbe, 0xea, 0x28, 0x01, 0xbe, 0x20, 0xa9, 0x5a, 0xbd,
  0x80, 0xf2, 0xfd, 0x3c, 0xb8, 0x43, 0x78, 0x3e, 0x82, 0x06, 0x95, 0x3d,
  0x80, 0x7d, 0x63, 0xbd, 0x53, 0x6d, 0xe1, 0x3d, 0x33, 0x7a, 0xc5, 0xbd,
  0x17, 0x9c, 0x34, 0xbe, 0x80, 0xcc, 0xc5, 0xbd, 0x00, 0xf1, 0x6e, 0x3b,
  0x50, 0xe7, 0x07, 0xbd, 0xc4, 0x6b, 0x0b, 0x3e, 0x04, 0x1e, 0x40, 0x3e,
  0x40, 0x6c, 0xa9, 0xbd, 0x34, 0xeb, 0x68, 0xbe, 0x20, 0x73, 0x39, 0xbd,
  0xf8, 0x15, 0x38, 0xbe, 0x6c, 0xbd, 0x4a, 0x3e, 0x00, 0x96, 0x9d, 0xba,
  0xb0, 0x13, 0x6b, 0xbe, 0xe0, 0xbd, 0xd7, 0x3c, 0x44, 0x6c, 0x20, 0x3e,
  0xdc, 0x2d, 0x75, 0x3e, 0xd0, 0x7f, 0xf8, 0x3d, 0xc0, 0xc2, 0xa1, 0xbd,
  0xe8, 0x43, 0xfa, 0xbd, 0xa4, 0xad, 0x60, 0x3e, 0x68, 0xe4, 0x8e, 0xbd,
  0x80, 0x00, 0x62, 0x3e, 0x88, 0xed, 0xf7, 0x3d, 0x00, 0xb0, 0x28, 0x39,
  0xd8, 0x68, 0xe6, 0xbd, 0x80, 0xf4, 0x1c, 0x3e, 0xb0, 0x1d, 0xd9, 0x3d,
  0x00, 0x5c, 0xdc, 0xbd, 0xc0, 0x32, 0x71, 0x3e, 0x40, 0x14, 0xa9, 0xbc,
  0xb8, 0xe2, 0xd7, 0xbd, 0x1c, 0x00, 0x40, 0x3e, 0x80, 0xb3, 0x32, 0xbd,
  0x3c, 0x54, 0x28, 0xbe, 0x90, 0x4c, 0xf1, 0xbd, 0x90, 0x2e, 0x8e, 0x3d,
  0x50, 0xba, 0x0f, 0xbe, 0xbc, 0x1b, 0x35, 0x3e, 0x7c, 0x8e, 0x14, 0x3e,
  0x80, 0xc9, 0x83, 0xbd, 0x20, 0xc2, 0xd2, 0x3c, 0x54, 0x90, 0x06, 0x3e,
  0xa0, 0xfa, 0x2c, 0x3d, 0x38, 0x9b, 0x36, 0x3e, 0x4c, 0x95, 0x55, 0xbe,
  0x90, 0x14, 0xf0, 0xbd, 0x90, 0xa2, 0x36, 0x3e, 0x6c, 0x96, 0x05, 0x3e,
  0x50, 0xb5, 0x23, 0xbd, 0x50, 0xeb, 0xf8, 0x3d, 0x80, 0xb1, 0x47, 0xbc,
  0x00, 0x06, 0x1b, 0x3d, 0x00, 0x8d, 0x4b, 0x3b, 0x84, 0x16, 0x73, 0xbe,
  0x40, 0xf6, 0xe5, 0x3d, 0xa0, 0xf1, 0x06, 0xbd, 0xd0, 0xee, 0x9f, 0xbd,
  0x00, 0x01, 0x26, 0xbb, 0x40, 0x02, 0xda, 0x3c, 0xf0, 0xe0, 0x4a, 0x3e,
  0x44, 0xbe, 0x04, 0xbe, 0xf8, 0x89, 0xfb, 0xbd, 0x5c, 0x9b, 0x02, 0xbe,
  0x00, 0x4f, 0x7b, 0xbb, 0x78, 0x9d, 0x6f, 0x3e, 0x7c, 0x8a, 0x5e, 0x3e,
  0x98, 0xcd, 0x87, 0x3e, 0x14, 0x48, 0x94, 0x39, 0x8d, 0x2c, 0xba, 0x3c,
  0x7d, 0x22, 0x03, 0xbe, 0xdb, 0x01, 0x53, 0xbe, 0xb6, 0x0d, 0xd4, 0x3b,
  0xe3, 0x30, 0x95, 0xbd, 0xc0, 0x55, 0x57, 0xbe, 0xa0, 0x98, 0xf0, 0x3d,
  0x20, 0x5d, 0xa6, 0xbc, 0x68, 0x4d, 0xa5, 0xbd, 0x40, 0x38, 0x29, 0x3d,
  0x00, 0xfd, 0x21, 0xbc, 0x8c, 0x2e, 0x66, 0x3e, 0x00, 0x51, 0x16, 0xbe,
  0xaf, 0x08, 0x34, 0xbe, 0x10, 0xfb, 0x57, 0x3e, 0xf0, 0xb9, 0x10, 0x3d,
  0x68, 0x4d, 0xb5, 0x3d, 0xb3, 0x91, 0x62, 0xbd, 0x06, 0x75, 0x98, 0x3d,
  0xc8, 0x2a, 0xb6, 0x3d, 0x73, 0xb1, 0x89, 0xbd, 0x40, 0x33, 0xb8, 0x3d,
  0x28, 0xbd, 0x38, 0x3e, 0x20, 0x03, 0xfd, 0x3c, 0x3c, 0x5e, 0x41, 0x3e,
  0xe8, 0x0a, 0xc0, 0x3e, 0x31, 0xf7, 0x8a, 0xbe, 0x00, 0x3f, 0xd4, 0x3b,
  0x38, 0xcc, 0x0e, 0x3e, 0x20, 0xbb, 0x4d, 0xbd, 0x98, 0x02, 0x8f, 0xbd,
  0x3c, 0x85, 0x1f, 0x3e, 0x4c, 0xae, 0x8d, 0x3e, 0x30, 0xec, 0x76, 0x3d,
  0x51, 0xa7, 0xaa, 0x3d, 0xd0, 0x1e, 0x63, 0x3d, 0xb8, 0x6c, 0xb4, 0x3d,
  0x00, 0x80, 0xa5, 0xbc, 0xe3, 0x24, 0xec, 0xbe, 0x80, 0x38, 0xc1, 0x3b,
  0x4b, 0x01, 0x5b, 0xbe, 0x40, 0x38, 0x6f, 0xbd, 0x60, 0xd8, 0xc0, 0xbd,
  0xa0, 0xe0, 0xe4, 0xbc, 0xec, 0xb0, 0xd7, 0x3d, 0xec, 0x01, 0x3b, 0xbe,
  0xf5, 0xd1, 0xa3, 0xbc, 0x3c, 0x49, 0x7c, 0x3e, 0x23, 0x4b, 0x8c, 0x3e,
  0x00, 0x9d, 0x18, 0x3c, 0xf8, 0x11, 0xa6, 0x3d, 0x0c, 0x36, 0x90, 0x3e,
  0xda, 0x40, 0x3e, 0x3e, 0xb0, 0x98, 0x6d, 0xbd, 0xa8, 0x08, 0xb0, 0xbd,
  0xcf, 0x3f, 0x20, 0x3f, 0x0c, 0x56, 0x7c, 0x3e, 0xa0, 0x52, 0x6c, 0x3e,
  0x96, 0x2c, 0xa3, 0x3e, 0xce, 0x75, 0x12, 0xbe, 0xd8, 0xfe, 0x47, 0x3e,
  0x60, 0x20, 0x47, 0x3e, 0xa3, 0xad, 0x8d, 0x3e, 0x05, 0xbf, 0x65, 0xbe,
  0xe2, 0x7c, 0x19, 0x3e, 0xc2, 0xd1, 0x70, 0x3e, 0xef, 0x71, 0x39, 0x3e,
  0xd3, 0x46, 0xc6, 0xbd, 0xae, 0x53, 0xd2, 0x3e, 0x2c, 0xf0, 0xec, 0x3d,
  0x08, 0x9e, 0xd3, 0x3d, 0xdc, 0x90, 0x4a, 0xbe, 0x90, 0x20, 0xff, 0x3d,
  0x14, 0xc3, 0x2c, 0x3e, 0x98, 0x2f, 0xb7, 0xbd, 0xd4, 0x58, 0x0d, 0x3e,
  0x00, 0xeb, 0x8b, 0xbd, 0xe1, 0xb3, 0xcd, 0x3d, 0x70, 0x04, 0x4b, 0xbd,
  0x70, 0xcd, 0xfb, 0xbd, 0x78, 0xf4, 0x48, 0xbe, 0xc6, 0x22, 0xc7, 0x3e,
  0x59, 0x87, 0xd9, 0xbc, 0xec, 0x4a, 0x19, 0x3e, 0xa1, 0xf8, 0xad, 0x3e,
  0x80, 0x2a, 0x39, 0xbc, 0x34, 0xf0, 0x0c, 0xbe, 0xc8, 0x3c, 0x0b, 0xbe,
  0x30, 0x9c, 0x49, 0x3d, 0x9b, 0xd5, 0x7c, 0x3d, 0x3c, 0x16, 0x93, 0x3e,
  0x2c, 0xdc, 0x10, 0x3e, 0x90, 0x81, 0x10, 0x3d, 0xc4, 0x95, 0x64, 0x3e,
  0xcc, 0x0c, 0x59, 0xbe, 0x14, 0x1f, 0x31, 0x3e, 0x83, 0xd3, 0xc3, 0x3d,
  0x10, 0x23, 0x77, 0x3d, 0xac, 0x8b, 0xed, 0x3d, 0x6c, 0x82, 0x23, 0xbe,
  0xb0, 0x2d, 0x78, 0xbd, 0x00, 0xe4, 0x54, 0xbd, 0xeb, 0x4f, 0x0a, 0xbf,
  0x50, 0xf5, 0xb9, 0x3d, 0x74, 0xea, 0x2c, 0xbd, 0xf8, 0x27, 0xb6, 0xbd,
  0xec, 0xa8, 0x01, 0xbe, 0x00, 0x28, 0x71, 0xba, 0xef, 0x61, 0x2d, 0xbe,
  0xd8, 0x66, 0xde, 0xbd, 0x0c, 0xc1, 0x95, 0x3d, 0x54, 0xef, 0x39, 0x3e,
  0x26, 0x4f, 0xc3, 0xbd, 0xe4, 0xa2, 0x7b, 0xbe, 0xd0, 0x65, 0x2e, 0x3d,
  0x41, 0xc2, 0x2e, 0x3e, 0x2a, 0xf0, 0x2f, 0x3d, 0xc0, 0x68, 0x8a, 0x3c,
  0x98, 0x71, 0x03, 0xbe, 0xbf, 0xc7, 0xd5, 0xbc, 0x8a, 0x86, 0x38, 0x38,
  0x7c, 0x5f, 0x1b, 0xbe, 0x4b, 0x64, 0x0a, 0xbe, 0x15, 0x60, 0x61, 0xbe,
  0x3b, 0x1e, 0x4e, 0xbe, 0xb0, 0xb6, 0x7c, 0x3d, 0x28, 0x41, 0xa0, 0x3d,
  0xd1, 0x38, 0x53, 0x3e, 0xc9, 0x90, 0x13, 0x3c, 0x13, 0x69, 0x0f, 0xbe,
  0xd6, 0xd3, 0x00, 0x3e, 0xf5, 0x51, 0x37, 0x3d, 0xe0, 0xc7, 0x90, 0x3e,
  0x24, 0x44, 0x2d, 0x3e, 0xa0, 0x3f, 0x9d, 0xbc, 0xcc, 0x0f, 0x7a, 0x3e,
  0x50, 0xde, 0x62, 0x3d, 0x00, 0xef, 0xa7, 0x3c, 0x80, 0x47, 0xa8, 0x3b,
  0xfc, 0x55, 0x0b, 0x3e, 0x30, 0x22, 0x19, 0x3d, 0xf9, 0xea, 0xb9, 0xbd,
  0xb8, 0xaa, 0x61, 0xbe, 0xa0, 0xab, 0x59, 0x3e, 0xe8, 0x48, 0x3a, 0x3e,
  0xb5, 0x97, 0xe5, 0x3e, 0xb2, 0x9f, 0xd8, 0xbd, 0x7c, 0xcd, 0x19, 0xbe,
  0x85, 0x8a, 0x2e, 0x3e, 0xf8, 0x09, 0xfb, 0xbd, 0xa0, 0xc1, 0x22, 0x3e,
  0x18, 0x26, 0x24, 0x3e, 0x18, 0xb3, 0xe4, 0x3d, 0xa4, 0x6f, 0x9f, 0xbd,
  0xb9, 0xc0, 0x8c, 0x3e, 0x20, 0x5b, 0x58, 0xbe, 0xd8, 0x26, 0x23, 0xbe,
  0xdc, 0x1c, 0x7c, 0x3e, 0x40, 0xd4, 0xeb, 0xbd, 0xb8, 0x25, 0xc2, 0x3d,
  0xd5, 0xf5, 0x56, 0x3e, 0x18, 0xee, 0xf1, 0xbd, 0x56, 0xac, 0x12, 0x3e,
  0xac, 0x4e, 0x60, 0x3e, 0x88, 0x76, 0xab, 0x3d, 0xe0, 0x31, 0xdb, 0x3c,
  0xd9, 0xc5, 0xb4, 0xbb, 0xe0, 0xdd, 0x09, 0xbd, 0x1e, 0xbf, 0xfb, 0x3d,
  0xc8, 0xee, 0x59, 0xbe, 0xe8, 0xd6, 0xf4, 0xbd, 0x90, 0xb7, 0x30, 0xbd,
  0x0b, 0x50, 0x77, 0xbc, 0x40, 0x8c, 0x57, 0x3d, 0x9e, 0x65, 0xbc, 0xbc,
  0x9c, 0x36, 0x33, 0xbe, 0xd8, 0xd5, 0x18, 0x3e, 0x3c, 0x8f, 0x55, 0xbe,
  0x40, 0x3d, 0xa8, 0x3d, 0x3d, 0xb1, 0x0d, 0xbe, 0x9c, 0x53, 0x56, 0x3e,
  0x70, 0xff, 0x05, 0xbe, 0xfc, 0xd9, 0x35, 0xbe, 0xb1, 0x81, 0x85, 0xbe,
  0x14, 0x42, 0xa5, 0xbd, 0x5c, 0x1f, 0x48, 0x3e, 0x4e, 0x9d, 0x23, 0x3a,
  0xc1, 0x71, 0x25, 0x3e, 0xfb, 0x66, 0x13, 0x3e, 0x84, 0xd9, 0x70, 0xbe,
  0xf5, 0x87, 0xb8, 0x3d, 0xcf, 0x1f, 0x8b, 0x3d, 0x63, 0x30, 0x28, 0xbe,
  0x76, 0xb0, 0x28, 0x3e, 0x36, 0x70, 0x87, 0x3e, 0x8e, 0x80, 0x18, 0x3c,
  0x51, 0xcb, 0xa0, 0x3d, 0xdb, 0x88, 0x25, 0xbe, 0x98, 0x2b, 0x64, 0xbe,
  0x10, 0x49, 0xaa, 0xbd, 0x48, 0x6d, 0x04, 0xbe, 0xd0, 0xb6, 0x77, 0x3d,
  0x44, 0x88, 0x60, 0x3e, 0x54, 0x49, 0x0b, 0x3e, 0xec, 0x5f, 0x03, 0xbe,
  0xb5, 0xb9, 0x99, 0x3d, 0x40, 0x97, 0x96, 0xbc, 0x10, 0x83, 0x6a, 0xbe,
  0x08, 0x31, 0x59, 0x3e, 0x26, 0xe0, 0xea, 0x3e, 0xa7, 0xae, 0x27, 0x3e,
  0x50, 0x68, 0x2c, 0xbe, 0xe2, 0x1e, 0x86, 0xbd, 0x70, 0xb2, 0x67, 0x3e,
  0x88, 0x07, 0x08, 0x3e, 0xa0, 0x79, 0xd8, 0xbd, 0x20, 0xfb, 0x38, 0xbd,
  0x13, 0xd2, 0x57, 0x3e, 0x70, 0xc2, 0x9c, 0x3e, 0x30, 0x2b, 0xbe, 0x3d,
  0x00, 0xa5, 0x74, 0x3d, 0x10, 0x19, 0xb1, 0x3d, 0x84, 0xa3, 0x50, 0x3e,
  0x80, 0xca, 0x22, 0x3d, 0xda, 0xcf, 0x87, 0x3e, 0xb0, 0x79, 0x3b, 0x3e,
  0x90, 0x65, 0x28, 0x3e, 0xac, 0x4d, 0x5f, 0xbe, 0xf8, 0x7c, 0x58, 0x3e,
  0xe0, 0x89, 0x3b, 0x3d, 0xbf, 0x37, 0x0e, 0xbf, 0x50, 0xdb, 0x99, 0x3d,
  0x29, 0xc0, 0xba, 0x3e, 0xa0, 0x35, 0x25, 0xbd, 0x14, 0xb4, 0x4e, 0xbe,
  0x84, 0x56, 0x67, 0x3e, 0x85, 0x3b, 0xc7, 0x3d, 0x14, 0x95, 0x34, 0x3e,
  0xb0, 0xea, 0x73, 0x3d, 0x40, 0x3e, 0xd9, 0x3c, 0xaa, 0x07, 0xa8, 0x3e,
  0x30, 0x8a, 0x04, 0x3e, 0x00, 0x9b, 0x4c, 0xbe, 0x97, 0x73, 0x07, 0x3f,
  0xa7, 0x24, 0xa8, 0x3e, 0xf8, 0x94, 0xb5, 0x3d, 0xa0, 0x10, 0xd2, 0xbc,
  0x26, 0x45, 0x92, 0x3d, 0x1c, 0x5e, 0x07, 0xbe, 0x40, 0xec, 0xfa, 0x3d,
  0x03, 0x7f, 0x9e, 0x3e, 0x6b, 0x5d, 0x0e, 0x3e, 0x05, 0xf3, 0x65, 0x3e,
  0x68, 0x33, 0x48, 0x3e, 0x45, 0x54, 0xf1, 0x3d, 0x86, 0xa3, 0xa4, 0x3d,
  0xcd, 0x13, 0x80, 0xbe, 0x07, 0xfb, 0x94, 0xbd, 0x51, 0xe4, 0xe5, 0xbd,
  0xd0, 0x09, 0x75, 0x3e, 0xd3, 0xfb, 0x80, 0xbd, 0xa4, 0xd1, 0x22, 0xbe,
  0x98, 0x96, 0xaa, 0x3d, 0x80, 0xdc, 0xc1, 0xbc, 0xfc, 0xfd, 0x00, 0x3e,
  0x48, 0x64, 0xa6, 0xbd, 0x20, 0x0b, 0x45, 0xbd, 0x84, 0xfb, 0x11, 0x3e,
  0x94, 0xbb, 0x35, 0xbe, 0xc0, 0xef, 0x04, 0xbc, 0x70, 0xe4, 0x13, 0xbe,
  0x60, 0x5d, 0x1b, 0x3d, 0x00, 0xf8, 0x3b, 0xbd, 0x38, 0x4b, 0x3f, 0xbe,
  0xe8, 0x92, 0x86, 0xbe, 0xc0, 0xa0, 0x27, 0x3e, 0xa4, 0x37, 0xfb, 0x3d,
  0x10, 0xb7, 0x30, 0x3d, 0x74, 0x7b, 0x6e, 0x3e, 0x54, 0x27, 0x7f, 0xbe,
  0x68, 0x24, 0xf5, 0xbd, 0x80, 0x23, 0xa3, 0xbc, 0xa7, 0x0e, 0x2f, 0xbe,
  0x88, 0x6d, 0xed, 0x3d, 0x30, 0xc5, 0xe4, 0xbd, 0x90, 0x3e, 0x1a, 0x3d,
  0x00, 0x9c, 0x7c, 0xba, 0xf0, 0x21, 0xd3, 0xbd, 0xc8, 0xea, 0x4a, 0x3e,
  0xb4, 0x9e, 0x6d, 0x3e, 0x9c, 0x7a, 0x70, 0x3e, 0x20, 0x30, 0x8a, 0xbd,
  0x40, 0x64, 0x61, 0xbd, 0x98, 0xaa, 0xd4, 0x3d, 0xd8, 0x97, 0x90, 0x3d,
  0xac, 0x87, 0x55, 0xbe, 0xfd, 0x6e, 0xee, 0x3d, 0x18, 0x7b, 0x28, 0x3e,
  0x44, 0xda, 0x51, 0xbe, 0xf8, 0xa8, 0x17, 0xbe, 0x75, 0x90, 0x33, 0xbe,
  0xa0, 0x95, 0xd9, 0xbd, 0x03, 0x5c, 0x21, 0xbe, 0x7c, 0x52, 0x6a, 0xbe,
  0xab, 0x4a, 0x19, 0xbe, 0x18, 0x84, 0x67, 0xbe, 0x08, 0x73, 0xae, 0x3d,
  0xf8, 0x23, 0x82, 0xbd, 0x1a, 0xa3, 0x14, 0xbd, 0xa8, 0x8a, 0xa0, 0x3d,
  0x1c, 0x07, 0x68, 0xbe, 0xc9, 0x75, 0x15, 0x3e, 0xe0, 0xb3, 0x78, 0xbe,
  0x60, 0xbb, 0xb7, 0xbc, 0x35, 0xe6, 0xab, 0x3c, 0xb4, 0xcf, 0x63, 0xbd,
  0xe8, 0x36, 0x95, 0x3d, 0x9c, 0x4e, 0x7a, 0x3e, 0x6e, 0x82, 0x05, 0x3e,
  0x82, 0x0d, 0x6e, 0x3d, 0x26, 0x77, 0x5c, 0x3c, 0x85, 0x73, 0x89, 0xbd,
  0x19, 0x9b, 0x9a, 0xbd, 0xfc, 0xf5, 0x78, 0x3e, 0xe8, 0xc3, 0x16, 0x3e,
  0xe5, 0x4d, 0xd9, 0xbc, 0xe0, 0x0e, 0x9b, 0xbc, 0xe0, 0x43, 0x48, 0x3e,
  0x74, 0x4a, 0x32, 0xbe, 0x60, 0xfc, 0xd8, 0xbd, 0x88, 0x84, 0xec, 0xbd,
  0x78, 0xee, 0xc8, 0xbd, 0x40, 0x43, 0x1b, 0x3c, 0xf9, 0xed, 0xca, 0x3d,
  0xdc, 0x91, 0x15, 0x3e, 0xa0, 0x10, 0x10, 0xbd, 0x7c, 0x57, 0x11, 0x3e,
  0x98, 0x95, 0x6d, 0x3e, 0xd7, 0x3d, 0x5c, 0xbe, 0x4c, 0x63, 0x54, 0x3e,
  0x68, 0xfa, 0x3f, 0x3c, 0x90, 0xf9, 0x4f, 0x3d, 0x30, 0xd2, 0x19, 0x3e,
  0xb0, 0x47, 0x38, 0xbd, 0x90, 0x83, 0x1d, 0x3e, 0xa1, 0x7c, 0x4a, 0xbe,
  0xb3, 0x86, 0x0a, 0xbe, 0xd4, 0x94, 0x34, 0xbe, 0xa8, 0xfd, 0x1a, 0x3e,
  0xd8, 0xb4, 0xb5, 0x3d, 0x10, 0x16, 0x74, 0x3e, 0x54, 0x60, 0x02, 0xbe,
  0x3e, 0x39, 0x26, 0x3e, 0xc0, 0x87, 0x1a, 0x3c, 0xfd, 0x1e, 0x16, 0x3e,
  0x70, 0xa5, 0x1b, 0xbe, 0x80, 0x40, 0x3e, 0x3e, 0x88, 0x1f, 0xd9, 0x3d,
  0x7f, 0x6f, 0x37, 0xbe, 0xc8, 0x6e, 0x57, 0xbe, 0x6f, 0xef, 0x75, 0xbd,
  0x60, 0x03, 0x28, 0x3d, 0xa0, 0x54, 0x8b, 0xbc, 0x20, 0xb2, 0x4e, 0x3e,
  0x96, 0x8a, 0x73, 0xbe, 0xb0, 0xb6, 0xfe, 0x3d, 0x67, 0xe1, 0x40, 0xbe,
  0x3c, 0x5b, 0x4d, 0xbe, 0x37, 0xa4, 0x06, 0x3e, 0xb4, 0x8a, 0x1a, 0x3e,
  0x68, 0x31, 0x72, 0xbe, 0xed, 0x15, 0x55, 0xbe, 0xa3, 0x48, 0x61, 0xbe,
  0xe0, 0x13, 0xa3, 0x3c, 0xac, 0xff, 0x76, 0xbe, 0x7a, 0x3e, 0xa4, 0xbd,
  0x86, 0x9e, 0x6b, 0xbd, 0x40, 0xca, 0xf1, 0xbc, 0x1b, 0x44, 0x60, 0x3e,
  0x9a, 0xa2, 0x18, 0x3e, 0xb8, 0x6f, 0x58, 0xbe, 0xf0, 0x1a, 0x51, 0xbe,
  0x50, 0x4c, 0x56, 0x3d, 0xd0, 0x37, 0x75, 0xbd, 0xd0, 0xe7, 0xb2, 0xbd,
  0xe0, 0xdc, 0xa1, 0x3d, 0x58, 0xe6, 0x4d, 0xbe, 0x64, 0x8f, 0x29, 0xbe,
  0xd8, 0xf4, 0x76, 0xbe, 0xc8, 0x77, 0xf1, 0x3d, 0x6c, 0x79, 0x5b, 0x3e,
  0xe0, 0xd9, 0x64, 0x3d, 0x00, 0x73, 0x68, 0x3c, 0x50, 0x6a, 0xa0, 0xbd,
  0x94, 0xa8, 0x12, 0x3e, 0xd8, 0x91, 0x74, 0xbe, 0xd8, 0x18, 0xb5, 0xbd,
  0x20, 0xe0, 0x88, 0xbc, 0xac, 0x1f, 0x1d, 0x3e, 0xc8, 0x91, 0xac, 0x3d,
  0x74, 0x8b, 0x4d, 0xbe, 0xb8, 0xb4, 0x38, 0x3e, 0x00, 0x97, 0xa5, 0xbd,
  0xa0, 0xcf, 0xec, 0xbd, 0x80, 0xdf, 0x3b, 0x3c, 0xac, 0x7b, 0x60, 0xbe,
  0x80, 0x0a, 0xed, 0x3c, 0x28, 0xea, 0x65, 0xbe, 0xe0, 0xd3, 0x50, 0x3e,
  0x1c, 0x25, 0x26, 0x3e, 0x18, 0x92, 0x16, 0x3e, 0xf0, 0x9a, 0x03, 0x3e,
  0x28, 0x7d, 0xec, 0xbd, 0x80, 0xdc, 0x4b, 0xbd, 0x6c, 0x14, 0x4c, 0xbe,
  0xa8, 0xd9, 0xa8, 0x3d, 0x8c, 0x3e, 0x2c, 0xbe, 0xa8, 0x7c, 0xf5, 0xbd,
  0x20, 0xbd, 0x26, 0xbe, 0x80, 0x90, 0xd0, 0x3b, 0xe0, 0xd1, 0x8c, 0xbd,
  0x40, 0x2f, 0x4f, 0xbc, 0xa8, 0xe9, 0x28, 0x3e, 0x80, 0xc2, 0x42, 0x3e,
  0x48, 0x19, 0xc0, 0x3d, 0xd0, 0x57, 0x10, 0x3d, 0xa0, 0x6f, 0x20, 0xbd,
  0x64, 0xea, 0x4e, 0x3e, 0xe0, 0x0f, 0xb9, 0x3d, 0x88, 0x78, 0xa3, 0xbd,
  0xec, 0x08, 0x6c, 0xbe, 0x10, 0xac, 0xb8, 0x3d, 0x34, 0xb3, 0x59, 0xbe,
  0x24, 0x3f, 0x51, 0x3e, 0x60, 0x57, 0x6e, 0xbd, 0xf4, 0x29, 0x01, 0xbe,
  0x78, 0xfe, 0xf5, 0xbd, 0x0c, 0xe3, 0x01, 0xbe, 0x70, 0x78, 0x37, 0xbd,
  0xb8, 0x54, 0xdb, 0xbd, 0x94, 0xe1, 0x5e, 0x3e, 0x78, 0xd0, 0x3a, 0xbe,
  0xf0, 0x04, 0xe3, 0xbd, 0x40, 0x97, 0x41, 0xbc, 0x10, 0x14, 0x1d, 0xbe,
  0xac, 0xaa, 0x62, 0x3e, 0xc0, 0x17, 0xe8, 0x3c, 0x88, 0x62, 0x6e, 0xbe,
  0xe0, 0xbb, 0x80, 0x3c, 0xa8, 0x3b, 0xb7, 0xbd, 0xac, 0xda, 0x07, 0x3e,
  0xc8, 0x52, 0x15, 0xbe, 0x50, 0x15, 0x30, 0x3d, 0x00, 0x4d, 0x4b, 0xbb,
  0x0c, 0x16, 0x33, 0xbe, 0x00, 0x4e, 0x52, 0x3e, 0xd0, 0x49, 0x8f, 0x3d,
  0x48, 0x4d, 0xb2, 0x3d, 0xb8, 0xb0, 0xc6, 0x3d, 0x00, 0xde, 0x16, 0x3c,
  0x7c, 0x4f, 0x33, 0x3e, 0x00, 0x90, 0xe4, 0x3c, 0x80, 0xb1, 0x6e, 0x3e,
  0x08, 0x53, 0x58, 0x3e, 0xb0, 0x89, 0x05, 0xbd, 0x4c, 0x37, 0x08, 0x3e,
  0xc8, 0xa4, 0x9e, 0x3d, 0x58, 0x82, 0x7d, 0x3e, 0x7c, 0x5d, 0x64, 0xbe,
  0x10, 0xbf, 0x98, 0x3d, 0x00, 0xa4, 0xff, 0xbc, 0x04, 0x08, 0x0a, 0xbe,
  0x40, 0x61, 0x03, 0xbd, 0x40, 0x95, 0xf0, 0x3d, 0x00, 0x4b, 0xa3, 0xbb,
  0x00, 0xa2, 0xc3, 0xba, 0x30, 0xd0, 0x0d, 0x3d, 0x78, 0xfa, 0xab, 0x3d,
  0xe0, 0xa9, 0xa2, 0xbd, 0x80, 0x45, 0x78, 0xbc, 0xc0, 0xd5, 0x0d, 0xbc,
  0x18, 0xe3, 0xf0, 0xbd, 0x58, 0x22, 0xa8, 0x3d, 0x00, 0x05, 0x74, 0xbb,
  0xb8, 0x3c, 0x77, 0x3e, 0x70, 0x0b, 0xc4, 0xbd, 0x78, 0x6b, 0x83, 0xbd,
  0x70, 0x68, 0xdf, 0xbd, 0x60, 0xcb, 0x99, 0xbd, 0xe8, 0xd8, 0x48, 0xbe,
  0x90, 0x6e, 0x75, 0x3d, 0x5c, 0xfd, 0x10, 0xbe, 0x48, 0x3e, 0xb0, 0xbd,
  0xbc, 0xd9, 0x2c, 0xbe, 0x80, 0x5a, 0x80, 0xbd, 0xe8, 0xeb, 0x37, 0x3e,
  0xf0, 0x0c, 0x32, 0xbe, 0xb8, 0xa1, 0x2f, 0x3e, 0x68, 0x4a, 0x66, 0xbe,
  0x28, 0xac, 0xe3, 0xbd, 0xb8, 0x03, 0x31, 0x3e, 0x68, 0x40, 0xbd, 0xbd,
  0x7c, 0xb6, 0x48, 0xbe, 0xe0, 0xd3, 0x8e, 0x3d, 0xe8, 0x56, 0x33, 0x3e,
  0x38, 0xca, 0x19, 0x3e, 0x20, 0x96, 0x12, 0xbd, 0xdc, 0x9b, 0x12, 0x3e,
  0x80, 0xa5, 0x31, 0xbe, 0xa8, 0x7d, 0xa0, 0x3d, 0xbf, 0xf7, 0x32, 0x3e,
  0xda, 0x87, 0x75, 0x3e, 0xd2, 0x4e, 0x10, 0xbe, 0x0c, 0x79, 0x02, 0x3e,
  0x66, 0xb3, 0x79, 0x3e, 0x3b, 0x66, 0x27, 0xbe, 0xf1, 0x12, 0x04, 0x3f,
  0xf5, 0x68, 0x20, 0x3e, 0x80, 0x94, 0x9f, 0xbc, 0x08, 0x60, 0x84, 0xbd,
  0xc0, 0xe8, 0x00, 0x3d, 0x58, 0xea, 0x73, 0x3e, 0x7c, 0xa2, 0x69, 0x3e,
  0x00, 0x10, 0x71, 0x3d, 0x08, 0x6d, 0x34, 0xbe, 0xd4, 0x70, 0x73, 0xbe,
  0x50, 0xef, 0x88, 0xbd, 0x54, 0x84, 0x20, 0x3e, 0x80, 0x2d, 0x3d, 0xbd,
  0x5c, 0x73, 0x8a, 0x3e, 0xd9, 0xd9, 0x87, 0x3c, 0x78, 0x99, 0x35, 0xbe,
  0x2f, 0xaf, 0xc6, 0x3e, 0x20, 0x5d, 0xfc, 0xbc, 0xe0, 0xab, 0xfa, 0x3c,
  0x60, 0xc8, 0xcb, 0xbc, 0x84, 0x91, 0x38, 0x3e, 0xd4, 0xef, 0x19, 0x3e,
  0xf4, 0xe4, 0x03, 0x3d, 0x78, 0x43, 0x13, 0x3e, 0x20, 0x1f, 0x35, 0x3e,
  0xf0, 0xf5, 0x1e, 0x3d, 0x00, 0x97, 0x78, 0xbd, 0x80, 0x7f, 0x35, 0xbe,
  0xc9, 0x30, 0xb7, 0xbb, 0x80, 0x35, 0x33, 0x3d, 0x98, 0x9d, 0xde, 0xbb,
  0x38, 0xfe, 0xb7, 0x3d, 0x78, 0xfe, 0xb9, 0x3d, 0xd0, 0xb7, 0x0b, 0xbd,
  0x13, 0x13, 0xdf, 0x3e, 0x90, 0x36, 0x06, 0xbd, 0x24, 0x3c, 0x68, 0x3e,
  0x70, 0xa1, 0xae, 0x3d, 0x20, 0xd6, 0x0a, 0x3e, 0x00, 0x12, 0x2c, 0xbd,
  0xd7, 0x74, 0x18, 0x3e, 0xc8, 0x31, 0x9d, 0x3d, 0x7e, 0x7b, 0xba, 0x3d,
  0x80, 0x88, 0x9f, 0xbb, 0x8e, 0x9c, 0x21, 0x3c, 0x70, 0xc1, 0x64, 0xbe,
  0x40, 0xe1, 0x13, 0x3e, 0x92, 0x91, 0xbd, 0xbe, 0xcd, 0x4f, 0xe0, 0x3c,
  0x80, 0xde, 0x23, 0x3d, 0xd8, 0x70, 0x36, 0xbe, 0x6a, 0x98, 0x1e, 0xbf,
  0xa5, 0xcc, 0xb4, 0xbd, 0x10, 0x51, 0xa6, 0xbd, 0x09, 0x9c, 0x53, 0xbd,
  0xa9, 0x2f, 0x5c, 0x3e, 0x09, 0x3c, 0x31, 0xbe, 0x3c, 0x73, 0x66, 0xbe,
  0xd8, 0xe7, 0xd4, 0xbd, 0x48, 0x29, 0xbd, 0xbd, 0xf8, 0xa5, 0x1b, 0x3e,
  0x54, 0x9e, 0x1b, 0x3e, 0x30, 0x1d, 0x45, 0xbd, 0x60, 0x2f, 0xe1, 0x3c,
  0x80, 0x1b, 0x81, 0xbb, 0x20, 0xd5, 0x03, 0x3e, 0x20, 0xc5, 0xf9, 0x3c,
  0x38, 0xaf, 0x81, 0x3d, 0x30, 0xa2, 0x05, 0xbd, 0xd8, 0x4f, 0x6c, 0x3e,
  0x00, 0x1e, 0x78, 0x3c, 0x9c, 0x0b, 0x18, 0x3e, 0x98, 0x02, 0x54, 0xbe,
  0x48, 0x11, 0x16, 0x3e, 0x30, 0xa6, 0x43, 0x3d, 0x00, 0x1e, 0x1c, 0x3c,
  0xd0, 0x77, 0x7f, 0x3e, 0xf0, 0x75, 0x1e, 0xbe, 0xc8, 0x1d, 0xb3, 0xbd,
  0xb4, 0x6a, 0x3d, 0x3e, 0x30, 0x9c, 0xc7, 0xbd, 0x28, 0x90, 0x0f, 0x3e,
  0xb8, 0x71, 0xce, 0xbd, 0x80, 0xa3, 0x25, 0x3c, 0xc8, 0x3f, 0xfe, 0xbd,
  0xa4, 0x03, 0x3d, 0x3e, 0xc0, 0x23, 0xe9, 0xbd, 0x48, 0x4a, 0x0e, 0x3e,
  0x88, 0xf7, 0x82, 0xbd, 0x18, 0xe8, 0xaf, 0xbd, 0x68, 0x9d, 0x6a, 0xbe,
  0x00, 0x70, 0x8c, 0x3b, 0xe0, 0x09, 0xbf, 0xbd, 0xd8, 0x3f, 0xb2, 0xbd,
  0x78, 0xe4, 0x09, 0x3e, 0x10, 0xe2, 0x4e, 0xbd, 0xc8, 0xd6, 0xfc, 0x3d,
  0x50, 0x5f, 0xe8, 0xbd, 0xe8, 0x42, 0xf4, 0x3d, 0x60, 0x06, 0xa2, 0x3c,
  0x28, 0x44, 0x1d, 0x3e, 0x20, 0x5e, 0x25, 0x3d, 0x48, 0x12, 0xb8, 0x3d,
  0x50, 0xb8, 0x8b, 0x3d, 0x78, 0x1b, 0x70, 0xbe, 0xa8, 0x37, 0xa7, 0x3d,
  0x10, 0x7c, 0xc2, 0xbd, 0xd4, 0x85, 0x51, 0x3e, 0xac, 0x3f, 0x4c, 0xbe,
  0xc0, 0x3c, 0xc6, 0xbc, 0x18, 0x4c, 0xec, 0xbd, 0xbc, 0x45, 0x66, 0xbe,
  0x48, 0xd6, 0x14, 0xbe, 0x20, 0x13, 0x34, 0xbe, 0x90, 0x7e, 0x28, 0xbe,
  0x64, 0x2e, 0x33, 0x3e, 0x00, 0xdf, 0xdb, 0xbc, 0xd0, 0xb0, 0x02, 0xbd,
  0x00, 0x48, 0x0a, 0xbb, 0x50, 0x8c, 0x44, 0x3d, 0x04, 0xac, 0x3b, 0xbe,
  0x08, 0x15, 0x22, 0xbe, 0xbb, 0x6f, 0x3e, 0xbe, 0x10, 0xff, 0x6c, 0x3c,
  0x90, 0x7b, 0x20, 0x3e, 0x1d, 0xba, 0x02, 0x3e, 0xcd, 0xa1, 0x56, 0x3e,
  0xd4, 0x37, 0x14, 0xbe, 0x52, 0xc8, 0x67, 0xbd, 0x90, 0x1a, 0x50, 0xbd,
  0xa8, 0x3c, 0x40, 0xbe, 0x50, 0x5d, 0x52, 0x3e, 0xe8, 0xf8, 0xf6, 0x3d,
  0x10, 0x36, 0x86, 0xbd, 0xa0, 0x19, 0x3c, 0xbe, 0x68, 0xf6, 0xbe, 0x3d,
  0xe0, 0x19, 0x20, 0xbe, 0x14, 0x34, 0x6c, 0x3e, 0xf0, 0xab, 0xe8, 0xbd,
  0xf0, 0x75, 0x75, 0xbd, 0x58, 0x08, 0xae, 0xbd, 0x2d, 0x3b, 0x12, 0xbe,
  0xa3, 0x71, 0x6c, 0xbe, 0x9c, 0xfa, 0x35, 0x3e, 0x71, 0xe8, 0x32, 0xbe,
  0xe0, 0xba, 0xbf, 0x3c, 0x08, 0x30, 0x01, 0x3e, 0x68, 0xac, 0x58, 0x3e,
  0x98, 0xf5, 0x7e, 0x3e, 0x20, 0x96, 0xb1, 0x3d, 0xbc, 0x7b, 0x3c, 0x3e,
  0xdc, 0xa9, 0x08, 0xbe, 0x80, 0x05, 0xf6, 0x3d, 0xac, 0xf5, 0x6e, 0x3e,
  0xb4, 0x5f, 0x4d, 0xbe, 0x30, 0x33, 0x64, 0xbe, 0x6f, 0x21, 0x36, 0xbe,
  0x20, 0x83, 0x7c, 0xbe, 0x18, 0x43, 0xdb, 0xbd, 0x3c, 0xb2, 0x12, 0x3e,
  0x1c, 0x71, 0x0f, 0x3e, 0x00, 0xd4, 0x0f, 0xbe, 0xed, 0x17, 0x8f, 0x3c,
  0x64, 0xe7, 0x62, 0xbe, 0xb4, 0x35, 0x69, 0xbd, 0x70, 0xd1, 0x4b, 0xbd,
  0xf4, 0xaa, 0x72, 0x3e, 0x70, 0x6e, 0x66, 0xbe, 0x2b, 0x94, 0x87, 0xbe,
  0xf0, 0xd0, 0x4a, 0xbd, 0xfd, 0xae, 0xcf, 0xbd, 0x9c, 0xbf, 0x11, 0xbe,
  0x82, 0xb4, 0x4d, 0xbb, 0x80, 0x28, 0x55, 0xbc, 0xa8, 0xfa, 0x65, 0x3e,
  0xef, 0xe9, 0x0a, 0x3e, 0xa7, 0x85, 0x72, 0x3d, 0x58, 0x88, 0x94, 0x3d,
  0x98, 0x9a, 0xca, 0xbd, 0x2c, 0xaa, 0x9d, 0xbe, 0x07, 0x0e, 0x89, 0xbe,
  0x60, 0x84, 0xc3, 0x3c, 0xa0, 0x6d, 0x87, 0xbd, 0xc7, 0x9a, 0x70, 0xbd,
  0xc8, 0x1c, 0x90, 0xbd, 0x8c, 0x4d, 0x47, 0x3e, 0x91, 0x68, 0x29, 0xbe,
  0x30, 0x42, 0x2f, 0xbe, 0x7e, 0xe3, 0x2b, 0x3e, 0xc0, 0xe7, 0x62, 0x3d,
  0x3b, 0x45, 0x76, 0xbe, 0x46, 0x0c, 0xf4, 0x3a, 0x37, 0x1d, 0x96, 0x3e,
  0xbe, 0x3a, 0xc8, 0x3d, 0x88, 0xa4, 0x9c, 0xbd, 0xe0, 0x34, 0x0c, 0x3e,
  0xc8, 0xeb, 0x2f, 0xbe, 0x84, 0x68, 0x24, 0x3e, 0x74, 0xa4, 0x05, 0xbe,
  0xe0, 0xb2, 0x49, 0x3e, 0xe0, 0x3c, 0x5b, 0xbe, 0x8f, 0x55, 0x71, 0x3d,
  0xc0, 0x41, 0x50, 0xbe, 0x78, 0x9c, 0xb5, 0xbd, 0x40, 0x5f, 0x59, 0x3d,
  0x13, 0xd9, 0xe5, 0x3e, 0x82, 0x13, 0x01, 0x3e, 0x70, 0xe7, 0x35, 0xbe,
  0x16, 0xaa, 0x3e, 0xbe, 0x44, 0xe7, 0x1a, 0xbe, 0x28, 0xc6, 0xd0, 0xbd,
  0x90, 0x7a, 0x01, 0x3e, 0x00, 0x64, 0xc6, 0xbb, 0x83, 0x2e, 0x84, 0x3e,
  0x12, 0x1d, 0xba, 0x3b, 0xcc, 0xa4, 0x47, 0x3e, 0xc0, 0x87, 0x69, 0xbc,
  0x70, 0x8a, 0xf7, 0x3d, 0x90, 0xbb, 0xb7, 0x3d, 0x38, 0xd2, 0x44, 0xbe,
  0x46, 0xb3, 0x7f, 0x3e, 0x58, 0x18, 0xdb, 0xbd, 0x77, 0x67, 0x97, 0x3d,
  0xa0, 0x2e, 0x07, 0x3e, 0x88, 0xe4, 0xec, 0xbd, 0x08, 0x8a, 0x49, 0xbe,
  0x13, 0xa6, 0x3f, 0xbf, 0x04, 0xc6, 0x6b, 0xbe, 0x5a, 0xd0, 0x42, 0xbd,
  0xf0, 0x8e, 0xd1, 0xbd, 0x28, 0x6b, 0x18, 0x3e, 0x38, 0x7b, 0x19, 0x3e,
  0x22, 0x09, 0xf0, 0x3c, 0x00, 0xdf, 0x51, 0x3d, 0x3c, 0x6a, 0x54, 0x3e,
  0x28, 0xeb, 0x7d, 0x3e, 0x6a, 0x82, 0x98, 0x3e, 0x48, 0xc3, 0x32, 0xbe,
  0x20, 0xc6, 0x67, 0xbd, 0x18, 0x86, 0x02, 0x3f, 0x18, 0xf4, 0x2d, 0x3e,
  0x30, 0x74, 0xb4, 0x3d, 0x40, 0x08, 0x55, 0x3d, 0xf7, 0x75, 0x30, 0xbd,
  0x12, 0x90, 0x5f, 0xbd, 0x60, 0x65, 0xf6, 0xbc, 0x72, 0x59, 0x7f, 0x3e,
  0x74, 0x4e, 0x17, 0xbe, 0x6c, 0xbe, 0x18, 0xbe, 0xf4, 0xce, 0x60, 0x3e,
  0xdb, 0x0a, 0x97, 0x3e, 0x79, 0x0f, 0x87, 0x3e, 0x00, 0x72, 0x8b, 0x3e,
  0x8a, 0xdc, 0x09, 0x3e, 0xb5, 0xc3, 0xd1, 0x3d, 0x2d, 0x7e, 0x19, 0x3e,
  0x24, 0x50, 0xd2, 0x3d, 0x29, 0x7a, 0x4d, 0xbe, 0x08, 0x85, 0x19, 0x3e,
  0x00, 0x53, 0xe1, 0x3d, 0x40, 0x7b, 0xe6, 0x3c, 0x90, 0x48, 0xa2, 0xbd,
  0x98, 0x3d, 0xc2, 0xbd, 0xa0, 0x31, 0xa0, 0xbd, 0x80, 0xa1, 0x88, 0xbc,
  0x43, 0x01, 0x43, 0xbe, 0x08, 0x8f, 0x5e, 0x3e, 0x9c, 0x1c, 0x2a, 0xbe,
  0x30, 0xed, 0x39, 0xbd, 0x77, 0x64, 0x92, 0x3e, 0x62, 0xac, 0x31, 0xbc,
  0x80, 0xe4, 0xb9, 0x3d, 0x76, 0x21, 0x8f, 0x3e, 0x90, 0x6a, 0x7e, 0xbd,
  0x90, 0xa9, 0x99, 0x3d, 0x2c, 0x1f, 0x3e, 0x3e, 0x28, 0xc4, 0x27, 0xbe,
  0x5c, 0xd5, 0x04, 0x3e, 0x68, 0x39, 0xe6, 0x3e, 0x48, 0x9d, 0x93, 0xbd,
  0x70, 0x08, 0x5e, 0x3d, 0xc8, 0xbb, 0x97, 0x3d, 0x18, 0x4b, 0xeb, 0xbd,
  0x10, 0x49, 0x1d, 0x3d, 0x48, 0x59, 0x38, 0xbd, 0x04, 0x59, 0x1e, 0xbe,
  0x43, 0x15, 0xc9, 0x3e, 0xb8, 0x37, 0x14, 0x3e, 0x20, 0x7a, 0xaa, 0x3d,
  0x48, 0x9d, 0xf9, 0x3d, 0xee, 0xe2, 0x80, 0xbe, 0x18, 0x31, 0x7d, 0x3e,
  0x5a, 0xad, 0x90, 0x3e, 0xc8, 0x68, 0x09, 0x3e, 0xdc, 0x31, 0x0a, 0x3e,
  0x1c, 0xed, 0x3b, 0x3e, 0x09, 0x03, 0x93, 0x3d, 0xf8, 0x26, 0x02, 0x3e,
  0x06, 0x2b, 0x34, 0x3e, 0x00, 0xca, 0x61, 0x3c, 0x96, 0xd1, 0x80, 0xbd,
  0x24, 0x71, 0x7b, 0xbe, 0x00, 0xb7, 0x37, 0x3b, 0x3c, 0x78, 0x38, 0xbd,
  0x44, 0x90, 0x87, 0x3e, 0xf8, 0x8e, 0xf1, 0x3d, 0x0c, 0xa1, 0x66, 0xbe,
  0x4b, 0xf0, 0xa3, 0xbe, 0x73, 0xa4, 0x58, 0x3e, 0xe0, 0xe1, 0xa2, 0x3c,
  0xf6, 0xd9, 0x80, 0xbd, 0x39, 0x49, 0x6f, 0x3e, 0xb4, 0x4a, 0x58, 0xbe,
  0xc8, 0x4d, 0x58, 0x3e, 0x00, 0xbc, 0x6c, 0xbb, 0xd8, 0xd8, 0x81, 0xbd,
  0x80, 0x1c, 0x27, 0x3c, 0xd4, 0x4b, 0x36, 0xbe, 0x28, 0x7b, 0x3b, 0xbe,
  0xf0, 0xab, 0x92, 0x3d, 0xb8, 0x6d, 0x6d, 0x3e, 0xc8, 0xc0, 0xb0, 0xbd,
  0x8c, 0xa0, 0x7f, 0x3e, 0xb0, 0x04, 0x5f, 0x3e, 0xd0, 0x49, 0xe7, 0x3d,
  0x88, 0x1a, 0xb2, 0x3d, 0x88, 0x03, 0x50, 0x3e, 0x18, 0xde, 0x27, 0x3e,
  0xe0, 0x90, 0x38, 0xbe, 0x00, 0xe3, 0xf2, 0x3c, 0xe8, 0x4a, 0xd1, 0x3d,
  0x8c, 0x79, 0x59, 0xbe, 0x50, 0xc8, 0x2c, 0x3e, 0xb0, 0x59, 0xcd, 0xbd,
  0xd8, 0x09, 0x2a, 0x3e, 0xa8, 0x28, 0xd7, 0xbd, 0xe0, 0x56, 0xc8, 0x3d,
  0x00, 0x51, 0x1a, 0x3c, 0x00, 0xf1, 0x13, 0xbe, 0xd8, 0x48, 0x0a, 0xbe,
  0xd0, 0x6b, 0x8c, 0x3d, 0xf8, 0x3f, 0x7b, 0x3e, 0xa0, 0xd3, 0xda, 0xbc,
  0x60, 0x41, 0x29, 0x3e, 0x58, 0xb5, 0x62, 0xbe, 0xe8, 0x8e, 0xf3, 0xbd,
  0x88, 0x46, 0x9d, 0xbd, 0x10, 0x92, 0x6e, 0x3e, 0x38, 0x13, 0x2c, 0xbe,
  0x34, 0x6f, 0x3d, 0x3e, 0xa8, 0xe2, 0xea, 0xbd, 0x74, 0x34, 0x0d, 0x3e,
  0x20, 0x99, 0x6e, 0xbe, 0x40, 0x5d, 0xd2, 0x3c, 0x98, 0xc3, 0x1d, 0xbe,
  0x48, 0xe6, 0x49, 0x3e, 0xcc, 0xeb, 0x1c, 0xbe, 0x18, 0x08, 0xf3, 0xbd,
  0xf0, 0x1a, 0x2e, 0x3d, 0x14, 0x22, 0x70, 0xbe, 0x78, 0xcc, 0x50, 0xbe,
  0x90, 0x93, 0x0d, 0x3d, 0x18, 0xaf, 0x18, 0x3e, 0x28, 0xef, 0x16, 0x3e,
  0x20, 0xf1, 0xb8, 0xbc, 0x48, 0xc8, 0x06, 0xbe, 0x44, 0xe1, 0x3d, 0x3e,
  0x38, 0xe0, 0x2f, 0xbe, 0x18, 0xfb, 0xf7, 0x3d, 0xc4, 0xf1, 0x64, 0xbe,
  0x74, 0xa6, 0x1e, 0x3e, 0xf8, 0x93, 0xe6, 0x3d, 0x00, 0x91, 0xcd, 0xbd,
  0x10, 0x45, 0xcd, 0x3d, 0x54, 0x67, 0x4d, 0xbe, 0x78, 0xb9, 0x49, 0x3e,
  0xb8, 0xde, 0x56, 0x3e, 0x28, 0x67, 0x1d, 0x3e, 0x58, 0xcc, 0xaa, 0x3d,
  0xa4, 0xda, 0x1a, 0xbe, 0xc0, 0x1d, 0x13, 0xbd, 0x98, 0x64, 0xbf, 0x3d,
  0x50, 0x4c, 0x0d, 0xbe, 0x04, 0xba, 0x14, 0xbe, 0x20, 0x39, 0x98, 0xbc,
  0x00, 0x09, 0x00, 0xbc, 0x18, 0xbe, 0x72, 0xbe, 0x40, 0xdf, 0x83, 0xbc,
  0x04, 0x91, 0x5a, 0x3e, 0x88, 0x50, 0xe9, 0xbd, 0xc0, 0x88, 0xb7, 0x3c,
  0xa8, 0xaa, 0xab, 0xbd, 0xa0, 0xea, 0x49, 0x3e, 0x60, 0x8d, 0xd6, 0x3d,
  0x38, 0x15, 0x81, 0xbd, 0xa8, 0x35, 0x15, 0x3e, 0x78, 0xc6, 0x1a, 0x3e,
  0x70, 0x79, 0x19, 0x3e, 0x10, 0x10, 0xeb, 0xbd, 0x4c, 0x74, 0x09, 0xbe,
  0x70, 0xbe, 0x09, 0x3d, 0x4c, 0x7d, 0x71, 0x3e, 0xa0, 0xf8, 0xb7, 0x3d,
  0x20, 0x08, 0x91, 0xbd, 0x38, 0x1f, 0xd9, 0xbd, 0xa0, 0xa5, 0xf9, 0x3d,
  0x80, 0x8c, 0x2a, 0xbc, 0xe8, 0x06, 0x51, 0x3e, 0xf8, 0xf7, 0x68, 0xbe,
  0x90, 0x7e, 0xea, 0xbd, 0x40, 0xd8, 0x02, 0xbc, 0x78, 0xac, 0xe8, 0x3d,
  0xb0, 0x45, 0xe0, 0xbd, 0xc0, 0xfc, 0x3e, 0x3c, 0xd8, 0x0e, 0x87, 0x3d,
  0x70, 0x1b, 0x96, 0xbd, 0x78, 0x18, 0x72, 0xbe, 0xa4, 0xac, 0x20, 0x3e,
  0x20, 0x9e, 0x42, 0x3d, 0xe0, 0xd3, 0x80, 0x3c, 0x50, 0x19, 0x06, 0xbe,
  0x00, 0xe0, 0xa3, 0x39, 0x40, 0x37, 0x54, 0x3c, 0x44, 0xd5, 0x72, 0x3e,
  0x58, 0xb2, 0xb7, 0xbd, 0x00, 0x90, 0xd4, 0x3d, 0x28, 0xd8, 0x72, 0xbe,
  0x00, 0xdd, 0x18, 0xbd, 0x60, 0x47, 0x11, 0x3d, 0x20, 0x98, 0x50, 0x3e,
  0x5c, 0xef, 0x20, 0xbe, 0xe0, 0xfa, 0xeb, 0xbd, 0xb0, 0x33, 0x5f, 0x3d,
  0xf8, 0x20, 0xd0, 0xbd, 0xb8, 0xc2, 0x6c, 0xbe, 0x9c, 0xef, 0x5e, 0x3e,
  0x28, 0x16, 0x6f, 0x3e, 0x40, 0xe9, 0x0f, 0x3d, 0x44, 0x8b, 0x37, 0xbe,
  0x80, 0x84, 0xea, 0xbb, 0xf4, 0xd9, 0x70, 0xbe, 0x30, 0x41, 0x20, 0xbd,
  0x5b, 0x88, 0x02, 0xbe, 0xb0, 0xd8, 0x3e, 0x3e, 0x38, 0xf8, 0x7a, 0xbe,
  0x9a, 0xf2, 0xc1, 0x3d, 0x11, 0x94, 0x0b, 0xbc, 0xf2, 0xcc, 0x8a, 0xbe,
  0x5d, 0x5a, 0xb5, 0xbd, 0xd0, 0x02, 0xa7, 0xbd, 0x84, 0x2a, 0x3c, 0x3e,
  0x24, 0x56, 0x65, 0xbe, 0xd0, 0xa9, 0x32, 0xbe, 0x1c, 0xfe, 0x19, 0xbe,
  0x00, 0x2d, 0x6c, 0xbb, 0xf8, 0x76, 0xa6, 0x3d, 0xb8, 0x2a, 0x83, 0xbd,
  0x28, 0x7c, 0x30, 0xbe, 0x80, 0x45, 0x2b, 0x3c, 0x30, 0x34, 0x41, 0xbd,
  0x6c, 0x75, 0x3a, 0x3e, 0xa2, 0xfa, 0xb5, 0xbd, 0xae, 0xbd, 0xf4, 0xbc,
  0xa0, 0xbd, 0xa5, 0x3c, 0xe6, 0x1a, 0x21, 0xbe, 0xf0, 0x68, 0x4d, 0xbd,
  0x00, 0x08, 0x31, 0x3e, 0x64, 0x91, 0x06, 0x3e, 0x40, 0xcc, 0xb9, 0xbc,
  0x00, 0xfd, 0xd1, 0xbd, 0xbc, 0xcc, 0x86, 0xbe, 0x08, 0x43, 0x45, 0x3e,
  0x50, 0x14, 0x7c, 0x3d, 0x98, 0x29, 0xd8, 0xbd, 0xe8, 0xca, 0xd7, 0x3d,
  0x38, 0x4d, 0x1b, 0x3e, 0xbd, 0xd5, 0x28, 0x3e, 0xf0, 0x2d, 0xa0, 0x3d,
  0x80, 0x21, 0x77, 0xbd, 0x08, 0xa3, 0x2b, 0x3e, 0x78, 0x5c, 0xdf, 0x3d,
  0xd0, 0xfe, 0x76, 0x3d, 0xf3, 0xa3, 0x41, 0xbe, 0xd0, 0x78, 0x71, 0xbd,
  0x50, 0xed, 0x84, 0xbd, 0x70, 0x9c, 0xa0, 0xbd, 0xc0, 0x5b, 0x42, 0x3e,
  0xb8, 0x73, 0x10, 0xbe, 0xca, 0x0b, 0x6e, 0x3e, 0x60, 0xcd, 0x05, 0xbd,
  0x8a, 0xbe, 0xda, 0xbd, 0xd0, 0x0c, 0x04, 0x3d, 0xec, 0x74, 0xd4, 0x3d,
  0xe0, 0x3a, 0x43, 0x3e, 0x40, 0x17, 0x0a, 0x3e, 0x6c, 0x82, 0x29, 0xbe,
  0xb8, 0xe9, 0xe2, 0xbd, 0x50, 0xef, 0x37, 0xbe, 0x6c, 0xa5, 0x1b, 0xbe,
  0x44, 0xcd, 0x08, 0xbe, 0x27, 0x6f, 0x63, 0xbc, 0x50, 0x6e, 0xb1, 0x3d,
  0x8a, 0x89, 0x04, 0xbe, 0xc3, 0xd3, 0x29, 0x3e, 0x30, 0x16, 0xb1, 0xbd,
  0xb4, 0x6a, 0x69, 0xbe, 0x1c, 0x78, 0x40, 0xbe, 0xd0, 0x1d, 0x05, 0x3e,
  0xe0, 0x48, 0xe5, 0x3c, 0x60, 0x7a, 0x54, 0x3d, 0xa0, 0xea, 0x50, 0x3d,
  0xa4, 0xc4, 0x18, 0xbe, 0x80, 0x37, 0xb4, 0xbd, 0x28, 0x58, 0x5b, 0xbe,
  0xec, 0xb4, 0x30, 0x3e, 0x90, 0x36, 0x5c, 0x3d, 0xa0, 0xad, 0x9a, 0xbd,
  0x10, 0x4e, 0x90, 0x3d, 0x20, 0x32, 0x38, 0xbd, 0x50, 0x1c, 0x33, 0x3e,
  0xb8, 0x32, 0x53, 0x3e, 0xa8, 0x8a, 0xd3, 0xbd, 0xc0, 0x03, 0x0d, 0x3e,
  0x24, 0x87, 0x62, 0xbe, 0x60, 0x79, 0x2a, 0x3e, 0xe0, 0x4d, 0xae, 0xbd,
  0x88, 0xea, 0xdc, 0x3d, 0x30, 0xee, 0xa6, 0x3d, 0x10, 0x6e, 0x85, 0x3d,
  0x40, 0xc8, 0x6c, 0xbe, 0x58, 0x2e, 0x47, 0xbe, 0xc8, 0x0e, 0x87, 0xbd,
  0x20, 0x8e, 0xfb, 0x3c, 0x28, 0x00, 0xc7, 0x3d, 0x08, 0x66, 0xe6, 0x3d,
  0xa8, 0x40, 0x1d, 0x3e, 0x64, 0xa5, 0x69, 0xbe, 0xc0, 0x90, 0xc6, 0xbc,
  0x6c, 0x44, 0x78, 0xbe, 0x80, 0x15, 0x90, 0x3b, 0xc4, 0x7c, 0x4a, 0xbe,
  0x70, 0x8f, 0x47, 0x3e, 0x70, 0x11, 0x9b, 0x3d, 0x84, 0x55, 0x62, 0x3e,
  0xe0, 0x36, 0x6a, 0xbe, 0xb0, 0x9c, 0x3c, 0x3e, 0xa8, 0x94, 0xdf, 0x3d,
  0x40, 0x65, 0x2f, 0xbe, 0x00, 0x39, 0xfb, 0x3d, 0x2c, 0xf0, 0x2f, 0xbe,
  0x10, 0x33, 0x47, 0x3e, 0x94, 0xb0, 0x7f, 0xbe, 0xec, 0xf9, 0x49, 0xbe,
  0x28, 0xc9, 0xe7, 0x3d, 0xc8, 0x25, 0x2e, 0xbe, 0x54, 0xf1, 0x0f, 0x3e,
  0x10, 0x61, 0xf0, 0xbd, 0x00, 0x70, 0xd9, 0xbb, 0x00, 0xf1, 0x16, 0xbc,
  0xe0, 0x01, 0x6a, 0xbe, 0xc0, 0xe3, 0x2e, 0xbe, 0x80, 0xc7, 0x77, 0xbe,
  0x28, 0x7e, 0x7a, 0xbe, 0x40, 0xfc, 0x0a, 0x3c, 0x40, 0x49, 0x07, 0xbd,
  0x80, 0x92, 0x01, 0xbd, 0xa4, 0x4f, 0x4c, 0x3e, 0x50, 0xe1, 0x4c, 0x3e,
  0x10, 0x34, 0x1a, 0xbd, 0xd8, 0xa3, 0xfe, 0x3d, 0x50, 0xf0, 0xb8, 0x3d,
  0x28, 0x10, 0xc0, 0x3d, 0x80, 0xf1, 0xfb, 0xbd, 0x68, 0x67, 0x05, 0x3e,
  0x84, 0x85, 0x59, 0xbe, 0x28, 0x91, 0xfa, 0x3d, 0xd0, 0xab, 0xb4, 0xbd,
  0xd4, 0x18, 0x72, 0xbe, 0xd4, 0x6a, 0x33, 0x3e, 0x40, 0x8f, 0x9c, 0x3c,
  0xc8, 0x5f, 0x9a, 0xbd, 0x10, 0xb3, 0xa6, 0xbd, 0x00, 0x91, 0x1f, 0xbc,
  0x20, 0x91, 0x3c, 0xbd, 0x24, 0x36, 0x4c, 0xbe, 0x20, 0x6c, 0x66, 0x3e,
  0x18, 0x6b, 0x3d, 0xbe, 0x94, 0x26, 0x01, 0xbe, 0xd0, 0x17, 0x17, 0xbd,
  0xa0, 0x83, 0xd3, 0x3d, 0x50, 0xf2, 0x0f, 0x3d, 0x20, 0xbe, 0x34, 0x3d,
  0x00, 0x3c, 0xd8, 0xbc, 0x44, 0x32, 0x7c, 0x3e, 0x00, 0xae, 0x4d, 0x3d,
  0xd0, 0x1a, 0x79, 0xbd, 0xc0, 0xce, 0x2a, 0x3e, 0xfc, 0xfc, 0x0c, 0xbe,
  0x68, 0xef, 0xe5, 0xbd, 0x34, 0xc4, 0x2e, 0xbe, 0x40, 0x2a, 0x34, 0xbc,
  0xd4, 0xb4, 0x36, 0xbe, 0x30, 0xc9, 0xe3, 0x3d, 0xa4, 0x6f, 0x21, 0xbe,
  0xc8, 0x4e, 0x45, 0xbe, 0xa0, 0xe3, 0x9b, 0x3c, 0x04, 0x48, 0x3d, 0xbe,
  0x40, 0xcf, 0x77, 0xbc, 0x00, 0x27, 0x47, 0xbe, 0x3c, 0x45, 0x6b, 0x3e,
  0x80, 0x81, 0xa1, 0xbd, 0x88, 0xe1, 0xec, 0x3d, 0x20, 0x83, 0x8b, 0xbd,
  0x40, 0x73, 0x2d, 0xbe, 0xc8, 0x21, 0x8d, 0xbd, 0xc0, 0xb7, 0xd6, 0xbd,
  0x00, 0xf3, 0xc9, 0x3c, 0x98, 0xfa, 0xfa, 0x3d, 0x3c, 0xd4, 0x51, 0x3e,
  0x00, 0xc0, 0x0a, 0xba, 0x20, 0x41, 0x36, 0xbe, 0x68, 0xef, 0x06, 0xbe,
  0x20, 0xd9, 0x2e, 0xbe, 0xd0, 0xc4, 0xdc, 0xbd, 0x48, 0x47, 0x92, 0xbd,
  0x78, 0x28, 0x0c, 0x3e, 0xc0, 0x98, 0x8b, 0x3c, 0x78, 0x59, 0x19, 0x3e,
  0xa8, 0x41, 0xde, 0x3d, 0xc0, 0xcf, 0x5e, 0x3d, 0x1c, 0x3a, 0x04, 0xbe,
  0x68, 0x81, 0x77, 0x3e, 0x18, 0xd0, 0x6b, 0xbe, 0x84, 0x8e, 0x57, 0xbe,
  0x29, 0x6d, 0x87, 0x3e, 0x96, 0x6b, 0x13, 0xbe, 0xe0, 0x25, 0x4a, 0xbe,
  0x69, 0xa9, 0x0b, 0xbe, 0x12, 0xfe, 0x20, 0xbd, 0x6f, 0x93, 0x9a, 0x3e,
  0x8c, 0xb9, 0x9e, 0xbd, 0xa6, 0x95, 0x48, 0xbd, 0x80, 0xdd, 0x43, 0xbc,
  0x50, 0x57, 0xb7, 0x3d, 0xa0, 0xa6, 0x13, 0xbd, 0xc8, 0x48, 0x08, 0x3e,
  0x58, 0x37, 0x81, 0x3d, 0xa4, 0xe3, 0x23, 0xbe, 0x50, 0xa5, 0x02, 0xbd,
  0x00, 0x9e, 0xe1, 0x3a, 0xb8, 0x7b, 0xd7, 0xbd, 0x3c, 0x42, 0x70, 0x3e,
  0xa0, 0x5e, 0x38, 0xbe, 0xc1, 0x65, 0x53, 0x3d, 0x61, 0xbc, 0x93, 0x3e,
  0x10, 0x2a, 0x0b, 0xbe, 0x18, 0x00, 0x4a, 0xbd, 0x80, 0xbe, 0xe2, 0x3d,
  0x70, 0xed, 0x66, 0x3d, 0x4c, 0xb3, 0x6c, 0xbe, 0xbc, 0x8b, 0x6e, 0xbe,
  0xb4, 0x25, 0x9c, 0x3e, 0xff, 0xa6, 0x78, 0x3d, 0x00, 0xca, 0xef, 0x3c,
  0x44, 0xcb, 0x61, 0xbe, 0x18, 0x16, 0x26, 0x3e, 0x00, 0xb3, 0x96, 0xbb,
  0x54, 0x30, 0x5d, 0xbe, 0x7a, 0x89, 0x5c, 0x3e, 0xa0, 0x24, 0x16, 0x3d,
  0x8a, 0x57, 0x7e, 0x3d, 0xa0, 0x39, 0x93, 0xbc, 0x38, 0x5c, 0x03, 0x3e,
  0x08, 0x55, 0x00, 0x3e, 0x80, 0xf6, 0x88, 0xbe, 0xfc, 0xb3, 0x08, 0x3e,
  0xb9, 0x5d, 0x41, 0x3e, 0xa0, 0xdb, 0x34, 0x3d, 0xa0, 0x8c, 0x7b, 0x3e,
  0xb4, 0x2f, 0x66, 0xbe, 0xd0, 0xbe, 0xf2, 0xbd, 0x40, 0xe8, 0x28, 0x3d,
  0xe1, 0x82, 0xbb, 0x3b, 0x00, 0xcf, 0x3e, 0x3c, 0x54, 0x5b, 0x5d, 0x3e,
  0x60, 0x72, 0x44, 0xbe, 0x20, 0xd3, 0x54, 0x3d, 0x74, 0xa0, 0xea, 0x3e,
  0x10, 0xf8, 0x6f, 0x3e, 0xb8, 0x01, 0xac, 0xbd, 0x30, 0x9c, 0x23, 0xbe,
  0x90, 0x35, 0x2b, 0x3d, 0xad, 0x7e, 0xad, 0x3d, 0x98, 0x3a, 0x1c, 0x3e,
  0xcc, 0x3a, 0x31, 0xbe, 0x08, 0xd3, 0x52, 0x3e, 0x00, 0xac, 0xdf, 0xba,
  0x80, 0x82, 0x46, 0x3e, 0xa8, 0xe5, 0x75, 0xbe, 0x18, 0xa7, 0x28, 0xbe,
  0x80, 0x32, 0x69, 0x3c, 0x90, 0x87, 0x73, 0xbe, 0x20, 0xc5, 0xfd, 0x3c,
  0x44, 0xe9, 0x66, 0xbe, 0x68, 0xf7, 0x1d, 0x3e, 0x70, 0xef, 0x2e, 0xbd,
  0x24, 0x9b, 0x1a, 0xbe, 0x00, 0x6a, 0xa5, 0x3c, 0x20, 0x1d, 0x25, 0x3d,
  0xd4, 0x50, 0x63, 0x3e, 0x8c, 0x62, 0x0d, 0x3e, 0x18, 0xda, 0x01, 0xbe,
  0xb0, 0xc9, 0x9a, 0x3d, 0xec, 0x14, 0x50, 0x3e, 0x00, 0xd5, 0xda, 0x3c,
  0x38, 0xe0, 0x30, 0x3e, 0x20, 0x6d, 0x1a, 0x3e, 0x00, 0xfc, 0xec, 0x3c,
  0xec, 0xbb, 0x65, 0x3e, 0x20, 0xce, 0xce, 0xbd, 0xc0, 0x42, 0x20, 0xbe,
  0xd8, 0x9f, 0x6e, 0xbe, 0xa0, 0xdb, 0x2f, 0xbd, 0x0c, 0x15, 0x1c, 0x3e,
  0xd8, 0xed, 0xac, 0x3d, 0x10, 0x60, 0xb2, 0xbd, 0x80, 0x99, 0x31, 0xbe,
  0x60, 0x82, 0x04, 0x3d, 0x94, 0xdb, 0x62, 0x3e, 0x28, 0x2a, 0x4b, 0x3e,
  0xdc, 0x54, 0x4f, 0x3e, 0x5c, 0xaa, 0x7d, 0xbe, 0x40, 0x80, 0xc6, 0xbd,
  0x18, 0x64, 0x1f, 0x3e, 0x50, 0xaf, 0x0f, 0x3d, 0xc0, 0x86, 0x7d, 0x3e,
  0x40, 0x48, 0xe8, 0xbc, 0x50, 0xa7, 0x1e, 0x3e, 0xd8, 0xf9, 0x2c, 0x3e,
  0x00, 0x1e, 0x98, 0x3b, 0xa8, 0x75, 0xcb, 0x3d, 0xa8, 0x2d, 0x94, 0xbd,
  0x24, 0x08, 0x47, 0x3e, 0x20, 0x6e, 0x32, 0x3e, 0x00, 0x4b, 0x25, 0x3b,
  0x28, 0x22, 0x22, 0xbe, 0x40, 0xe2, 0x89, 0x3c, 0xc8, 0x46, 0xc4, 0xbd,
  0xb8, 0x20, 0x9a, 0x3d, 0xa0, 0xd8, 0x53, 0xbe, 0xe0, 0x5c, 0x4c, 0x3d,
  0xcc, 0xb8, 0x44, 0x3e, 0x80, 0x2a, 0x89, 0xbc, 0x00, 0xd0, 0x60, 0x3e,
  0x78, 0x3a, 0x5f, 0x3e, 0xd0, 0x0c, 0x4f, 0xbd, 0xe0, 0xe7, 0xb8, 0xbc,
  0x80, 0x7b, 0x8c, 0xbd, 0x38, 0x25, 0xfa, 0x3d, 0xd4, 0xb0, 0x69, 0x3e,
  0xb0, 0x1c, 0x66, 0x3e, 0x20, 0x76, 0x4c, 0x3d, 0xb0, 0x17, 0xb2, 0x3d,
  0xf0, 0x7f, 0x4f, 0xbd, 0x80, 0xf5, 0xe6, 0xbc, 0xe0, 0xa2, 0xa8, 0xbc,
  0x40, 0x9a, 0xcf, 0x3c, 0xb0, 0xb9, 0xba, 0xbd, 0xf8, 0x4b, 0xc3, 0xbd,
  0x94, 0xd7, 0x3e, 0x3e, 0xcc, 0xa9, 0x4e, 0x3e, 0xf0, 0xf3, 0xb6, 0xbd,
  0xdc, 0xc0, 0x73, 0x3e, 0x20, 0xbc, 0x98, 0xbd, 0xc0, 0xd8, 0x5e, 0xbc,
  0x60, 0xee, 0xfa, 0x3d, 0x68, 0x46, 0x03, 0x3e, 0x30, 0xa3, 0x02, 0x3d,
  0xf8, 0xec, 0x11, 0xbe, 0x00, 0xe8, 0x4a, 0x3a, 0x80, 0x7b, 0x0e, 0xbc,
  0x70, 0xe0, 0xab, 0x3d, 0x68, 0x52, 0xe8, 0x3d, 0xa4, 0xfd, 0x74, 0xbe,
  0x38, 0xf6, 0x34, 0x3e, 0x68, 0x02, 0xc3, 0x3d, 0x64, 0x2b, 0x25, 0xbe,
  0x40, 0x9a, 0xe0, 0xbd, 0xe0, 0x32, 0xdb, 0xbd, 0xa0, 0xae, 0x5b, 0x3e,
  0x10, 0x46, 0xbb, 0xbd, 0xa0, 0xec, 0xe4, 0x3d, 0xa8, 0x9a, 0x28, 0xbe,
  0x24, 0x2e, 0x08, 0x3e, 0x7c, 0xb9, 0x0f, 0xbe, 0xf0, 0x14, 0x47, 0x3e,
  0xc0, 0x09, 0x20, 0xbc, 0x10, 0xe7, 0xca, 0x3d, 0x70, 0x82, 0xae, 0x3d,
  0x68, 0x6d, 0x7b, 0xbe, 0x88, 0xf6, 0x1d, 0xbe, 0xc0, 0xad, 0x23, 0xbe,
  0xe0, 0x78, 0x76, 0x3e, 0x80, 0xa9, 0x80, 0x3d, 0x04, 0xad, 0x58, 0xbe,
  0xe0, 0x26, 0x2c, 0x3d, 0xf4, 0xc8, 0x67, 0x3e, 0xa0, 0xcd, 0x67, 0x3d,
  0x1c, 0xa7, 0x7e, 0x3e, 0xd0, 0x5e, 0xea, 0x3d, 0x18, 0x3d, 0x55, 0xbe,
  0xc0, 0xc3, 0x2b, 0xbc, 0x18, 0x29, 0xd5, 0x3d, 0x88, 0x6b, 0x61, 0xbe,
  0xf4, 0x67, 0x34, 0x3e, 0x70, 0x81, 0x9b, 0xbd, 0xc4, 0xf0, 0x5c, 0xbe,
  0x30, 0x29, 0x3d, 0xbe, 0x40, 0x81, 0x5a, 0x3e, 0x00, 0x05, 0xef, 0xbc,
  0xc0, 0x27, 0x11, 0xbc, 0x70, 0x49, 0xde, 0x3d, 0xb4, 0x49, 0x28, 0xbe,
  0xbc, 0x1a, 0x3d, 0xbe, 0xd0, 0xc4, 0xa8, 0xbd, 0x6a, 0xfa, 0xff, 0xff,
  0x04, 0x00, 0x00, 0x00, 0x00, 0x03, 0x00, 0x00, 0x50, 0x52, 0x6e, 0x3e,
  0xb0, 0xe2, 0x94, 0xbe, 0x21, 0xd9, 0x60, 0xbe, 0xfa, 0x8f, 0xe9, 0x3c,
  0x28, 0xc8, 0x03, 0x3d, 0x03, 0xa7, 0xb2, 0x3e, 0x31, 0xb5, 0x95, 0x3e,
  0x0f, 0xe0, 0x2c, 0xbc, 0xe1, 0xa1, 0x4b, 0xbd, 0xed, 0x06, 0xde, 0x3d,
  0xd7, 0x66, 0x02, 0x3e, 0x85, 0xb2, 0x2a, 0xbe, 0x27, 0x19, 0x3f, 0x3e,
  0x61, 0x9d, 0x3a, 0xbd, 0xdf, 0x68, 0x1d, 0x3d, 0x67, 0xeb, 0xde, 0x3e,
  0xf6, 0xc9, 0x9c, 0xbd, 0x60, 0x87, 0x4f, 0x3d, 0x85, 0xe0, 0x1d, 0xbe,
  0x42, 0xb7, 0x20, 0xbd, 0xe9, 0xd6, 0x01, 0x3e, 0x09, 0x7e, 0x85, 0x3e,
  0x73, 0x73, 0x17, 0xbc, 0x72, 0x03, 0x0d, 0x3e, 0x00, 0x66, 0x86, 0x3d,
  0x98, 0x01, 0x6a, 0xbe, 0x40, 0xbc, 0x14, 0x3e, 0xdc, 0x19, 0xe3, 0x3d,
  0x40, 0x9c, 0x14, 0xbc, 0xaa, 0xd0, 0x79, 0xbe, 0x5b, 0x65, 0x20, 0xbe,
  0xfe, 0x93, 0x49, 0x3e, 0x1c, 0x75, 0x88, 0xbe, 0xe4, 0x26, 0x60, 0x3e,
  0xc8, 0x75, 0x79, 0xbe, 0x18, 0x79, 0x24, 0xbe, 0xa8, 0x46, 0xad, 0xbd,
  0x06, 0x79, 0xaf, 0xbd, 0x9e, 0x5e, 0xa8, 0xbd, 0x40, 0x28, 0x65, 0x3e,
  0x54, 0x97, 0x96, 0xbe, 0x1e, 0xbc, 0x59, 0xbe, 0xa3, 0xa5, 0x7a, 0xbe,
  0x02, 0x89, 0xf9, 0xbd, 0x56, 0xd8, 0x2f, 0x3e, 0xe8, 0x1c, 0x87, 0x3d,
  0x80, 0x52, 0x63, 0x3d, 0x10, 0xcc, 0x8b, 0xbe, 0x53, 0xd6, 0x18, 0x3e,
  0x5b, 0x62, 0x3a, 0xbe, 0x2c, 0x6f, 0xa0, 0xbb, 0x28, 0x12, 0x61, 0xbe,
  0xb5, 0xc9, 0x1d, 0xbe, 0x91, 0x49, 0x43, 0xbe, 0x4f, 0x57, 0x46, 0xbe,
  0x24, 0xc6, 0x5a, 0xbd, 0xfd, 0x6e, 0x19, 0xbe, 0xad, 0x35, 0x78, 0xbe,
  0xc9, 0x13, 0x81, 0xbe, 0xb0, 0x7e, 0x85, 0xbc, 0x2d, 0xee, 0x91, 0x3c,
  0xc5, 0x10, 0x3a, 0xbe, 0xe5, 0x54, 0x86, 0x3e, 0xc1, 0xf1, 0xb1, 0xbe,
  0xa0, 0xd5, 0x71, 0x3e, 0x55, 0x22, 0x7e, 0x3e, 0xd6, 0x8e, 0x7f, 0xbe,
  0xd0, 0x0e, 0x38, 0x3e, 0x67, 0x25, 0x8d, 0xbe, 0x1d, 0x11, 0x9e, 0x3e,
  0x7b, 0x7f, 0x5c, 0xbe, 0x53, 0x1c, 0x3c, 0x3e, 0x0e, 0x50, 0x5b, 0xbe,
  0x63, 0x4b, 0x1f, 0xbe, 0xfd, 0x60, 0x7b, 0xbe, 0x04, 0xd3, 0x14, 0x3e,
  0x60, 0x95, 0x9d, 0xbc, 0x4c, 0x9e, 0x74, 0xbe, 0x20, 0x3a, 0x57, 0xbe,
  0x5c, 0x25, 0x30, 0xbe, 0x84, 0x9e, 0x2e, 0x3e, 0xa8, 0x76, 0x7f, 0x3e,
  0x51, 0x4c, 0x29, 0xbe, 0x78, 0x15, 0x52, 0xbe, 0x87, 0x74, 0xea, 0xbd,
  0x5b, 0xcf, 0x35, 0x3d, 0x0a, 0x05, 0x80, 0x3d, 0xe3, 0x03, 0xad, 0x3e,
  0xe6, 0x3f, 0xa7, 0xbe, 0xb3, 0x29, 0x76, 0x3e, 0xcc, 0xa2, 0x9d, 0x3d,
  0xf4, 0x92, 0x38, 0xbe, 0x38, 0xc0, 0x52, 0xbd, 0xb8, 0xfd, 0x61, 0x3d,
  0x70, 0x10, 0xde, 0x3c, 0xd8, 0xf7, 0x88, 0xbe, 0xff, 0xb7, 0x47, 0xbe,
  0x30, 0x77, 0x1a, 0xbd, 0x26, 0xed, 0x32, 0xbe, 0xc8, 0x87, 0xfa, 0x3d,
  0x36, 0xe3, 0x48, 0x3e, 0x11, 0x90, 0x85, 0xbe, 0x90, 0xe9, 0x96, 0x3c,
  0x80, 0x63, 0x68, 0x3b, 0x90, 0xb3, 0xfa, 0xbc, 0x91, 0x6f, 0x80, 0xbd,
  0x80, 0x7e, 0x31, 0x3e, 0x85, 0xca, 0xab, 0x3e, 0xcc, 0xb5, 0x7f, 0x3e,
  0x73, 0xbb, 0x69, 0xbe, 0xcd, 0xc7, 0x13, 0xbe, 0x9d, 0xa3, 0x3d, 0xbe,
  0xb3, 0x6a, 0x0b, 0x3e, 0xfa, 0x4e, 0x26, 0x3d, 0x20, 0xb1, 0xa0, 0x3d,
  0x38, 0xd1, 0x3e, 0x3d, 0x29, 0x93, 0x67, 0xbe, 0x70, 0x4d, 0x6b, 0x3e,
  0xab, 0x6e, 0x2c, 0xbe, 0x40, 0x2b, 0x35, 0xbe, 0xb7, 0x5d, 0x53, 0xbe,
  0xb0, 0x5a, 0x14, 0xbd, 0x28, 0xf0, 0x0b, 0x3d, 0xea, 0x5e, 0x79, 0x3e,
  0x6a, 0x01, 0x88, 0x3e, 0xe3, 0x15, 0xc0, 0xbe, 0x62, 0x87, 0x43, 0x3e,
  0xca, 0x4c, 0xcc, 0xbd, 0x7e, 0xd5, 0xdc, 0xbd, 0xda, 0x2c, 0x58, 0x3e,
  0x1c, 0x64, 0x78, 0xbe, 0xad, 0x36, 0x38, 0x3e, 0x98, 0xaa, 0x07, 0x3d,
  0xf0, 0x36, 0x54, 0xbe, 0xe0, 0x17, 0x6b, 0x3c, 0x09, 0x20, 0x1a, 0xbe,
  0xc0, 0x2e, 0x87, 0x3b, 0x21, 0x51, 0x80, 0xbe, 0x40, 0xc8, 0xe9, 0x3d,
  0x7b, 0xab, 0x29, 0xbe, 0x73, 0x10, 0x84, 0xbe, 0xcb, 0x21, 0x20, 0x3c,
  0x7e, 0x55, 0x37, 0x3e, 0xbf, 0x20, 0x3a, 0xbe, 0x20, 0x97, 0x62, 0xbe,
  0x9c, 0x80, 0x62, 0xbe, 0xe8, 0xc7, 0x94, 0xbe, 0xa0, 0x35, 0x46, 0x3e,
  0x5d, 0x31, 0x65, 0x3e, 0xeb, 0x93, 0x1e, 0x3e, 0x74, 0x4a, 0xf8, 0xbd,
  0x3e, 0x18, 0x89, 0x3e, 0x9a, 0xf2, 0x0b, 0xbe, 0x46, 0x17, 0x3a, 0xbe,
  0xe1, 0x62, 0x69, 0xbb, 0x9a, 0x5a, 0x9b, 0x3e, 0x0c, 0x01, 0x1c, 0xbe,
  0x4c, 0x09, 0xc4, 0xbd, 0x00, 0xf5, 0x4b, 0x3c, 0xd4, 0x7b, 0x5c, 0x3e,
  0xe6, 0x6d, 0x49, 0xbe, 0xf7, 0xbb, 0x88, 0xbe, 0x43, 0x34, 0x86, 0xbe,
  0x22, 0xc9, 0x0f, 0x3b, 0x04, 0xc5, 0xa5, 0x3e, 0xef, 0x41, 0xc3, 0x3d,
  0x21, 0x20, 0x8a, 0xbd, 0x14, 0x7c, 0x62, 0x3e, 0x3c, 0x92, 0xfe, 0x3d,
  0xdc, 0x87, 0x81, 0xbe, 0x42, 0xd5, 0x8b, 0xbe, 0x30, 0xee, 0x8a, 0x3c,
  0xcc, 0x58, 0x47, 0x3e, 0xbe, 0xc3, 0x85, 0xbe, 0x48, 0x6d, 0xde, 0xbe,
  0x1e, 0xa5, 0xaf, 0x3e, 0x1f, 0xe4, 0xb1, 0x3d, 0x01, 0xa8, 0x10, 0xbe,
  0xe9, 0x34, 0xb8, 0x3d, 0xad, 0x21, 0x5e, 0x3e, 0x24, 0x91, 0x3a, 0xbe,
  0x90, 0x5d, 0x6f, 0x3e, 0x8f, 0xbe, 0x11, 0xbe, 0x36, 0xca, 0x2e, 0xbe,
  0x9e, 0x96, 0xdc, 0x3d, 0xc4, 0xd1, 0x66, 0x3e, 0x58, 0x19, 0x05, 0x3e,
  0x98, 0x69, 0x9d, 0xbd, 0x5d, 0x41, 0xf0, 0x3d, 0x2e, 0x2b, 0x7e, 0x3e,
  0xcf, 0x10, 0x9d, 0x3d, 0x6b, 0x6b, 0x90, 0xbe, 0x76, 0xfd, 0xff, 0xff,
  0x04, 0x00, 0x00, 0x00, 0x00, 0x01, 0x00, 0x00, 0x00, 0x00, 0x00, 0x00,
  0xc2, 0x50, 0x95, 0xbd, 0xaa, 0xe4, 0x48, 0x3c, 0xcf, 0x4c, 0x9e, 0xbc,
  0x85, 0xdc, 0x73, 0xbd, 0x83, 0xc0, 0x88, 0xbd, 0x36, 0x3b, 0xab, 0xbc,
  0x59, 0xc2, 0x56, 0xbe, 0x16, 0x00, 0x68, 0xbd, 0x00, 0x00, 0x00, 0x00,
  0x00, 0x00, 0x00, 0x00, 0x00, 0x00, 0x00, 0x00, 0x00, 0x00, 0x00, 0x00,
  0x00, 0x00, 0x00, 0x00, 0x00, 0x00, 0x00, 0x00, 0x00, 0x00, 0x00, 0x00,
  0xa2, 0x72, 0x43, 0xbc, 0x00, 0x00, 0x00, 0x00, 0x00, 0x00, 0x00, 0x00,
  0x00, 0x00, 0x00, 0x00, 0xa3, 0x30, 0xe2, 0xbd, 0x67, 0x95, 0x91, 0xbd,
  0x00, 0x00, 0x00, 0x00, 0x81, 0xe8, 0xb0, 0xbd, 0x00, 0x00, 0x00, 0x00,
  0x00, 0x00, 0x00, 0x00, 0x00, 0x00, 0x00, 0x00, 0x00, 0x00, 0x00, 0x00,
  0x74, 0x78, 0x01, 0xbd, 0x17, 0x64, 0xee, 0xbd, 0x00, 0x00, 0x00, 0x00,
  0x00, 0x00, 0x00, 0x00, 0x00, 0x00, 0x00, 0x00, 0x00, 0x00, 0x00, 0x00,
  0x00, 0x00, 0x00, 0x00, 0xf2, 0x58, 0xce, 0xbd, 0x00, 0x00, 0x00, 0x00,
  0xb7, 0xa9, 0xc6, 0xbc, 0x00, 0x00, 0x00, 0x00, 0x00, 0x00, 0x00, 0x00,
  0x00, 0x00, 0x00, 0x00, 0x05, 0x5a, 0x8a, 0x3d, 0x00, 0x00, 0x00, 0x00,
  0xb7, 0xb0, 0xb6, 0xbd, 0x00, 0x00, 0x00, 0x00, 0x00, 0x00, 0x00, 0x00,
  0x00, 0x00, 0x00, 0x00, 0x71, 0x26, 0xab, 0x3c, 0x00, 0x00, 0x00, 0x00,
  0x2d, 0xa5, 0xfa, 0xbd, 0x00, 0x00, 0x00, 0x00, 0xfb, 0x23, 0x89, 0xbd,
  0x00, 0x00, 0x00, 0x00, 0x00, 0x00, 0x00, 0x00, 0x69, 0x83, 0x6a, 0xbd,
  0x2d, 0xb2, 0x99, 0xbd, 0x00, 0x00, 0x00, 0x00, 0x00, 0x00, 0x00, 0x00,
  0xd7, 0x9a, 0xbe, 0x3c, 0xd8, 0xcc, 0xc8, 0xbd, 0x00, 0x00, 0x00, 0x00,
  0x68, 0x20, 0x98, 0xbd, 0xa1, 0x5a, 0xc5, 0xbd, 0x4d, 0x9b, 0x2e, 0xbc,
  0x82, 0xfe, 0xff, 0xff, 0x04, 0x00, 0x00, 0x00, 0x40, 0x00, 0x00, 0x00,
  0xc2, 0xb5, 0xe4, 0xbc, 0x02, 0xfd, 0xb3, 0x3c, 0xc2, 0x11, 0xab, 0x3d,
  0x6d, 0xcc, 0x9c, 0xb9, 0x9c, 0x0e, 0x31, 0xbd, 0x28, 0xb2, 0x68, 0xbd,
  0x0f, 0x1c, 0x22, 0xbd, 0x00, 0x00, 0x00, 0x00, 0x80, 0x51, 0xf2, 0x3c,
  0xba, 0xca, 0x4d, 0xbd, 0xda, 0xbb, 0x9b, 0xbc, 0x9f, 0xda, 0x2c, 0x3d,
  0xb8, 0x8f, 0xa8, 0x3d, 0x00, 0x00, 0x00, 0x00, 0x4c, 0xe6, 0x18, 0xbc,
  0x9a, 0x66, 0xad, 0xbd, 0xce, 0xfe, 0xff, 0xff, 0x04, 0x00, 0x00, 0x00,
  0x80, 0x00, 0x00, 0x00, 0x00, 0x00, 0x00, 0x00, 0x00, 0x00, 0x00, 0x00,
  0x75, 0xca, 0x7d, 0xbd, 0x2f, 0x21, 0xb9, 0xbc, 0xcb, 0x65, 0x68, 0xbc,
  0xa4, 0xab, 0xa4, 0xbd, 0xcf, 0xd0, 0x50, 0xbc, 0xbe, 0x8a, 0x24, 0xbd,
  0x00, 0x00, 0x00, 0x00, 0x0c, 0x39, 0xc5, 0x3d, 0x00, 0x00, 0x00, 0x00,
  0x28, 0x5c, 0xe8, 0x39, 0xd5, 0xcf, 0xa6, 0xbd, 0xb1, 0xa8, 0xee, 0xbd,
  0x01, 0x8c, 0x64, 0xbd, 0x91, 0x22, 0xff, 0xbc, 0xd6, 0xb5, 0xc4, 0xbb,
  0x00, 0x00, 0x00, 0x00, 0x00, 0x00, 0x00, 0x00, 0x8d, 0xdd, 0xa7, 0xbb,
  0x00, 0x00, 0x00, 0x00, 0x17, 0x0d, 0x29, 0xbd, 0xde, 0xf0, 0xad, 0xbd,
  0x68, 0x9a, 0x6a, 0xbd, 0x00, 0x00, 0x00, 0x00, 0x00, 0x00, 0x00, 0x00,
  0x8b, 0x37, 0x63, 0xbc, 0x00, 0x00, 0x00, 0x00, 0x00, 0x00, 0x00, 0x00,
  0xb2, 0x46, 0x40, 0xbd, 0x00, 0x00, 0x00, 0x00, 0x00, 0x00, 0x00, 0x00,
  0x5a, 0xff, 0xff, 0xff, 0x04, 0x00, 0x00, 0x00, 0x0c, 0x00, 0x00, 0x00,
  0xa6, 0x7e, 0x51, 0xbd, 0x6e, 0x2d, 0x82, 0xbd, 0xa4, 0x1e, 0xb5, 0x3d,
  0x72, 0xff, 0xff, 0xff, 0x04, 0x00, 0x00, 0x00, 0x80, 0x00, 0x00, 0x00,
  0x99, 0x67, 0x54, 0x3c, 0x00, 0x00, 0x00, 0x00, 0x92, 0x06, 0xc2, 0xbc,
  0x71, 0xe7, 0x01, 0xbd, 0x0e, 0x0b, 0x91, 0xbd, 0xb9, 0x56, 0x18, 0xbe,
  0x00, 0x00, 0x00, 0x00, 0xa2, 0xa7, 0x6f, 0xbd, 0x00, 0x00, 0x00, 0x00,
  0x7d, 0xf8, 0x85, 0xbd, 0xfd, 0x0c, 0x02, 0xbd, 0xe0, 0xbb, 0x01, 0xbd,
  0x00, 0x00, 0x00, 0x00, 0x11, 0x08, 0x24, 0x3d, 0x61, 0x07, 0x23, 0x3d,
  0xad, 0x61, 0x26, 0x3d, 0x4d, 0xcd, 0x0d, 0x3e, 0x00, 0x00, 0x00, 0x00,
  0x98, 0xa9, 0xc4, 0x3b, 0x00, 0x00, 0x00, 0x00, 0x00, 0x00, 0x00, 0x00,
  0xdd, 0x72, 0x76, 0xbd, 0xe3, 0x19, 0x86, 0xbc, 0x46, 0xdd, 0xcd, 0xbd,
  0x4e, 0xaa, 0x9e, 0xbc, 0xc6, 0x05, 0x20, 0xbd, 0xaa, 0x2c, 0x06, 0x3d,
  0x91, 0xad, 0x7c, 0x3d, 0x00, 0x00, 0x00, 0x00, 0xc1, 0x55, 0xcb, 0x3c,
  0xdb, 0x41, 0x2e, 0x3d, 0xf0, 0x94, 0x9e, 0xbd, 0x00, 0x00, 0x06, 0x00,
  0x08, 0x00, 0x04, 0x00, 0x06, 0x00, 0x00, 0x00, 0x04, 0x00, 0x00, 0x00,
  0x40, 0x00, 0x00, 0x00, 0x5e, 0xbc, 0x27, 0xbc, 0x00, 0x00, 0x00, 0x00,
  0x8f, 0xe9, 0x23, 0xbd, 0x6b, 0x84, 0xfa, 0xbc, 0x00, 0x00, 0x00, 0x00,
  0x31, 0x12, 0x39, 0xbd, 0x00, 0x00, 0x00, 0x00, 0xa6, 0xe0, 0x53, 0x39,
  0x00, 0x00, 0x00, 0x00, 0x0e, 0xe2, 0xd7, 0x3d, 0xc6, 0x7a, 0xf8, 0xbc,
  0xac, 0x49, 0xf0, 0x3c, 0x76, 0xe3, 0x1e, 0xbd, 0x38, 0xa9, 0x86, 0x3b,
  0x5f, 0xd5, 0x00, 0x3c, 0x01, 0x7c, 0xf4, 0x3c, 0xcc, 0xf4, 0xff, 0xff,
  0xd0, 0xf4, 0xff, 0xff, 0x0f, 0x00, 0x00, 0x00, 0x4d, 0x4c, 0x49, 0x52,
  0x20, 0x43, 0x6f, 0x6e, 0x76, 0x65, 0x72, 0x74, 0x65, 0x64, 0x2e, 0x00,
  0x01, 0x00, 0x00, 0x00, 0x14, 0x00, 0x00, 0x00, 0x00, 0x00, 0x0e, 0x00,
  0x18, 0x00, 0x14, 0x00, 0x10, 0x00, 0x0c, 0x00, 0x08, 0x00, 0x04, 0x00,
  0x0e, 0x00, 0x00, 0x00, 0x14, 0x00, 0x00, 0x00, 0x1c, 0x00, 0x00, 0x00,
  0xb0, 0x01, 0x00, 0x00, 0xb4, 0x01, 0x00, 0x00, 0xb8, 0x01, 0x00, 0x00,
  0x04, 0x00, 0x00, 0x00, 0x6d, 0x61, 0x69, 0x6e, 0x00, 0x00, 0x00, 0x00,
  0x07, 0x00, 0x00, 0x00, 0x58, 0x01, 0x00, 0x00, 0x10, 0x01, 0x00, 0x00,
  0xd8, 0x00, 0x00, 0x00, 0xa0, 0x00, 0x00, 0x00, 0x68, 0x00, 0x00, 0x00,
  0x34, 0x00, 0x00, 0x00, 0x10, 0x00, 0x00, 0x00, 0x00, 0x00, 0x0a, 0x00,
  0x10, 0x00, 0x0c, 0x00, 0x08, 0x00, 0x04, 0x00, 0x0a, 0x00, 0x00, 0x00,
  0x0c, 0x00, 0x00, 0x00, 0x10, 0x00, 0x00, 0x00, 0x01, 0x00, 0x00, 0x00,
  0x01, 0x00, 0x00, 0x00, 0x13, 0x00, 0x00, 0x00, 0x01, 0x00, 0x00, 0x00,
  0x12, 0x00, 0x00, 0x00, 0xfe, 0xfe, 0xff, 0xff, 0x10, 0x00, 0x00, 0x00,
  0x00, 0x00, 0x00, 0x08, 0x0c, 0x00, 0x00, 0x00, 0x10, 0x00, 0x00, 0x00,
  0x84, 0xf5, 0xff, 0xff, 0x01, 0x00, 0x00, 0x00, 0x12, 0x00, 0x00, 0x00,
  0x03, 0x00, 0x00, 0x00, 0x11, 0x00, 0x00, 0x00, 0x0c, 0x00, 0x00, 0x00,
  0x03, 0x00, 0x00, 0x00, 0x2e, 0xff, 0xff, 0xff, 0x10, 0x00, 0x00, 0x00,
  0x00, 0x00, 0x00, 0x08, 0x10, 0x00, 0x00, 0x00, 0x14, 0x00, 0x00, 0x00,
  0x1e, 0xff, 0xff, 0xff, 0x00, 0x00, 0x00, 0x01, 0x01, 0x00, 0x00, 0x00,
  0x11, 0x00, 0x00, 0x00, 0x03, 0x00, 0x00, 0x00, 0x10, 0x00, 0x00, 0x00,
  0x0b, 0x00, 0x00, 0x00, 0x02, 0x00, 0x00, 0x00, 0x62, 0xff, 0xff, 0xff,
  0x10, 0x00, 0x00, 0x00, 0x00, 0x00, 0x00, 0x08, 0x10, 0x00, 0x00, 0x00,
  0x14, 0x00, 0x00, 0x00, 0x52, 0xff, 0xff, 0xff, 0x00, 0x00, 0x00, 0x01,
  0x01, 0x00, 0x00, 0x00, 0x10, 0x00, 0x00, 0x00, 0x03, 0x00, 0x00, 0x00,
  0x0f, 0x00, 0x00, 0x00, 0x0a, 0x00, 0x00, 0x00, 0x01, 0x00, 0x00, 0x00,
  0x96, 0xff, 0xff, 0xff, 0x10, 0x00, 0x00, 0x00, 0x00, 0x00, 0x00, 0x08,
  0x10, 0x00, 0x00, 0x00, 0x14, 0x00, 0x00, 0x00, 0x86, 0xff, 0xff, 0xff,
  0x00, 0x00, 0x00, 0x01, 0x01, 0x00, 0x00, 0x00, 0x0f, 0x00, 0x00, 0x00,
  0x03, 0x00, 0x00, 0x00, 0x0e, 0x00, 0x00, 0x00, 0x09, 0x00, 0x00, 0x00,
  0x05, 0x00, 0x00, 0x00, 0xca, 0xff, 0xff, 0xff, 0x10, 0x00, 0x00, 0x00,
  0x00, 0x00, 0x00, 0x08, 0x10, 0x00, 0x00, 0x00, 0x14, 0x00, 0x00, 0x00,
  0xba, 0xff, 0xff, 0xff, 0x00, 0x00, 0x00, 0x01, 0x01, 0x00, 0x00, 0x00,
  0x0e, 0x00, 0x00, 0x00, 0x03, 0x00, 0x00, 0x00, 0x0d, 0x00, 0x00, 0x00,
