#ifndef MODELS/AUTOENCODER/AUTOENCODER_MODEL_H
#define MODELS/AUTOENCODER/AUTOENCODER_MODEL_H


unsigned int Models/Autoencoder/autoencoder_model_len = 9448;
unsigned char Models/Autoencoder/autoencoder_model[] = {
 0x1c, 0x00, 0x00, 0x00, 0x54, 0x46, 0x4c, 0x33, 0x14, 0x00, 0x20, 0x00,
  0x1c, 0x00, 0x18, 0x00, 0x14, 0x00, 0x10, 0x00, 0x0c, 0x00, 0x00, 0x00,
  0x08, 0x00, 0x04, 0x00, 0x14, 0x00, 0x00, 0x00, 0x1c, 0x00, 0x00, 0x00,
  0x84, 0x00, 0x00, 0x00, 0xdc, 0x00, 0x00, 0x00, 0xd4, 0x1a, 0x00, 0x00,
  0xe4, 0x1a, 0x00, 0x00, 0x84, 0x24, 0x00, 0x00, 0x03, 0x00, 0x00, 0x00,
  0x01, 0x00, 0x00, 0x00, 0x04, 0x00, 0x00, 0x00, 0xd6, 0xe4, 0xff, 0xff,
  0x0c, 0x00, 0x00, 0x00, 0x1c, 0x00, 0x00, 0x00, 0x3c, 0x00, 0x00, 0x00,
  0x0f, 0x00, 0x00, 0x00, 0x73, 0x65, 0x72, 0x76, 0x69, 0x6e, 0x67, 0x5f,
  0x64, 0x65, 0x66, 0x61, 0x75, 0x6c, 0x74, 0x00, 0x01, 0x00, 0x00, 0x00,
  0x04, 0x00, 0x00, 0x00, 0x98, 0xff, 0xff, 0xff, 0x10, 0x00, 0x00, 0x00,
  0x04, 0x00, 0x00, 0x00, 0x08, 0x00, 0x00, 0x00, 0x6f, 0x75, 0x74, 0x70,
  0x75, 0x74, 0x5f, 0x31, 0x00, 0x00, 0x00, 0x00, 0x01, 0x00, 0x00, 0x00,
  0x04, 0x00, 0x00, 0x00, 0xee, 0xe5, 0xff, 0xff, 0x04, 0x00, 0x00, 0x00,
  0x07, 0x00, 0x00, 0x00, 0x69, 0x6e, 0x70, 0x75, 0x74, 0x5f, 0x31, 0x00,
  0x02, 0x00, 0x00, 0x00, 0x34, 0x00, 0x00, 0x00, 0x04, 0x00, 0x00, 0x00,
  0xdc, 0xff, 0xff, 0xff, 0x13, 0x00, 0x00, 0x00, 0x04, 0x00, 0x00, 0x00,
  0x13, 0x00, 0x00, 0x00, 0x43, 0x4f, 0x4e, 0x56, 0x45, 0x52, 0x53, 0x49,
  0x4f, 0x4e, 0x5f, 0x4d, 0x45, 0x54, 0x41, 0x44, 0x41, 0x54, 0x41, 0x00,
  0x08, 0x00, 0x0c, 0x00, 0x08, 0x00, 0x04, 0x00, 0x08, 0x00, 0x00, 0x00,
  0x12, 0x00, 0x00, 0x00, 0x04, 0x00, 0x00, 0x00, 0x13, 0x00, 0x00, 0x00,
  0x6d, 0x69, 0x6e, 0x5f, 0x72, 0x75, 0x6e, 0x74, 0x69, 0x6d, 0x65, 0x5f,
  0x76, 0x65, 0x72, 0x73, 0x69, 0x6f, 0x6e, 0x00, 0x14, 0x00, 0x00, 0x00,
  0xf4, 0x19, 0x00, 0x00, 0xec, 0x19, 0x00, 0x00, 0x9c, 0x19, 0x00, 0x00,
  0x04, 0x19, 0x00, 0x00, 0xe8, 0x18, 0x00, 0x00, 0x98, 0x18, 0x00, 0x00,
  0x08, 0x18, 0x00, 0x00, 0x78, 0x16, 0x00, 0x00, 0x68, 0x0e, 0x00, 0x00,
  0x58, 0x0a, 0x00, 0x00, 0x48, 0x02, 0x00, 0x00, 0xb8, 0x00, 0x00, 0x00,
  0xb0, 0x00, 0x00, 0x00, 0xa8, 0x00, 0x00, 0x00, 0xa0, 0x00, 0x00, 0x00,
  0x98, 0x00, 0x00, 0x00, 0x90, 0x00, 0x00, 0x00, 0x88, 0x00, 0x00, 0x00,
  0x68, 0x00, 0x00, 0x00, 0x04, 0x00, 0x00, 0x00, 0xb2, 0xe6, 0xff, 0xff,
  0x04, 0x00, 0x00, 0x00, 0x54, 0x00, 0x00, 0x00, 0x0c, 0x00, 0x00, 0x00,
  0x08, 0x00, 0x0e, 0x00, 0x08, 0x00, 0x04, 0x00, 0x08, 0x00, 0x00, 0x00,
  0x10, 0x00, 0x00, 0x00, 0x24, 0x00, 0x00, 0x00, 0x00, 0x00, 0x06, 0x00,
  0x08, 0x00, 0x04, 0x00, 0x06, 0x00, 0x00, 0x00, 0x04, 0x00, 0x00, 0x00,
  0x00, 0x00, 0x00, 0x00, 0x00, 0x00, 0x0a, 0x00, 0x10, 0x00, 0x0c, 0x00,
  0x08, 0x00, 0x04, 0x00, 0x0a, 0x00, 0x00, 0x00, 0x02, 0x00, 0x00, 0x00,
  0x02, 0x00, 0x00, 0x00, 0x04, 0x00, 0x00, 0x00, 0x06, 0x00, 0x00, 0x00,
  0x32, 0x2e, 0x31, 0x35, 0x2e, 0x30, 0x00, 0x00, 0x12, 0xe7, 0xff, 0xff,
  0x04, 0x00, 0x00, 0x00, 0x10, 0x00, 0x00, 0x00, 0x31, 0x2e, 0x31, 0x34,
  0x2e, 0x30, 0x00, 0x00, 0x00, 0x00, 0x00, 0x00, 0x00, 0x00, 0x00, 0x00,
  0x50, 0xdd, 0xff, 0xff, 0x54, 0xdd, 0xff, 0xff, 0x58, 0xdd, 0xff, 0xff,
  0x5c, 0xdd, 0xff, 0xff, 0x60, 0xdd, 0xff, 0xff, 0x64, 0xdd, 0xff, 0xff,
  0x46, 0xe7, 0xff, 0xff, 0x04, 0x00, 0x00, 0x00, 0x80, 0x01, 0x00, 0x00,
  0x86, 0xaf, 0x5e, 0xbd, 0xd8, 0xe3, 0x83, 0xbe, 0xe6, 0xbb, 0x5e, 0x3e,
  0x3c, 0xa5, 0x2d, 0x3e, 0x02, 0xa9, 0x28, 0x3e, 0xed, 0x7c, 0x35, 0xbe,
  0xdb, 0xf7, 0xf3, 0xbe, 0xd0, 0x62, 0x07, 0xbf, 0x65, 0x1c, 0xe0, 0xbb,
  0xb0, 0xf5, 0xa1, 0xbd, 0x15, 0x36, 0x9e, 0x3e, 0xf5, 0x7a, 0x5d, 0x3e,
  0x9b, 0xb6, 0x20, 0xbf, 0x0b, 0x67, 0x1c, 0xbf, 0x85, 0x0f, 0x80, 0x3e,
  0x01, 0x23, 0x48, 0x3e, 0x66, 0x28, 0x1f, 0xbe, 0x20, 0xdc, 0x6b, 0x3c,
  0xb8, 0xc4, 0x9d, 0x3d, 0x08, 0x4f, 0xa6, 0x3e, 0x22, 0x4f, 0x17, 0x3e,
  0x14, 0x74, 0x1d, 0x3f, 0xef, 0x3b, 0x66, 0x3e, 0xb6, 0x5b, 0x5c, 0xbf,
  0x2a, 0x6b, 0x44, 0xbe, 0xbf, 0x13, 0xd8, 0xbd, 0x04, 0x57, 0x24, 0xbe,
  0x12, 0xc5, 0xbb, 0x3c, 0xea, 0x8e, 0x14, 0x3f, 0xc9, 0x88, 0x66, 0xbf,
  0xf7, 0xf9, 0x05, 0xbf, 0x4e, 0x7a, 0x81, 0x3e, 0x3e, 0x3e, 0x46, 0xbe,
  0x33, 0x63, 0xde, 0xbe, 0xdc, 0x81, 0xcc, 0xbe, 0xea, 0x1a, 0x87, 0xbe,
  0x64, 0x7e, 0xe9, 0xbd, 0x80, 0xa3, 0x05, 0xbe, 0x84, 0xb7, 0x07, 0x3f,
  0xb2, 0x33, 0x11, 0x3e, 0x7c, 0x57, 0x73, 0xbe, 0x3d, 0x29, 0xc6, 0xbe,
  0xe0, 0xc0, 0xe1, 0xbc, 0xdd, 0xe7, 0x92, 0x3e, 0x73, 0xba, 0xb9, 0x3d,
  0xd6, 0x29, 0x18, 0x3f, 0x14, 0x20, 0x19, 0x3f, 0x2b, 0x37, 0x0a, 0xbf,
  0x4f, 0x4e, 0x88, 0x3e, 0xf0, 0xaf, 0xb5, 0xbe, 0x18, 0xee, 0x24, 0x3e,
  0x36, 0xd1, 0x78, 0xbd, 0x86, 0x50, 0x7d, 0x3e, 0x75, 0x6e, 0x0f, 0x3d,
  0xb3, 0xa6, 0xe9, 0xbe, 0x6c, 0x25, 0x28, 0x3c, 0x10, 0x87, 0x90, 0xbe,
  0x91, 0xf5, 0xe9, 0x3e, 0x30, 0x4e, 0xaa, 0x3e, 0xcc, 0xe8, 0x2b, 0x3d,
  0x78, 0xfe, 0x94, 0xbe, 0xe6, 0x4e, 0xe4, 0x3b, 0x86, 0x49, 0x67, 0x3e,
  0xca, 0x52, 0x14, 0x3f, 0x0a, 0x2e, 0x15, 0xbd, 0xa4, 0xf6, 0x58, 0xbe,
  0xcf, 0x17, 0x91, 0x3d, 0x00, 0x24, 0x92, 0x3e, 0x22, 0xdb, 0x71, 0xbe,
  0xf5, 0x05, 0xbe, 0xbe, 0x28, 0x67, 0x02, 0x3f, 0xa0, 0xca, 0x8f, 0x3e,
  0x4b, 0x01, 0xb8, 0x3c, 0x20, 0x20, 0x54, 0xbc, 0x88, 0x9e, 0x6e, 0xbd,
  0x7a, 0xba, 0xd4, 0x3e, 0xea, 0xf1, 0x8d, 0x3d, 0xbb, 0x91, 0xb4, 0xbc,
  0x10, 0x79, 0x81, 0x3e, 0xd4, 0x34, 0x36, 0xbe, 0x8c, 0x43, 0x4c, 0x3e,
  0x46, 0x53, 0x50, 0x3e, 0x5f, 0x8c, 0x90, 0xbd, 0x6c, 0x46, 0x00, 0x3f,
  0x80, 0xf7, 0x9e, 0xbe, 0xcd, 0xce, 0xd8, 0xbe, 0xb4, 0x96, 0x5a, 0xbe,
  0x3a, 0xf4, 0xef, 0xbd, 0x4d, 0x25, 0xaf, 0x3e, 0x80, 0xe8, 0xac, 0xbe,
  0xea, 0x4f, 0x1f, 0x3e, 0xcd, 0x09, 0x47, 0x3e, 0x22, 0xb6, 0x25, 0x3e,
  0xd8, 0xe2, 0x4a, 0xbe, 0xa3, 0x72, 0x11, 0xbf, 0xd8, 0x0d, 0x28, 0x3f,
  0xd2, 0xe8, 0xff, 0xff, 0x04, 0x00, 0x00, 0x00, 0x00, 0x08, 0x00, 0x00,
  0xe3, 0x9a, 0xbf, 0xbd, 0xa8, 0x89, 0x5b, 0xbd, 0xe7, 0xf5, 0x64, 0x3e,
  0xad, 0x45, 0x92, 0xbe, 0x92, 0x3b, 0xca, 0xbe, 0xd7, 0x03, 0x9c, 0xbd,
  0xae, 0x22, 0x85, 0xbe, 0xc8, 0x1d, 0x08, 0x3e, 0xe1, 0xff, 0xaa, 0x3e,
  0x61, 0x9f, 0x51, 0xbe, 0x00, 0x67, 0xbf, 0x3d, 0x40, 0x6f, 0x52, 0xbc,
  0x65, 0x6c, 0x15, 0x3e, 0x40, 0xa2, 0x9b, 0xbe, 0xa2, 0x75, 0x13, 0x3d,
  0x2a, 0xd9, 0x20, 0x3e, 0x96, 0x71, 0x78, 0x3e, 0x35, 0x30, 0x82, 0xbe,
  0x55, 0xd3, 0x1c, 0x3e, 0x73, 0x77, 0x3b, 0x3d, 0x4a, 0xe2, 0x02, 0x3f,
  0xa4, 0xab, 0xb1, 0xbe, 0x82, 0x40, 0xa3, 0x3e, 0xd8, 0xc5, 0x0a, 0xbd,
  0x37, 0x30, 0xaf, 0x3e, 0x15, 0xc7, 0x2a, 0x3e, 0x3b, 0xe9, 0x36, 0xbe,
  0xfa, 0x78, 0x03, 0xbe, 0xbb, 0xe4, 0x0f, 0x3d, 0xf0, 0x50, 0x24, 0x3e,
  0x8b, 0x5a, 0x1c, 0x3e, 0x2c, 0xf9, 0x04, 0x3f, 0xea, 0xba, 0xaa, 0xbc,
  0xd0, 0x7b, 0xaf, 0xbd, 0xe7, 0xdd, 0x17, 0x3e, 0x92, 0x94, 0x92, 0x3e,
  0xb1, 0xbd, 0xc3, 0x3e, 0x86, 0x00, 0xfd, 0xbd, 0x8c, 0xba, 0xba, 0x3e,
  0xb2, 0xfe, 0x23, 0xbe, 0xba, 0x4b, 0x79, 0x3e, 0x90, 0xd5, 0x6c, 0xbe,
  0x3c, 0x84, 0xb3, 0xbd, 0x60, 0x4f, 0x2f, 0xbd, 0x50, 0xad, 0x8b, 0x3e,
  0xe1, 0xd0, 0xa3, 0xbd, 0x43, 0x17, 0xa0, 0x3d, 0xe1, 0xae, 0x3f, 0xbd,
  0xdc, 0x01, 0xb0, 0x3d, 0x08, 0x9b, 0x9b, 0x3d, 0xa0, 0x7b, 0x84, 0x3e,
  0x11, 0x25, 0x19, 0xbe, 0x22, 0x5b, 0x5a, 0xbc, 0x15, 0xdd, 0xce, 0xbd,
  0x0d, 0x74, 0x43, 0xbe, 0x04, 0x85, 0x95, 0xbe, 0x1a, 0x46, 0x3a, 0x3e,
  0x6e, 0xe0, 0x5e, 0xbe, 0xc6, 0xb4, 0x0c, 0x3e, 0x88, 0xe5, 0x5f, 0x3d,
  0xac, 0xdc, 0x6b, 0xbe, 0x8b, 0x71, 0xa7, 0xbe, 0x04, 0x8d, 0x82, 0xbc,
  0x13, 0x26, 0x3d, 0xbe, 0x4a, 0xb4, 0x34, 0x3e, 0x26, 0x16, 0x51, 0xbe,
  0x7a, 0x51, 0x18, 0x3e, 0x50, 0x8d, 0x56, 0xbe, 0x5e, 0x2e, 0x58, 0x3e,
  0x70, 0xeb, 0xc2, 0xbc, 0x4d, 0xcb, 0x88, 0x3e, 0x83, 0x9c, 0x03, 0xbe,
  0xda, 0xac, 0x6a, 0xbe, 0x77, 0x08, 0x9e, 0x3e, 0xf1, 0x1d, 0x91, 0xbe,
  0x28, 0xf0, 0x0b, 0xbd, 0x4e, 0x84, 0x0d, 0x3e, 0x60, 0x55, 0x86, 0xbe,
  0xb7, 0x42, 0x84, 0xbe, 0x70, 0x95, 0x88, 0xbe, 0x7d, 0x16, 0x89, 0x3e,
  0x22, 0x3b, 0x7c, 0x3e, 0x06, 0x8a, 0x8b, 0xbe, 0x9b, 0xec, 0x9b, 0x3c,
  0x98, 0x0d, 0x76, 0x3e, 0x33, 0xb4, 0x96, 0x3d, 0xc8, 0xde, 0x81, 0xbc,
  0x4f, 0x19, 0xb2, 0x3e, 0xb2, 0x88, 0x53, 0xbc, 0x52, 0x6d, 0xb5, 0x3e,
  0x20, 0x86, 0x7f, 0xbc, 0x2a, 0xeb, 0x16, 0x3e, 0x38, 0x53, 0x3a, 0x3e,
  0x26, 0xb9, 0x6f, 0x3e, 0x79, 0x8c, 0x44, 0xbe, 0x8f, 0x98, 0xf4, 0x3e,
  0x02, 0xcf, 0xcc, 0xbe, 0x48, 0xc3, 0x76, 0xbe, 0xa6, 0xcf, 0xbe, 0x3e,
  0x2c, 0x66, 0x86, 0xbe, 0x5b, 0xf9, 0x1d, 0x3e, 0x6c, 0x60, 0xc1, 0x3e,
  0x20, 0xcc, 0x95, 0x3e, 0x11, 0xcc, 0x3d, 0xbe, 0x65, 0x7d, 0xfe, 0x3d,
  0xc4, 0x20, 0xb0, 0x3d, 0xf8, 0xdd, 0xde, 0xbd, 0xe0, 0xc3, 0x52, 0xbd,
  0xa9, 0x10, 0xe9, 0xbd, 0xcc, 0x4e, 0x54, 0xbe, 0x86, 0x89, 0xda, 0x3e,
  0xfb, 0x59, 0x38, 0x3d, 0x55, 0x69, 0xcd, 0xbe, 0x3b, 0x22, 0x82, 0xbe,
  0x79, 0xa5, 0xa7, 0xbc, 0xb1, 0xc9, 0x43, 0xbe, 0xb9, 0x53, 0xad, 0xbe,
  0x92, 0xd4, 0xf7, 0x3e, 0x31, 0xaa, 0x87, 0xbd, 0xc5, 0x5e, 0xa9, 0x3e,
  0x65, 0x05, 0x1f, 0xbe, 0x87, 0x05, 0x5a, 0x3e, 0xd7, 0xc2, 0xac, 0x3e,
  0x41, 0x35, 0x5b, 0xbe, 0x83, 0xe5, 0x42, 0xbd, 0x97, 0x34, 0xee, 0xbe,
  0xc1, 0x82, 0xce, 0x3e, 0xbf, 0x88, 0xd5, 0xbd, 0x09, 0xec, 0x4b, 0x3d,
  0xe0, 0xaf, 0xf3, 0xbd, 0x67, 0x4e, 0x51, 0xbe, 0x11, 0x28, 0x6d, 0xbe,
  0x66, 0xf8, 0x82, 0xbe, 0xb3, 0x22, 0x08, 0xbe, 0x2e, 0xb1, 0x6a, 0x3e,
  0x90, 0xc1, 0xf6, 0x3c, 0xc9, 0x4b, 0xc5, 0x3e, 0xa0, 0xb4, 0x1c, 0xbe,
  0xe6, 0x16, 0x16, 0x3e, 0x40, 0x79, 0xc5, 0xbb, 0x0b, 0x43, 0x8b, 0x3c,
  0x90, 0x15, 0x82, 0x3e, 0x0d, 0x0d, 0x61, 0x3e, 0xae, 0x1a, 0xd2, 0x3e,
  0xc9, 0x63, 0x5c, 0xbe, 0xc6, 0x83, 0x6f, 0x3e, 0xf0, 0x54, 0xba, 0xbd,
  0x0e, 0xca, 0x8d, 0xbe, 0x1e, 0x3f, 0xd5, 0xbd, 0x4a, 0xf7, 0x5f, 0xbe,
  0x13, 0xf6, 0x63, 0xbe, 0x20, 0x0a, 0x53, 0xbc, 0x30, 0x61, 0xd7, 0x3c,
  0x38, 0xf4, 0xec, 0x3d, 0x7a, 0xfd, 0x13, 0x3e, 0x91, 0x17, 0x8f, 0x3e,
  0x76, 0x01, 0x67, 0xbe, 0x38, 0x20, 0x5a, 0x3d, 0x40, 0x9c, 0xd3, 0xbd,
  0xc0, 0xf4, 0x3d, 0xbc, 0x6b, 0x72, 0xb1, 0xbe, 0x8c, 0x56, 0xd8, 0xbd,
  0xfe, 0xd8, 0x87, 0xbe, 0xe0, 0xdb, 0xa3, 0x3d, 0x93, 0xb0, 0x4f, 0xbe,
  0x71, 0x34, 0x95, 0x3e, 0x12, 0xf8, 0x2c, 0x3e, 0x3f, 0xc1, 0xad, 0x3e,
  0x00, 0xd1, 0xca, 0xbd, 0x8b, 0x20, 0xa3, 0x3e, 0xc8, 0x6c, 0xc1, 0x3d,
  0x97, 0x67, 0x1c, 0xbe, 0x78, 0x62, 0x32, 0x3d, 0xf1, 0xe0, 0xa1, 0xbe,
  0xba, 0xee, 0xa0, 0xbe, 0x6c, 0x9f, 0x09, 0x3e, 0xce, 0x07, 0xda, 0xbd,
  0x90, 0x93, 0xef, 0x3d, 0xca, 0x5c, 0x52, 0x3e, 0xbc, 0x55, 0x65, 0x3d,
  0x5f, 0x34, 0xb1, 0xbe, 0xbb, 0xef, 0x08, 0x3f, 0x37, 0x58, 0x1f, 0xbe,
  0x3a, 0x22, 0x2d, 0xbe, 0x25, 0x15, 0xd8, 0xbd, 0x7a, 0x0e, 0x52, 0xbd,
  0xfe, 0x61, 0x04, 0x3e, 0xf8, 0xd4, 0xbd, 0x3d, 0x45, 0x10, 0x5d, 0x3e,
  0xf2, 0xfa, 0x8d, 0x3e, 0x9c, 0xc6, 0x18, 0xbd, 0xa8, 0xb8, 0x23, 0xbf,
  0x06, 0x2e, 0xe9, 0x3d, 0x04, 0xb7, 0x09, 0x3e, 0xad, 0x27, 0x63, 0x3d,
  0xc2, 0x77, 0x8c, 0xbe, 0x68, 0x09, 0x9c, 0x3e, 0x78, 0x89, 0x0b, 0x3f,
  0x63, 0xc7, 0x2c, 0xbe, 0x9c, 0xc3, 0xda, 0x3d, 0x93, 0x25, 0x4c, 0xbe,
  0x39, 0xcd, 0xb3, 0x3e, 0x42, 0x5f, 0x8b, 0xbe, 0xa1, 0xd0, 0x98, 0x3e,
  0x26, 0xed, 0x03, 0xbe, 0x8e, 0x25, 0xa7, 0xbe, 0x65, 0x46, 0x64, 0x3e,
  0xf3, 0xe3, 0x25, 0xbd, 0x7c, 0x66, 0x40, 0xbf, 0xde, 0xfd, 0x32, 0x3e,
  0xd8, 0x70, 0x6d, 0x3e, 0xcc, 0xa7, 0x5f, 0xbf, 0x60, 0xc1, 0x9b, 0xbe,
  0xb8, 0x19, 0x26, 0x3d, 0x00, 0x14, 0x3a, 0xbe, 0xd8, 0x44, 0x83, 0xbd,
  0x80, 0xfe, 0x50, 0xbf, 0x70, 0x07, 0x75, 0xbe, 0xa7, 0x6d, 0x8a, 0x3e,
  0x60, 0x59, 0x39, 0x3c, 0x66, 0xbb, 0x8c, 0xbf, 0xe3, 0xdb, 0x6a, 0xbf,
  0xc8, 0x51, 0x55, 0x3e, 0x06, 0xbf, 0x08, 0xbe, 0xd2, 0x8d, 0x32, 0xbe,
  0xa2, 0x4a, 0x44, 0x3e, 0xda, 0x39, 0xf8, 0x3e, 0x81, 0xd2, 0xc1, 0x3d,
  0xb1, 0xa8, 0x11, 0xbe, 0xeb, 0x69, 0x66, 0x3e, 0x59, 0x20, 0x24, 0xbd,
  0x74, 0xf0, 0xd1, 0x3d, 0xfc, 0xca, 0x15, 0x3e, 0xaf, 0x10, 0x8e, 0x3e,
  0xbb, 0x23, 0xb1, 0x3e, 0x80, 0xe7, 0x79, 0xbd, 0x62, 0xec, 0x7b, 0xbd,
  0xae, 0x28, 0x8e, 0xbe, 0x66, 0x51, 0xa0, 0x3e, 0x39, 0x2a, 0x79, 0x3b,
  0xfb, 0x15, 0xd5, 0xbd, 0x18, 0xf2, 0xc2, 0xbd, 0x51, 0x45, 0x93, 0x3d,
  0xb3, 0x5f, 0x91, 0x3e, 0xd0, 0xc3, 0x9b, 0x3e, 0xec, 0xc3, 0x1c, 0x3c,
  0xa3, 0xa6, 0xa2, 0x3e, 0x86, 0xda, 0x5a, 0xbe, 0x4b, 0x42, 0x76, 0x3e,
  0x28, 0xe3, 0x2e, 0x3e, 0x73, 0x6a, 0xa7, 0x3e, 0x4f, 0x05, 0xb0, 0x3e,
  0x94, 0x8e, 0x9e, 0x3d, 0x35, 0x20, 0x7e, 0x3e, 0x05, 0xf7, 0x51, 0xbe,
  0xdf, 0x67, 0xf4, 0x3e, 0xbd, 0x86, 0x16, 0x3e, 0x20, 0x2c, 0x72, 0xbd,
  0x6f, 0xf4, 0x20, 0xbe, 0xb7, 0xfd, 0xdc, 0xbc, 0x0b, 0x66, 0x57, 0xbd,
  0xab, 0x99, 0xb7, 0x3c, 0x4f, 0x3b, 0x16, 0x3e, 0x38, 0xbf, 0xd1, 0x3d,
  0x9a, 0x5b, 0xa7, 0xbd, 0x1e, 0x0e, 0x34, 0x3e, 0x24, 0xf1, 0x89, 0x3d,
  0x7e, 0x84, 0x75, 0x3e, 0xe4, 0x34, 0x79, 0x3e, 0xe0, 0xef, 0x75, 0xbe,
  0xe9, 0xda, 0x90, 0xbe, 0x09, 0x2b, 0xa1, 0xbe, 0x7c, 0x4d, 0x8c, 0x3d,
  0xe7, 0x06, 0x16, 0xbe, 0x2c, 0x2d, 0xd2, 0xbd, 0x10, 0xb3, 0x61, 0xbe,
  0x80, 0x9f, 0xf8, 0xbb, 0xd8, 0x7b, 0xae, 0xbd, 0x48, 0x65, 0x04, 0x3e,
  0xee, 0x3a, 0xf0, 0xbd, 0xb4, 0x8d, 0xf5, 0x3d, 0x37, 0xce, 0x62, 0xbe,
  0x80, 0xda, 0x02, 0x3b, 0x00, 0x49, 0x17, 0xbc, 0xe3, 0x9d, 0x45, 0xbe,
  0x56, 0x25, 0x1e, 0x3e, 0xb8, 0x77, 0x74, 0xbd, 0xce, 0x6a, 0x23, 0x3e,
  0x6b, 0x1d, 0x2e, 0x3e, 0xd0, 0x1d, 0x61, 0x3d, 0xb7, 0x3a, 0x60, 0x3d,
  0xf3, 0xfd, 0xf4, 0xbc, 0x34, 0xe0, 0x8a, 0x3d, 0x9c, 0x92, 0xde, 0x3d,
  0xab, 0xd4, 0x4e, 0x3e, 0x50, 0x9d, 0xa2, 0x3c, 0x34, 0x47, 0x74, 0x3c,
  0xa9, 0x95, 0x53, 0x3e, 0x76, 0x7e, 0x0b, 0xbe, 0x74, 0x91, 0xb6, 0xbd,
  0x47, 0x7e, 0x8b, 0xbd, 0x02, 0x17, 0xfd, 0x3e, 0x42, 0xe3, 0x76, 0x3e,
  0xcb, 0xfd, 0x77, 0x3e, 0x9c, 0x87, 0xb5, 0xbc, 0x88, 0x41, 0xcc, 0x3d,
  0x97, 0xce, 0xce, 0x3e, 0xde, 0x48, 0xd5, 0x3e, 0x72, 0xb6, 0x18, 0x3e,
  0xc2, 0x20, 0xd1, 0x3e, 0x88, 0x8d, 0x6f, 0x3e, 0x76, 0x27, 0x81, 0xbe,
  0x8a, 0x85, 0xe0, 0xbe, 0x27, 0x2a, 0x33, 0xbe, 0x21, 0x4a, 0x4b, 0xbe,
  0x78, 0xda, 0xa1, 0xbd, 0x1a, 0xbc, 0x71, 0xbe, 0x06, 0xa4, 0xa1, 0xbd,
  0x38, 0x72, 0x13, 0xbe, 0xe9, 0x81, 0x71, 0xbe, 0x94, 0x4e, 0xfc, 0xbd,
  0x56, 0x49, 0x08, 0x3e, 0x0e, 0xfc, 0x84, 0xbe, 0x40, 0x8e, 0x96, 0xbc,
  0xb0, 0x86, 0x94, 0xbe, 0x8c, 0x8b, 0x9b, 0xbe, 0xe0, 0xb0, 0xd2, 0x3c,
  0x34, 0xbb, 0xd7, 0x3d, 0xfd, 0x47, 0x60, 0xbe, 0x70, 0xe5, 0x8d, 0x3d,
  0x18, 0x8b, 0x70, 0xbd, 0xca, 0x60, 0x9f, 0xbe, 0x60, 0x23, 0x6a, 0xbc,
  0xe6, 0x73, 0x5f, 0xbe, 0x2d, 0x52, 0x8b, 0x3e, 0x68, 0xd9, 0x84, 0x3d,
  0x82, 0xb6, 0xf4, 0x3e, 0xc0, 0xf3, 0x21, 0xbc, 0xcc, 0x3c, 0xbe, 0x3d,
  0xd0, 0x9f, 0xf2, 0x3e, 0xb0, 0x35, 0x9e, 0xbd, 0xed, 0xac, 0x48, 0x3e,
  0x97, 0xd0, 0xfe, 0x3e, 0xb0, 0x51, 0x99, 0x3d, 0x46, 0x1a, 0x4d, 0x3e,
  0x35, 0xa3, 0xdb, 0x3d, 0x13, 0xea, 0xae, 0x3e, 0xb7, 0xa6, 0xb2, 0xbe,
  0x4b, 0x54, 0x1c, 0x3d, 0x99, 0xe4, 0x12, 0x3f, 0xad, 0x67, 0x0d, 0xbe,
  0x6e, 0x5c, 0xcb, 0x3e, 0x40, 0x7f, 0xaf, 0xbc, 0x93, 0xc2, 0xab, 0xbe,
  0xe5, 0x84, 0xaa, 0xbc, 0x3f, 0x75, 0xe2, 0x3e, 0xca, 0x88, 0x1d, 0x3e,
  0x0a, 0xa6, 0xf5, 0xbd, 0xca, 0x28, 0xa4, 0x3d, 0x10, 0x8b, 0x7e, 0x3d,
  0x8a, 0x94, 0x88, 0x3e, 0x9b, 0x08, 0xb6, 0xbd, 0x7e, 0x5f, 0x4c, 0xbe,
  0x6f, 0x4e, 0x93, 0xbe, 0x67, 0x30, 0x01, 0x3f, 0x9a, 0x30, 0x07, 0xbd,
  0x44, 0x40, 0x1e, 0x3d, 0x2b, 0x29, 0x98, 0x3e, 0x5e, 0xdb, 0x01, 0xbf,
  0x12, 0xd8, 0x55, 0x3e, 0x64, 0x5b, 0x82, 0xbe, 0xf3, 0xb0, 0x44, 0xbf,
  0xec, 0x81, 0x3c, 0x3f, 0x4a, 0xcf, 0xb0, 0x3e, 0x4f, 0x7a, 0x9d, 0x3e,
  0x96, 0xb6, 0x10, 0x3e, 0xc6, 0x27, 0x49, 0xbe, 0xe9, 0x50, 0x3f, 0xbe,
  0xc0, 0x96, 0x59, 0xbc, 0x1d, 0x58, 0xac, 0xbe, 0x2b, 0x9d, 0x1f, 0xbf,
  0xbc, 0x43, 0xc3, 0xbe, 0x31, 0x5d, 0x1f, 0xbe, 0x2c, 0x0a, 0x89, 0x3d,
  0xb6, 0x95, 0x39, 0x3e, 0x98, 0xbc, 0x60, 0x3d, 0x6b, 0xe5, 0x92, 0xbe,
  0x24, 0xc5, 0xaa, 0xbe, 0x12, 0x65, 0x46, 0x3e, 0x56, 0x44, 0x65, 0xbe,
  0xec, 0x98, 0x01, 0x3e, 0x72, 0x60, 0x99, 0xbe, 0x2f, 0xac, 0x86, 0xbe,
  0xba, 0xf9, 0x63, 0x3e, 0xaa, 0x98, 0x6d, 0x3e, 0xba, 0x0f, 0x37, 0x3e,
  0x80, 0x4f, 0x9d, 0xbc, 0x32, 0xe0, 0x2a, 0x3e, 0xc5, 0xad, 0xaf, 0xbe,
  0xdd, 0x22, 0x92, 0xbe, 0x17, 0x00, 0x56, 0x3e, 0x38, 0x6d, 0x88, 0xbe,
  0xd4, 0x55, 0x62, 0xbd, 0x92, 0xb5, 0x55, 0x3e, 0xe5, 0xa9, 0xb5, 0xbe,
  0xf4, 0x3e, 0x62, 0xbd, 0x62, 0x30, 0x2e, 0x3e, 0x5e, 0x53, 0x48, 0x3e,
  0xaa, 0xe5, 0x8e, 0x3e, 0x4a, 0x1c, 0x67, 0x3e, 0x2e, 0xb3, 0x04, 0x3e,
  0xdc, 0x73, 0x8f, 0xbd, 0x79, 0x31, 0x40, 0x3a, 0x57, 0x96, 0xbd, 0xbd,
  0xd6, 0xc7, 0x0e, 0xbe, 0x7f, 0x76, 0x3f, 0x3e, 0xfc, 0x99, 0xee, 0xbd,
  0x7f, 0x69, 0xa1, 0x3e, 0xa2, 0x2a, 0xe2, 0x3d, 0x2f, 0x4b, 0x39, 0xbe,
  0x64, 0x1c, 0xd3, 0xbd, 0x99, 0x02, 0x10, 0xbe, 0x49, 0x49, 0x38, 0xbe,
  0x1c, 0x8a, 0xda, 0xbd, 0xbd, 0xf9, 0xa0, 0x3e, 0xdc, 0x8f, 0x80, 0x3e,
  0xe0, 0x99, 0x71, 0xbc, 0xf5, 0x49, 0x8b, 0xbe, 0x34, 0x31, 0x4c, 0xbe,
  0xcd, 0xcb, 0xa1, 0x3e, 0x1b, 0xad, 0xd5, 0xbc, 0x76, 0x5b, 0x9b, 0x3d,
  0x75, 0xcd, 0x54, 0xbe, 0xa8, 0x09, 0x07, 0xbe, 0x76, 0x9d, 0xd9, 0x3e,
  0xfc, 0xb3, 0xa6, 0xbd, 0x89, 0xad, 0x66, 0x3e, 0x08, 0x50, 0x9e, 0x3e,
  0xa7, 0x94, 0x97, 0x3c, 0x54, 0xd8, 0x83, 0xbe, 0x3b, 0xc9, 0xe8, 0x3d,
  0x1c, 0x1a, 0x55, 0xbe, 0x1c, 0xad, 0xef, 0x3d, 0x64, 0x01, 0xbe, 0x3d,
  0x64, 0x93, 0x38, 0x3d, 0xb9, 0x0d, 0xaa, 0x3d, 0x60, 0xd4, 0x1a, 0x3d,
  0xf2, 0x02, 0x20, 0xbf, 0x5d, 0xa3, 0x11, 0xbe, 0x9c, 0xeb, 0xc8, 0x3d,
  0xda, 0x1e, 0xd3, 0x3e, 0x0e, 0x40, 0xde, 0x3e, 0x13, 0x38, 0x37, 0xbe,
  0xaa, 0x57, 0x3a, 0xbe, 0xe5, 0x57, 0x15, 0xbe, 0x96, 0xe3, 0x3c, 0x3e,
  0x9a, 0x9b, 0x55, 0xbe, 0x12, 0x57, 0x19, 0x3d, 0x34, 0x40, 0x26, 0xbe,
  0x36, 0x64, 0x7d, 0x3e, 0x19, 0x54, 0x05, 0x3f, 0xb7, 0xd9, 0xaa, 0x3e,
  0x12, 0x64, 0x50, 0x3e, 0x66, 0xcc, 0x7e, 0xbe, 0x98, 0x4f, 0x85, 0xbe,
  0x40, 0x4a, 0x4f, 0xbc, 0x42, 0x9e, 0xfe, 0xbd, 0xd7, 0x42, 0xa8, 0xbe,
  0x1d, 0xab, 0x8f, 0x3e, 0x03, 0x72, 0xa6, 0xbe, 0xe8, 0x15, 0xb5, 0x3e,
  0x80, 0xd8, 0x3e, 0x3c, 0xc1, 0x7b, 0xd9, 0x3e, 0x15, 0xa3, 0xbb, 0x3e,
  0xde, 0xfc, 0x40, 0x3e, 0x70, 0xc6, 0xb0, 0x3d, 0xf6, 0xe7, 0x12, 0x3e,
  0x8c, 0x4f, 0x0a, 0x3e, 0xd5, 0x96, 0x46, 0x3e, 0x35, 0x78, 0x21, 0xbe,
  0x1a, 0x2a, 0xe7, 0xbd, 0x90, 0x32, 0xae, 0xbc, 0x15, 0x6e, 0xe5, 0xbe,
  0x25, 0xac, 0x85, 0x3d, 0x8e, 0xbf, 0xbc, 0x3e, 0x81, 0x96, 0xc9, 0xbe,
  0x68, 0xa4, 0x88, 0xbe, 0xcf, 0x62, 0x8f, 0xbe, 0xe7, 0x64, 0xaf, 0x3e,
  0xf5, 0x82, 0x0a, 0x3f, 0x40, 0x26, 0xf3, 0xbc, 0xd2, 0xcf, 0x71, 0x3e,
  0x4b, 0x0e, 0x85, 0x3e, 0x68, 0xd0, 0xa9, 0x3e, 0xbe, 0xdd, 0xf2, 0xbe,
  0xfc, 0x37, 0xa0, 0x3c, 0x90, 0x3a, 0x1d, 0xbe, 0x28, 0xcd, 0x99, 0x3d,
  0x70, 0x20, 0x02, 0x3e, 0x6f, 0xfc, 0x90, 0xbe, 0x53, 0xfd, 0x04, 0xbf,
  0x4d, 0x85, 0x11, 0x3f, 0xd2, 0xa5, 0x28, 0xbf, 0x40, 0x1d, 0x5d, 0xbc,
  0x54, 0x92, 0x0a, 0xbf, 0x87, 0xf2, 0x8b, 0xbe, 0x2c, 0xa6, 0xd2, 0x3d,
  0x22, 0x35, 0x11, 0x3e, 0x97, 0x94, 0xe2, 0xbe, 0xe1, 0x93, 0x4a, 0x3e,
  0x29, 0x0c, 0x83, 0xbc, 0xdb, 0x75, 0x16, 0xbe, 0xde, 0xf0, 0xff, 0xff,
  0x04, 0x00, 0x00, 0x00, 0x00, 0x04, 0x00, 0x00, 0x31, 0xe3, 0xa5, 0x3e,
  0x18, 0x99, 0x82, 0xbe, 0xb4, 0x06, 0xb5, 0x3d, 0x83, 0xbb, 0xed, 0xbd,
  0x9f, 0x2a, 0xdf, 0x3d, 0xde, 0xef, 0x0f, 0x3c, 0x9b, 0x63, 0xdd, 0x3e,
  0x52, 0x70, 0x9d, 0x3e, 0x59, 0x6b, 0xc7, 0xbe, 0xd1, 0xbf, 0x41, 0xbb,
  0x1e, 0xcc, 0xb9, 0xbe, 0xf3, 0xb8, 0xee, 0x3e, 0x4d, 0x18, 0xc2, 0xbe,
  0x9a, 0xef, 0x9d, 0xbe, 0x66, 0x7e, 0xba, 0xbe, 0x20, 0x19, 0x12, 0x3d,
  0xda, 0x8a, 0x6c, 0xbe, 0x78, 0xe3, 0xb7, 0xbd, 0x18, 0x55, 0x00, 0xbd,
  0xa9, 0x8b, 0x84, 0xbe, 0xac, 0x2c, 0xf0, 0x3d, 0xd5, 0x5a, 0xcb, 0x3e,
  0xca, 0x97, 0x11, 0x3e, 0xa0, 0x84, 0x3a, 0xbd, 0x4c, 0xe4, 0xc6, 0x3d,
  0x5c, 0xfa, 0xd4, 0xbd, 0x3a, 0x4a, 0xc1, 0xbe, 0x1c, 0x2f, 0xa6, 0x3d,
  0xcd, 0x0e, 0x61, 0xbe, 0x3a, 0x05, 0x09, 0x3e, 0xb8, 0x91, 0x25, 0xbe,
  0xf6, 0x65, 0x89, 0xbe, 0xb2, 0xab, 0x89, 0x3d, 0x6c, 0x4a, 0x2f, 0xbe,
  0x37, 0xce, 0x4e, 0xbe, 0xd5, 0xa8, 0xfe, 0x3e, 0xbb, 0xd0, 0x34, 0x3e,
  0x00, 0x06, 0xdf, 0x3e, 0x73, 0xaa, 0xd3, 0x3e, 0x5b, 0x73, 0xbf, 0x3e,
  0x96, 0xab, 0x90, 0xbe, 0x2a, 0x03, 0x93, 0x3e, 0x18, 0x79, 0xed, 0xbd,
  0xcc, 0x23, 0x08, 0x3e, 0x77, 0x80, 0x1c, 0xbf, 0x61, 0xab, 0x51, 0x3e,
  0x36, 0x69, 0x52, 0x3e, 0xcf, 0xb5, 0xc8, 0x3e, 0xe4, 0xd1, 0x3b, 0xbe,
  0x99, 0xae, 0xad, 0x3e, 0x38, 0x61, 0x28, 0x3d, 0xa2, 0xf6, 0x96, 0xbe,
  0x60, 0xeb, 0x41, 0xbd, 0x20, 0x9b, 0xce, 0xbe, 0xae, 0x28, 0xf0, 0x3e,
  0xa0, 0x44, 0xc6, 0xbd, 0x86, 0x27, 0x62, 0xbe, 0x6e, 0x2e, 0xd8, 0x3e,
  0x1a, 0x82, 0xe7, 0x3e, 0xd6, 0x15, 0xfa, 0x3e, 0x85, 0xc4, 0x6f, 0xbe,
  0xa4, 0x7a, 0xcb, 0xbe, 0x70, 0x8d, 0x26, 0xbe, 0x50, 0x47, 0x22, 0x3e,
  0x40, 0x4f, 0x1d, 0x3e, 0xb1, 0xe0, 0x33, 0x3f, 0x3d, 0x41, 0x8f, 0x3e,
  0x9a, 0x00, 0xe4, 0x3d, 0xfd, 0x00, 0x5e, 0xbd, 0xba, 0x66, 0x88, 0x3e,
  0xc4, 0xb3, 0x25, 0xbd, 0xf9, 0x56, 0x55, 0x3d, 0xe5, 0x2d, 0x2e, 0x3e,
  0x7d, 0x95, 0x08, 0xbe, 0x85, 0xb2, 0x59, 0xbe, 0xa9, 0xb4, 0xf2, 0x3e,
  0x24, 0xae, 0x47, 0x3f, 0x53, 0xe2, 0xd2, 0xbd, 0xed, 0xc6, 0xb5, 0x3e,
  0x91, 0x91, 0x1d, 0xbe, 0xbe, 0x31, 0xb2, 0x3e, 0xf3, 0x71, 0x95, 0x3d,
  0x7a, 0xde, 0x0a, 0x3e, 0x05, 0xeb, 0xd1, 0x3e, 0x3f, 0x94, 0x5a, 0xbe,
  0x84, 0x57, 0x16, 0xbd, 0x9e, 0x81, 0xd5, 0x3e, 0x3f, 0x93, 0xea, 0xbd,
  0xe6, 0xa5, 0xc7, 0x3e, 0xdc, 0x98, 0x03, 0x3f, 0xfe, 0xae, 0x0c, 0xbe,
  0x8a, 0x2b, 0x04, 0xbe, 0xcf, 0xe9, 0x9d, 0xbe, 0xa3, 0x86, 0x10, 0x3f,
  0x0b, 0x4a, 0x91, 0x3e, 0xb7, 0x9d, 0xed, 0xbd, 0x88, 0xca, 0x28, 0x3e,
  0x65, 0xe4, 0x39, 0x3e, 0xd8, 0x52, 0x08, 0xbe, 0x23, 0x52, 0x1d, 0x3e,
  0xa7, 0x74, 0x14, 0x3c, 0x3f, 0xdf, 0xdf, 0xbd, 0x9f, 0xdb, 0x3a, 0x3e,
  0xa4, 0xe0, 0x97, 0xbd, 0x14, 0x7f, 0x08, 0x3e, 0xd2, 0xf8, 0x89, 0xbe,
  0x90, 0x46, 0x5e, 0x3e, 0x4c, 0xbc, 0x02, 0x3f, 0xb4, 0xb1, 0x07, 0x3f,
  0x98, 0x75, 0x8e, 0x3d, 0x72, 0x0c, 0x2a, 0xbe, 0xd6, 0xe0, 0xd1, 0x3e,
  0x6b, 0x98, 0x9b, 0x3e, 0x9c, 0xc7, 0x17, 0xbe, 0xe0, 0x19, 0x11, 0x3d,
  0xba, 0xd4, 0x48, 0x3e, 0xcb, 0x53, 0xbe, 0x3e, 0x8c, 0x67, 0x67, 0xbe,
  0x34, 0x71, 0xd1, 0xbd, 0xc3, 0x35, 0xa3, 0x3e, 0x16, 0x65, 0x22, 0x3e,
  0xbf, 0x0c, 0x6e, 0xbe, 0x00, 0xc4, 0xd0, 0x39, 0x05, 0xd8, 0xd7, 0xbe,
  0x74, 0x7c, 0x87, 0xbe, 0xb2, 0xba, 0x5c, 0xbe, 0xdb, 0x38, 0xd3, 0x3e,
  0x30, 0xa0, 0x88, 0x3c, 0x5a, 0x75, 0x99, 0x3e, 0xea, 0xae, 0x4f, 0xbe,
  0xd2, 0xf6, 0x19, 0x3e, 0x1c, 0xbc, 0xb1, 0xbe, 0x09, 0xb1, 0x9e, 0x3e,
  0x0e, 0x79, 0x4e, 0x3e, 0x32, 0x79, 0x33, 0xbe, 0x1e, 0x00, 0xc9, 0x3e,
  0x68, 0xf2, 0xda, 0x3e, 0x74, 0x8c, 0xd2, 0xbd, 0x65, 0x62, 0xbf, 0x3e,
  0x28, 0x3d, 0xed, 0x3e, 0x3b, 0x33, 0x03, 0x3e, 0x0c, 0x10, 0x07, 0xbe,
  0x23, 0xb8, 0x9b, 0x3e, 0x05, 0xf1, 0x28, 0x3e, 0x1d, 0x51, 0x8b, 0x3e,
  0x86, 0x34, 0x68, 0x3e, 0x68, 0xb8, 0x53, 0xbd, 0xc0, 0x90, 0xa2, 0x3b,
  0x1b, 0x3e, 0xaf, 0x3e, 0x79, 0x1a, 0x7c, 0xbd, 0x32, 0x53, 0xa0, 0x3d,
  0x76, 0x11, 0x38, 0x3e, 0xe7, 0xdd, 0xba, 0xbe, 0xa2, 0xc1, 0xd7, 0xbe,
  0x37, 0xf1, 0xc4, 0x3e, 0x3d, 0x3b, 0x0e, 0xbe, 0x4f, 0x17, 0xdd, 0x3e,
  0x1c, 0xd8, 0x05, 0xbf, 0x4e, 0x25, 0x05, 0x3e, 0x69, 0x33, 0xdc, 0xbe,
  0x2f, 0x7c, 0xbe, 0xbe, 0x6a, 0x16, 0x04, 0x3e, 0xba, 0x5a, 0x0b, 0xbe,
  0x70, 0xf0, 0xe0, 0x3c, 0xd3, 0x20, 0xc7, 0x3e, 0x1d, 0xd3, 0xac, 0xbe,
  0x00, 0x03, 0xda, 0xbb, 0x22, 0xed, 0x9c, 0xbe, 0x4e, 0x24, 0xa0, 0xbe,
  0xbd, 0x86, 0x9c, 0xbe, 0x00, 0xfb, 0x6a, 0xbd, 0xf0, 0x9a, 0x8e, 0xbe,
  0x07, 0x41, 0xb7, 0x3e, 0xee, 0xeb, 0xb4, 0xbe, 0xf8, 0x6a, 0x8b, 0xbd,
  0xd4, 0x2a, 0x45, 0xbe, 0xec, 0xf2, 0x91, 0x3d, 0x20, 0x6d, 0x16, 0x3c,
  0xac, 0x17, 0xed, 0x3d, 0xe8, 0x00, 0x87, 0x3d, 0xca, 0xf5, 0x27, 0x3e,
  0x00, 0xa4, 0xe6, 0xbb, 0xc6, 0x7d, 0x8b, 0xbe, 0x39, 0x6e, 0x8e, 0x3e,
  0xa7, 0x93, 0xd9, 0xbe, 0x32, 0xbe, 0xb2, 0xbe, 0x7f, 0x00, 0x7d, 0xbe,
  0x0a, 0x9d, 0x21, 0xbe, 0x70, 0xc8, 0x03, 0xbd, 0x51, 0x6b, 0x42, 0xbe,
  0x06, 0xcf, 0x0a, 0x3e, 0xb9, 0x95, 0xbf, 0xbe, 0xee, 0x81, 0x0e, 0x3e,
  0x2d, 0x77, 0x82, 0xbe, 0xa8, 0x79, 0x2c, 0xbd, 0x8d, 0x36, 0x10, 0xbf,
  0x3c, 0xbc, 0xd9, 0xbe, 0x6c, 0xa3, 0xb9, 0x3e, 0x49, 0x9c, 0xff, 0x3e,
  0x71, 0x9d, 0x69, 0xbe, 0x65, 0x9c, 0x96, 0xbe, 0xee, 0x1c, 0xb3, 0xbe,
  0xa6, 0xdb, 0x97, 0x3e, 0xac, 0x13, 0x8e, 0x3e, 0xfd, 0xc3, 0x05, 0xbd,
  0x2e, 0xdc, 0x98, 0x3e, 0x20, 0x50, 0x0c, 0xbc, 0xc7, 0x48, 0xd5, 0xbc,
  0xc3, 0x5c, 0xb0, 0x3e, 0x4e, 0xe9, 0x41, 0xbe, 0xf7, 0x1e, 0x74, 0xbe,
  0x5c, 0x22, 0x9e, 0xbe, 0x43, 0x35, 0xda, 0x3e, 0x13, 0x5e, 0x95, 0xbe,
  0xf0, 0x68, 0x07, 0x3f, 0xf7, 0x60, 0x95, 0x3e, 0xf2, 0x90, 0x99, 0x3e,
  0x5b, 0x3e, 0x82, 0xbe, 0x3c, 0x6b, 0xf5, 0x3d, 0xbf, 0x0d, 0xe9, 0x3e,
  0x68, 0xe9, 0x6c, 0xbe, 0xe6, 0x27, 0x4a, 0x3e, 0xbc, 0x83, 0xc1, 0xbd,
  0xdc, 0x69, 0x2c, 0x3e, 0x38, 0xac, 0xe8, 0xbc, 0xdd, 0x3c, 0x83, 0x3e,
  0x2e, 0xb9, 0x3e, 0x3e, 0x58, 0xcb, 0x33, 0x3f, 0xcd, 0x3a, 0x1f, 0xbd,
  0x70, 0x47, 0xcb, 0x3e, 0xf9, 0x3e, 0x3d, 0x3d, 0xee, 0x71, 0x19, 0x3e,
  0x6f, 0xa4, 0xd9, 0x3e, 0x70, 0x23, 0xfb, 0x3e, 0xca, 0xbd, 0x80, 0x3e,
  0x3d, 0x66, 0xf7, 0xbd, 0x52, 0x09, 0x9f, 0x3d, 0x01, 0xad, 0xd9, 0x3e,
  0x82, 0x77, 0x7e, 0x3e, 0x5c, 0xb6, 0xfe, 0xbd, 0x2e, 0x27, 0x30, 0x3e,
  0x5b, 0xf2, 0xd7, 0x3e, 0x2e, 0x58, 0x4c, 0x3e, 0x71, 0x19, 0xa6, 0xbe,
  0xfd, 0x69, 0x56, 0xbe, 0x03, 0x11, 0xaf, 0xbd, 0xf2, 0xb1, 0x3b, 0x3d,
  0xa0, 0xa3, 0xe9, 0x3c, 0x5c, 0xbe, 0x82, 0xbd, 0x81, 0x43, 0xbb, 0xbe,
  0xf2, 0x94, 0x6d, 0xbd, 0x5e, 0xc2, 0xa3, 0x3e, 0xaf, 0xe8, 0xca, 0xbe,
  0x6a, 0x47, 0x83, 0xbf, 0xf0, 0x4d, 0x86, 0xbe, 0x6e, 0xb8, 0x36, 0xbe,
  0xea, 0xf4, 0xff, 0xff, 0x04, 0x00, 0x00, 0x00, 0x00, 0x08, 0x00, 0x00,
  0xb3, 0xde, 0x87, 0xbe, 0xe2, 0x9b, 0x14, 0xbf, 0x38, 0xea, 0x88, 0x3e,
  0xea, 0x7d, 0x72, 0x3e, 0xd7, 0xc0, 0x7f, 0xbe, 0x63, 0xa6, 0x96, 0x3e,
  0x4a, 0x68, 0x26, 0x3e, 0xd5, 0x42, 0x89, 0xbe, 0x78, 0x44, 0x7d, 0xbd,
  0x07, 0x2b, 0xc1, 0xbd, 0x0f, 0x2d, 0x70, 0xbe, 0x28, 0x59, 0xad, 0x3e,
  0x7a, 0x1e, 0xae, 0xbe, 0xd5, 0x3a, 0x16, 0x3e, 0x84, 0x2d, 0x0b, 0x3e,
  0x6e, 0x6f, 0x64, 0x3e, 0x1a, 0x34, 0x64, 0x3e, 0x29, 0xeb, 0x74, 0xbe,
  0x00, 0xfd, 0x9c, 0x3a, 0x09, 0xf4, 0xf2, 0xbd, 0x20, 0x54, 0x84, 0xbf,
  0x00, 0x93, 0x9d, 0x3a, 0x3c, 0x94, 0x2f, 0x3d, 0xea, 0x6a, 0xa6, 0xbe,
  0xc0, 0x35, 0x67, 0x3d, 0xaf, 0x29, 0x4d, 0x3d, 0xd7, 0xe3, 0xd7, 0xbd,
  0x00, 0x3e, 0x7c, 0xbc, 0x9a, 0x7a, 0x43, 0x3e, 0x85, 0xd8, 0x93, 0xbe,
  0x93, 0x90, 0x4e, 0xbd, 0x64, 0x0e, 0x3c, 0x3e, 0xa8, 0xbb, 0x08, 0x3d,
  0x6a, 0x71, 0xf2, 0xbd, 0xf5, 0xe6, 0x00, 0x3e, 0xdf, 0xd4, 0x8d, 0xbe,
  0x4d, 0xbc, 0x98, 0x3e, 0xe4, 0xc0, 0x21, 0xbe, 0x6d, 0x03, 0x82, 0x3e,
  0x60, 0xf5, 0x03, 0xbc, 0xf6, 0xac, 0x72, 0x3e, 0xfb, 0x11, 0x8c, 0x3e,
  0x9e, 0x32, 0x1e, 0x3e, 0x8b, 0xe5, 0xa3, 0x3e, 0x7e, 0x92, 0x9c, 0xbe,
  0x25, 0x2f, 0x2b, 0xbe, 0x19, 0x77, 0x32, 0xbe, 0x5b, 0x13, 0x57, 0xbe,
  0xf0, 0xd4, 0xff, 0xbd, 0xef, 0xfd, 0x8c, 0xbe, 0xbc, 0xf0, 0xa7, 0xbe,
  0x3f, 0xe8, 0x97, 0xbe, 0x68, 0xbd, 0xbf, 0x3d, 0x00, 0x6b, 0x80, 0xba,
  0x3b, 0x4b, 0x79, 0xbe, 0x51, 0x8d, 0x2f, 0x3e, 0xb7, 0x0a, 0xa5, 0xbe,
  0x84, 0x83, 0xb6, 0xbd, 0x8f, 0x25, 0xa6, 0xbe, 0x97, 0xbf, 0x98, 0x3e,
  0x90, 0x2d, 0xbd, 0xbc, 0x3d, 0x8c, 0x87, 0xbe, 0xb9, 0x65, 0x40, 0xbd,
  0x7a, 0xd9, 0x97, 0x3d, 0x48, 0xbb, 0x1e, 0xbe, 0x98, 0xbe, 0xa1, 0xbe,
  0x75, 0xb1, 0x68, 0xbe, 0x50, 0x2b, 0xe9, 0x3c, 0xac, 0x6b, 0xdd, 0x3d,
  0xcc, 0xc0, 0xf8, 0xbd, 0x40, 0xa6, 0x38, 0x3d, 0x30, 0xb9, 0xc6, 0xbd,
  0xcc, 0x1a, 0xa9, 0x3d, 0xf2, 0xd6, 0x54, 0x3e, 0x1f, 0x0b, 0xb3, 0x3e,
  0x84, 0xbf, 0xaa, 0xbe, 0x7b, 0x35, 0xa9, 0xbe, 0x19, 0x27, 0x83, 0x3e,
  0x4a, 0xa8, 0x20, 0x3e, 0x17, 0x03, 0x2d, 0xbe, 0xff, 0x71, 0x83, 0x3e,
  0x0a, 0x2e, 0x4c, 0xbe, 0x62, 0x2d, 0x7d, 0xbe, 0xb0, 0xc1, 0xbe, 0xbc,
  0x98, 0x70, 0x3f, 0x3d, 0xb7, 0x38, 0x43, 0xbe, 0x58, 0x92, 0x8e, 0xbe,
  0x37, 0xda, 0xb0, 0x3e, 0xaf, 0xf7, 0x90, 0x3e, 0x21, 0x8d, 0x14, 0xbe,
  0x70, 0xbf, 0x8d, 0xbe, 0x88, 0x40, 0x93, 0xbd, 0x7d, 0x37, 0x39, 0xbe,
  0x3f, 0xdc, 0x8c, 0x3e, 0x38, 0xf0, 0x0f, 0x3d, 0x98, 0xfc, 0x02, 0xbe,
  0xe9, 0xea, 0x88, 0x3e, 0x06, 0xa6, 0x4d, 0x3e, 0x59, 0x5a, 0x8c, 0x3c,
  0xeb, 0xf5, 0x8b, 0x3e, 0x34, 0x14, 0xaa, 0x3e, 0x99, 0xc1, 0x4c, 0xbf,
  0x00, 0x90, 0xa7, 0xb8, 0x70, 0x8c, 0xc0, 0xbc, 0xc0, 0x87, 0x68, 0xbc,
  0x59, 0x93, 0x38, 0xbe, 0x54, 0xc6, 0x7c, 0x3a, 0x1c, 0xae, 0xb1, 0x3e,
  0x28, 0x4f, 0x6f, 0xbe, 0x9c, 0x9a, 0x26, 0x3e, 0xcc, 0x6e, 0xab, 0x3d,
  0xae, 0xfd, 0xad, 0xbd, 0x20, 0xb4, 0xc9, 0xbd, 0xdc, 0x03, 0x0b, 0xbe,
  0xa5, 0x81, 0x67, 0xbe, 0xed, 0x28, 0xf7, 0xbe, 0x1f, 0xbd, 0x94, 0x3e,
  0x29, 0x75, 0xaf, 0x3e, 0xf3, 0x68, 0x33, 0xbe, 0xc8, 0x88, 0x3b, 0xbd,
  0xc0, 0x0c, 0xdc, 0x3e, 0x20, 0x67, 0x09, 0xbe, 0x62, 0xac, 0x01, 0x3b,
  0x18, 0xa2, 0x3f, 0xbe, 0x16, 0xd6, 0x45, 0x3e, 0x27, 0x9e, 0x1f, 0xbe,
  0x3d, 0xee, 0x52, 0xbe, 0xff, 0x9c, 0xd4, 0xbd, 0x04, 0x9a, 0xe7, 0xbd,
  0x50, 0x71, 0xe8, 0xbc, 0xe8, 0x4d, 0x96, 0xbd, 0x98, 0x2d, 0xee, 0xbd,
  0x14, 0xf7, 0xcc, 0xbd, 0x65, 0xa5, 0x1b, 0xbe, 0x65, 0x93, 0x96, 0x3e,
  0x5c, 0xf5, 0x7e, 0xbe, 0x10, 0x34, 0xb8, 0x3d, 0x52, 0x0d, 0x92, 0xbe,
  0x98, 0x58, 0x09, 0xbe, 0xa3, 0xc5, 0x96, 0x3d, 0xb9, 0xa6, 0x85, 0x3e,
  0x9a, 0x2a, 0xa8, 0xbe, 0xb8, 0xb5, 0x0b, 0xbd, 0x06, 0xcf, 0x7f, 0xbe,
  0xc0, 0x8e, 0xc6, 0xbc, 0x40, 0x79, 0x00, 0xbe, 0x2f, 0x14, 0xa2, 0x3e,
  0x39, 0xa6, 0x9f, 0xbd, 0xf0, 0xf3, 0x8a, 0xbd, 0xec, 0xa4, 0xf9, 0x3d,
  0x44, 0xa6, 0xd2, 0x3d, 0x32, 0x1a, 0x5c, 0x3e, 0x89, 0x75, 0x4a, 0xbd,
  0xf8, 0xa8, 0x79, 0x3e, 0xb9, 0x19, 0xf6, 0x3c, 0x98, 0xf4, 0xdb, 0x3d,
  0x88, 0x55, 0x2c, 0x3d, 0x90, 0xac, 0xab, 0xbe, 0xb1, 0x25, 0x97, 0xbe,
  0x9a, 0x6d, 0xca, 0x3d, 0x30, 0xaa, 0x1c, 0x3e, 0x33, 0x43, 0xe0, 0x3d,
  0x31, 0x06, 0xb7, 0xbe, 0xf1, 0x3c, 0x42, 0x3c, 0x78, 0x77, 0x04, 0xbe,
  0xe0, 0x2b, 0x93, 0x3d, 0x40, 0x1c, 0xb0, 0xbd, 0xb2, 0xd4, 0x89, 0x3e,
  0x59, 0xa1, 0x9f, 0x3e, 0xf6, 0x22, 0x52, 0xbe, 0xa9, 0xca, 0x4b, 0xbe,
  0x0e, 0x5f, 0x33, 0x3e, 0x16, 0xe1, 0x74, 0x3e, 0xcb, 0x6a, 0x84, 0x3e,
  0x36, 0x4c, 0x88, 0x3e, 0x43, 0x27, 0x00, 0xbd, 0xc8, 0x5c, 0x64, 0xbe,
  0x7c, 0xf1, 0x52, 0x3e, 0x40, 0x65, 0xe3, 0x3c, 0x3a, 0xb2, 0x61, 0xbe,
  0xf1, 0x67, 0x94, 0xbc, 0x86, 0xa9, 0x61, 0x3e, 0xae, 0xe7, 0xd0, 0x3b,
  0xf3, 0xa8, 0x9f, 0xbe, 0xbb, 0x50, 0x9d, 0x3e, 0x3b, 0xb9, 0xcb, 0x3c,
  0x8a, 0xdb, 0x85, 0xbe, 0xb9, 0x5b, 0x5b, 0xbe, 0xca, 0xc0, 0x19, 0xbe,
  0x6f, 0x77, 0x25, 0x3e, 0x87, 0x0c, 0x5f, 0xbe, 0xf1, 0x0e, 0x37, 0x3e,
  0x5a, 0x3a, 0x75, 0xbe, 0xee, 0x69, 0x7c, 0xbd, 0x13, 0xaf, 0x41, 0xbe,
  0x62, 0x25, 0xa1, 0xbe, 0x3b, 0xca, 0x7d, 0xbe, 0x04, 0xe9, 0x1d, 0x3e,
  0x3c, 0x50, 0x8c, 0x3d, 0x53, 0xaa, 0xb2, 0x3e, 0xa0, 0x60, 0x62, 0xbd,
  0xe4, 0x47, 0xe9, 0xbd, 0xe8, 0x55, 0x6e, 0x3d, 0x2a, 0xda, 0x4d, 0xbe,
  0x40, 0xeb, 0x23, 0xbd, 0x4f, 0x77, 0xaf, 0x3e, 0xfb, 0xb9, 0xb8, 0xbd,
  0xbe, 0xb1, 0xc3, 0x3e, 0xe7, 0x80, 0x80, 0x3e, 0x19, 0x97, 0xad, 0x3d,
  0x67, 0xa3, 0x0c, 0xbe, 0x38, 0xbb, 0x86, 0x3e, 0x13, 0xf9, 0x8d, 0x3f,
  0x6c, 0xaa, 0xcd, 0xbd, 0x02, 0x58, 0xeb, 0x3e, 0xd8, 0x33, 0xbc, 0xbe,
  0x7b, 0xa2, 0xee, 0x3c, 0xfd, 0xf5, 0x25, 0xbf, 0x66, 0xc8, 0xa6, 0x3e,
  0x40, 0x3b, 0x05, 0xbc, 0x00, 0x44, 0xe9, 0x3d, 0xa5, 0x49, 0x9b, 0xbe,
  0xa4, 0xcf, 0xd5, 0x3e, 0x12, 0xf5, 0x30, 0x3e, 0x49, 0x60, 0x66, 0xbe,
  0xa0, 0x36, 0xe3, 0xbc, 0x4f, 0x46, 0x3c, 0xbe, 0xa4, 0xff, 0xa1, 0x3d,
  0x09, 0x25, 0x37, 0x3d, 0x98, 0x6e, 0x3e, 0x3d, 0xe4, 0x23, 0xa3, 0x3d,
  0x7c, 0x77, 0xb0, 0xbe, 0x54, 0x39, 0x8e, 0x3d, 0xef, 0x06, 0x37, 0xbe,
  0x30, 0x4f, 0x01, 0x3e, 0xd3, 0x19, 0x66, 0x3e, 0xae, 0x91, 0x3f, 0x3e,
  0xbd, 0xdc, 0x85, 0xbe, 0x11, 0x58, 0xa8, 0x3e, 0xe6, 0x8d, 0x86, 0x3e,
  0xb8, 0xb3, 0x2e, 0xbd, 0x54, 0xa7, 0x7b, 0xbe, 0xf8, 0x80, 0x91, 0xbd,
  0x01, 0x70, 0xa4, 0xbe, 0x00, 0xf2, 0x8b, 0xbd, 0xf2, 0xc4, 0x39, 0x3e,
  0xf1, 0x44, 0x35, 0xbd, 0x7d, 0xa3, 0x3a, 0xbd, 0xaf, 0x8b, 0xb0, 0xbe,
  0xdc, 0x95, 0xe9, 0xbd, 0x89, 0x9a, 0xa0, 0xbd, 0xf1, 0xf8, 0x3a, 0xbe,
  0xfa, 0xe2, 0xa1, 0xbe, 0xae, 0x9a, 0x89, 0xbe, 0x50, 0xec, 0x92, 0x3e,
  0xb5, 0x92, 0xa2, 0xbd, 0x4d, 0x58, 0x41, 0x3c, 0x70, 0xc5, 0x97, 0xbd,
  0x0b, 0x38, 0x66, 0x3e, 0x4c, 0xfe, 0x98, 0xbd, 0x2c, 0x36, 0x82, 0xbe,
  0x19, 0xbb, 0x90, 0x3d, 0x17, 0x70, 0x80, 0x3e, 0xd8, 0xf8, 0x89, 0xbe,
  0x19, 0xf5, 0x9a, 0x3e, 0x08, 0xbf, 0x1a, 0xbd, 0x2e, 0x1f, 0x63, 0xbe,
  0xdb, 0x6c, 0xae, 0xbe, 0xae, 0xbe, 0x8e, 0xbe, 0x5d, 0xca, 0xf9, 0xbd,
  0x03, 0x09, 0xa1, 0x3e, 0x09, 0xdb, 0x81, 0x3e, 0xee, 0x41, 0x3c, 0x3e,
  0xfc, 0xb5, 0x56, 0xbe, 0xe0, 0x9c, 0xcc, 0xbd, 0xdc, 0x61, 0xa3, 0xbe,
  0x2a, 0xd4, 0x31, 0x3e, 0xda, 0xc4, 0x4b, 0x3e, 0xc5, 0x5b, 0x46, 0xbe,
  0x9e, 0x2b, 0x30, 0x3e, 0x0c, 0xc6, 0xb1, 0xbe, 0x6e, 0xd2, 0x6d, 0xbd,
  0x3b, 0xf9, 0x8c, 0x3e, 0xfd, 0x94, 0x92, 0x3e, 0xf9, 0xb8, 0x20, 0xbe,
  0x32, 0xfd, 0x30, 0x3e, 0xfe, 0x5c, 0x24, 0x3e, 0xff, 0xb5, 0xb8, 0xbe,
  0x10, 0x0a, 0xc2, 0xbe, 0xfc, 0x94, 0x05, 0xbf, 0x78, 0x03, 0x8a, 0x3e,
  0x03, 0x02, 0xa2, 0x3e, 0x58, 0xb7, 0x07, 0xbe, 0x3e, 0x2e, 0x0e, 0xbd,
  0xaf, 0x6a, 0xac, 0x3e, 0xae, 0x2e, 0xbd, 0xbe, 0x71, 0xf9, 0x16, 0xbe,
  0x28, 0x0a, 0x93, 0xbe, 0xb4, 0x00, 0x3f, 0x3e, 0xde, 0x1c, 0x93, 0x3e,
  0x29, 0x17, 0x89, 0x3e, 0xb0, 0xbf, 0xeb, 0x3e, 0x67, 0xb3, 0x04, 0xbe,
  0xc5, 0xba, 0x07, 0x3f, 0xee, 0x26, 0x8c, 0xbe, 0xe1, 0x36, 0xce, 0xbd,
  0x24, 0xe1, 0x21, 0xbe, 0x8d, 0x0c, 0xf8, 0xbd, 0x15, 0x26, 0x1b, 0x3e,
  0x10, 0xd1, 0x8f, 0xbe, 0x3c, 0x65, 0xdd, 0x3e, 0xd3, 0x41, 0xcf, 0x3e,
  0xce, 0xb2, 0xd4, 0x3e, 0x8c, 0x33, 0xf6, 0xbd, 0x65, 0x2f, 0xa0, 0x3e,
  0x00, 0xfd, 0x37, 0xbe, 0xca, 0xfc, 0x7d, 0xbe, 0x8e, 0x35, 0x98, 0x3d,
  0x59, 0x2a, 0xea, 0x3d, 0xdc, 0xb0, 0x01, 0x3f, 0x81, 0x22, 0x0e, 0x3f,
  0x4e, 0x6c, 0x23, 0x3f, 0x2d, 0xcf, 0x3c, 0xbc, 0x8b, 0x4b, 0x79, 0x3e,
  0x82, 0x01, 0x0f, 0x3d, 0x28, 0xde, 0x61, 0x3e, 0xb2, 0xf5, 0x2a, 0x3e,
  0xd3, 0x3a, 0xef, 0x3e, 0x44, 0x47, 0x86, 0xbe, 0x96, 0x82, 0x66, 0xbd,
  0x51, 0x4f, 0x15, 0xbd, 0x40, 0x1f, 0x85, 0xbc, 0x70, 0x6e, 0xbd, 0xbd,
  0x95, 0xc5, 0xa0, 0xbc, 0xc0, 0x0f, 0x51, 0x3c, 0x61, 0x0c, 0xdc, 0x3d,
  0x2c, 0x0f, 0xc8, 0xbd, 0xb7, 0x6e, 0xb9, 0x3e, 0x68, 0x1e, 0xd5, 0x3d,
  0x5b, 0xce, 0x97, 0x3e, 0xf2, 0x04, 0xe0, 0x3e, 0xd2, 0x73, 0x48, 0x3e,
  0xb4, 0x01, 0xd3, 0xbb, 0x57, 0x50, 0xa9, 0xbe, 0xca, 0xc5, 0x93, 0x3e,
  0xee, 0xf8, 0x15, 0xbe, 0xa3, 0x42, 0x12, 0xbe, 0x60, 0xbf, 0xff, 0x3c,
  0x4b, 0x4d, 0x03, 0xbe, 0x56, 0x9f, 0x77, 0xbd, 0x94, 0x17, 0x89, 0x3e,
  0xfb, 0xec, 0x04, 0x3e, 0x0a, 0xb7, 0xcb, 0x3e, 0x27, 0xe6, 0xf3, 0x3e,
  0xc3, 0x0c, 0xc5, 0x3d, 0x45, 0x3d, 0x67, 0xbe, 0x48, 0x57, 0x1c, 0xbe,
  0x6e, 0xf4, 0x36, 0xbc, 0x74, 0x61, 0xfc, 0x3d, 0xd9, 0xa8, 0x42, 0x3f,
  0x7f, 0x72, 0xa4, 0x3e, 0x46, 0x03, 0x0d, 0x3e, 0x51, 0x68, 0xb2, 0x3d,
  0x52, 0xd1, 0x01, 0xbe, 0xcd, 0x9d, 0xb2, 0xbe, 0xdc, 0x6f, 0x35, 0xbe,
  0x68, 0x8d, 0x52, 0xbe, 0x7d, 0xa5, 0x42, 0xbe, 0xa0, 0x11, 0x2c, 0xbc,
  0xb6, 0xfb, 0x69, 0x3e, 0x80, 0x11, 0xf0, 0x3b, 0x51, 0x22, 0xbd, 0x3e,
  0x4c, 0xbf, 0xfb, 0x3e, 0x28, 0x9a, 0xa0, 0x3d, 0x19, 0x82, 0x6c, 0x3e,
  0xd6, 0x16, 0x22, 0xbe, 0xc7, 0x1c, 0xad, 0x3d, 0x47, 0xa3, 0x55, 0x3d,
  0x0a, 0xf7, 0xc1, 0x3e, 0x14, 0x5f, 0xed, 0x3d, 0xd2, 0xcf, 0x32, 0x3e,
  0xa5, 0xa9, 0x25, 0xbe, 0xe4, 0xa9, 0xc3, 0xbd, 0xe0, 0xb8, 0xa6, 0xbe,
  0xe5, 0x4c, 0x11, 0xbd, 0x71, 0xc2, 0x40, 0x3e, 0x33, 0xce, 0x32, 0xbe,
  0x82, 0x13, 0x54, 0x3e, 0x18, 0xd5, 0x66, 0xbd, 0x52, 0x16, 0x08, 0x3f,
  0x36, 0x6f, 0x30, 0x3e, 0x9e, 0xe6, 0x50, 0xbe, 0xc0, 0x07, 0x49, 0xbd,
  0x6c, 0x3d, 0x04, 0x3e, 0x00, 0x73, 0xa6, 0xbb, 0xde, 0x13, 0xbd, 0x3e,
  0x00, 0xd4, 0x27, 0xbb, 0xed, 0xa7, 0xb9, 0xbe, 0x48, 0xa0, 0x6e, 0x3d,
  0x58, 0x4f, 0xf2, 0x3d, 0x0a, 0x77, 0x95, 0xbe, 0x83, 0x0d, 0xdc, 0xbd,
  0x96, 0x66, 0xb1, 0xbe, 0xbb, 0x01, 0x1d, 0x3e, 0x8f, 0xc8, 0x0a, 0xbe,
  0xeb, 0xcd, 0x88, 0x3e, 0x19, 0x66, 0xa3, 0xbe, 0x92, 0x2a, 0x80, 0x3e,
  0x1f, 0xfe, 0xa4, 0xbe, 0xca, 0x77, 0xe7, 0x3e, 0x63, 0x6a, 0x32, 0x3e,
  0xed, 0xa7, 0xa9, 0x3e, 0xf0, 0x5d, 0x12, 0x3e, 0x10, 0x27, 0xef, 0xbc,
  0x6f, 0xd3, 0x73, 0xbe, 0xf9, 0x18, 0xd8, 0xbc, 0xfe, 0x26, 0x0d, 0xbe,
  0x66, 0xfb, 0x8a, 0xbd, 0x93, 0x86, 0xf4, 0x3e, 0x74, 0x5f, 0xa7, 0x3e,
  0x1c, 0x3f, 0xa3, 0xbe, 0x93, 0xb0, 0xbe, 0xbe, 0x32, 0xb6, 0x2f, 0x3e,
  0x29, 0x8d, 0x1a, 0xbf, 0xe0, 0x4a, 0xb1, 0x3c, 0xa3, 0xb5, 0x4c, 0xbd,
  0x20, 0xa7, 0x68, 0xbe, 0xc8, 0x56, 0x4c, 0x3e, 0xb4, 0xf7, 0x92, 0xbe,
  0x00, 0x41, 0x08, 0x3f, 0xdb, 0x08, 0x14, 0xbe, 0x43, 0xe3, 0x6b, 0x3d,
  0xc0, 0x9e, 0xc2, 0x3d, 0x94, 0x71, 0x05, 0x3e, 0x8e, 0xae, 0x33, 0xbe,
  0x5b, 0xec, 0x24, 0xbe, 0x56, 0x3c, 0x35, 0xba, 0x28, 0x5b, 0x7e, 0xbd,
  0x44, 0x73, 0x77, 0xbe, 0x23, 0xfc, 0x90, 0xbb, 0xb5, 0x46, 0x0b, 0x3e,
  0x96, 0xf9, 0x25, 0xbe, 0x74, 0xdc, 0x06, 0x3f, 0xa6, 0x29, 0x3e, 0x3e,
  0x63, 0x2a, 0x93, 0x3e, 0x2e, 0xc1, 0x83, 0xbe, 0x8d, 0x87, 0x13, 0x3e,
  0xd0, 0x51, 0x91, 0x3e, 0x3b, 0x16, 0x8a, 0x3e, 0x19, 0x7c, 0x80, 0x3e,
  0xa8, 0x07, 0x2c, 0x3d, 0x45, 0xe5, 0x19, 0xbe, 0x61, 0x06, 0x2a, 0xbe,
  0xea, 0x27, 0x8e, 0xbe, 0xf1, 0x03, 0xaf, 0xbe, 0x6c, 0x94, 0xfa, 0x3d,
  0xc4, 0x54, 0x9b, 0x3d, 0xa5, 0xf3, 0x9c, 0x3e, 0x05, 0x02, 0x87, 0xbe,
  0x75, 0xef, 0x84, 0xbe, 0xb0, 0x2c, 0x1a, 0xbe, 0x5a, 0xab, 0x8b, 0xbe,
  0x42, 0xf8, 0x42, 0x3e, 0xa9, 0x07, 0x04, 0xbe, 0x8e, 0xd9, 0xe1, 0xbd,
  0x3a, 0x3f, 0x12, 0xbe, 0xd0, 0xe2, 0xae, 0x3c, 0x92, 0x91, 0xe9, 0xbd,
  0xc5, 0x40, 0x49, 0xbe, 0x26, 0x86, 0x8b, 0xbe, 0xde, 0x1e, 0x2a, 0x3e,
  0xe6, 0x90, 0x27, 0xbe, 0x5a, 0x23, 0x64, 0xbe, 0xbc, 0xa1, 0x7b, 0xbe,
  0x94, 0xaf, 0x36, 0xbe, 0xb2, 0x57, 0x61, 0x3e, 0x5e, 0xc6, 0x82, 0xbe,
  0xfe, 0x61, 0x4f, 0x3e, 0x90, 0x93, 0xf4, 0xbd, 0x00, 0xd6, 0xb3, 0x3a,
  0x4d, 0xc0, 0x88, 0xbe, 0x48, 0x9b, 0xb4, 0xbe, 0x3a, 0xf5, 0xbe, 0xbe,
  0x2b, 0x48, 0x94, 0x3e, 0x78, 0xdd, 0x4e, 0xbe, 0x1c, 0xc2, 0x1a, 0x3e,
  0x77, 0x90, 0xae, 0x3e, 0x17, 0x24, 0xc8, 0xbc, 0x23, 0x68, 0xa3, 0xbe,
  0xed, 0xa1, 0xec, 0x3d, 0xa5, 0x67, 0x9c, 0x3e, 0x0d, 0xa0, 0x4a, 0x3e,
  0x13, 0x49, 0x93, 0x3e, 0x89, 0x95, 0x8d, 0xbe, 0xc3, 0x53, 0x64, 0x3e,
  0x65, 0xc2, 0xd2, 0x3e, 0xfa, 0x08, 0x6f, 0xbe, 0xb9, 0x02, 0x26, 0x3d,
  0x56, 0x5f, 0x2b, 0xbe, 0x52, 0xa5, 0x85, 0x3e, 0xee, 0x49, 0xb7, 0x3e,
  0x82, 0x6f, 0x27, 0x3e, 0x47, 0x19, 0x5b, 0x3d, 0x21, 0xe4, 0xa9, 0xbe,
  0xd3, 0x78, 0x74, 0xbb, 0xa6, 0x4b, 0x7d, 0xbe, 0x26, 0x4e, 0x2d, 0xbe,
  0x52, 0x03, 0x67, 0x3e, 0xd6, 0xa0, 0x72, 0x3e, 0xfa, 0x0a, 0x5b, 0x3e,
  0x53, 0xe2, 0xb5, 0x3d, 0xea, 0x64, 0xf2, 0x3d, 0xf6, 0xfc, 0xff, 0xff,
  0x04, 0x00, 0x00, 0x00, 0x80, 0x01, 0x00, 0x00, 0x4a, 0x6d, 0xcc, 0xba,
  0x62, 0x7d, 0x42, 0xbe, 0x45, 0xb7, 0x0f, 0xbf, 0xa3, 0x30, 0x7a, 0xbd,
  0xc7, 0x69, 0x5c, 0xbe, 0x81, 0x2c, 0x16, 0xbf, 0x10, 0xde, 0x70, 0xbd,
  0x5b, 0xa9, 0xaa, 0x3e, 0x83, 0x7d, 0x04, 0x3f, 0x4a, 0xb2, 0xbb, 0x3c,
  0xbd, 0x48, 0x3b, 0x3e, 0xf1, 0x6b, 0x82, 0xbe, 0x62, 0xbb, 0x8e, 0xbe,
  0x7f, 0x9e, 0x88, 0x3e, 0x6f, 0x6a, 0x7d, 0xbe, 0xc6, 0xd8, 0xaf, 0x3e,
  0x6d, 0xa2, 0x95, 0xbd, 0xc4, 0xc7, 0x15, 0xbe, 0x74, 0xd7, 0xf1, 0xbd,
  0xb2, 0x99, 0x61, 0x3e, 0x75, 0x3a, 0x6c, 0xbe, 0x18, 0x26, 0x1c, 0x3e,
  0x80, 0x20, 0xde, 0xbe, 0x88, 0xa9, 0x4d, 0xbf, 0x9a, 0x97, 0x81, 0xbe,
  0x84, 0xf1, 0xbf, 0xbe, 0x1f, 0x6c, 0x89, 0x3e, 0x1d, 0x54, 0x19, 0xbe,
  0x77, 0x16, 0x15, 0xbe, 0x0d, 0x33, 0x0a, 0x3e, 0xe2, 0x7a, 0x3f, 0xbe,
  0xe8, 0x02, 0x31, 0x3e, 0x4d, 0x33, 0x93, 0xbd, 0x4b, 0x0e, 0x05, 0xbe,
  0x9b, 0x23, 0x4e, 0x3e, 0x27, 0x22, 0x0d, 0x3f, 0x68, 0x46, 0xc9, 0xbe,
  0xe4, 0x9a, 0xc8, 0x3d, 0x7e, 0x31, 0xb8, 0xbe, 0xa7, 0xe2, 0x94, 0x3e,
  0xae, 0xc5, 0x9d, 0x3e, 0x3f, 0x2f, 0xcf, 0x3e, 0x47, 0xef, 0xfe, 0x3d,
  0xc4, 0x7f, 0xc9, 0xbe, 0xc7, 0xb4, 0xa9, 0xbe, 0x2f, 0xee, 0x36, 0x3e,
  0xc6, 0x6b, 0x6a, 0xbe, 0xe1, 0xf4, 0xc1, 0x3e, 0xa8, 0x38, 0x4b, 0xbd,
  0x4a, 0x42, 0x11, 0x3e, 0xde, 0xc6, 0x1f, 0xbe, 0xd7, 0x0d, 0xcd, 0x3e,
  0x6b, 0xf4, 0x23, 0xbe, 0xb5, 0xa3, 0xcc, 0xbb, 0x80, 0x20, 0xba, 0xbc,
  0xd6, 0xff, 0x06, 0xbe, 0x98, 0x26, 0xad, 0x3d, 0xaf, 0x83, 0xce, 0x3e,
  0x5c, 0xd2, 0x83, 0xbe, 0xc0, 0x85, 0x95, 0x3d, 0x52, 0xc5, 0xc0, 0x3e,
  0x98, 0x9c, 0x47, 0xbf, 0xce, 0xc1, 0x8b, 0xbe, 0xc6, 0xa7, 0x9e, 0xbe,
  0xe4, 0xf8, 0x3f, 0xbe, 0x8c, 0xc7, 0xf5, 0x3d, 0x02, 0x80, 0x34, 0x3f,
  0x7d, 0x55, 0x95, 0x3d, 0x99, 0x5c, 0x4f, 0x3c, 0xa3, 0x85, 0xe9, 0xbd,
  0x90, 0xd4, 0x01, 0x3f, 0xb6, 0xdd, 0x4f, 0xbe, 0x9f, 0x15, 0xe0, 0x3e,
  0x37, 0xef, 0xff, 0x3e, 0xdf, 0x56, 0x22, 0xbd, 0xa6, 0x13, 0x2c, 0xbe,
  0xd8, 0x9e, 0x7a, 0x3d, 0x46, 0x87, 0x08, 0xbe, 0x67, 0x68, 0x5e, 0x3f,
  0xe6, 0x5b, 0x65, 0x3e, 0xb3, 0xae, 0xac, 0x3e, 0x70, 0x8f, 0x55, 0xbe,
  0x44, 0x52, 0xbf, 0xbe, 0x90, 0xc6, 0x13, 0xbd, 0x10, 0x12, 0x87, 0xbc,
  0xfc, 0x49, 0xeb, 0x3d, 0x49, 0xac, 0xc4, 0xbe, 0x69, 0xc9, 0x0f, 0x3d,
  0x29, 0xda, 0xd8, 0xbe, 0xc6, 0x9a, 0x7d, 0xbe, 0x99, 0x09, 0x35, 0x3f,
  0x86, 0x48, 0x4b, 0x3e, 0x32, 0xb7, 0xfc, 0x3d, 0x05, 0x9e, 0x95, 0x3d,
  0xbf, 0x9b, 0x90, 0x3e, 0x1c, 0x83, 0xe0, 0x3e, 0x82, 0xfe, 0xff, 0xff,
  0x04, 0x00, 0x00, 0x00, 0x80, 0x00, 0x00, 0x00, 0x17, 0xef, 0x57, 0x3e,
  0xc8, 0x2c, 0x1a, 0x3e, 0xda, 0x7a, 0xa4, 0x3c, 0xe0, 0x7d, 0x12, 0xbd,
  0x0a, 0xb0, 0x2b, 0xbd, 0x6d, 0x85, 0x4a, 0x3e, 0x00, 0x00, 0x00, 0x00,
  0xcb, 0xe0, 0x99, 0x3d, 0x00, 0x00, 0x00, 0x00, 0x4a, 0x4d, 0xd4, 0xbb,
  0x00, 0xe1, 0xce, 0xbd, 0xee, 0xa8, 0xae, 0x3d, 0x00, 0x00, 0x00, 0x00,
  0xea, 0x7f, 0x00, 0xbe, 0x0d, 0xc2, 0xd8, 0xbd, 0xfc, 0x82, 0x11, 0xbe,
  0x00, 0x00, 0x00, 0x00, 0x6a, 0x60, 0x15, 0x3e, 0x00, 0x00, 0x00, 0x00,
  0x04, 0x1e, 0x26, 0x3e, 0x3a, 0x84, 0x97, 0x3d, 0x00, 0x00, 0x00, 0x00,
  0x27, 0xb6, 0x80, 0xbc, 0x78, 0xca, 0xea, 0x3d, 0x77, 0x5e, 0x40, 0xbe,
  0xdf, 0xf3, 0x57, 0x3e, 0x94, 0xff, 0xbc, 0xbd, 0x00, 0x00, 0x00, 0x00,
  0x00, 0x00, 0x00, 0x00, 0x4c, 0x64, 0x12, 0xbd, 0xeb, 0xa1, 0x4e, 0xbe,
  0xa1, 0x9e, 0xa2, 0xbd, 0x0e, 0xff, 0xff, 0xff, 0x04, 0x00, 0x00, 0x00,
  0x40, 0x00, 0x00, 0x00, 0xc2, 0xd3, 0xc8, 0x3b, 0x74, 0x2a, 0xe1, 0x3c,
  0x00, 0x00, 0x00, 0x00, 0x15, 0xe8, 0x8d, 0xbd, 0x18, 0x14, 0x31, 0xbd,
  0x01, 0x50, 0x19, 0xbd, 0x09, 0xdc, 0x83, 0x3b, 0x38, 0xd6, 0x80, 0xbc,
  0x5e, 0x78, 0xfe, 0xbc, 0x0b, 0x58, 0x8b, 0xbd, 0xd4, 0xdb, 0x10, 0x3e,
  0x68, 0x7f, 0x21, 0x3e, 0x5d, 0xc7, 0xe9, 0x3d, 0xd5, 0x67, 0x2f, 0x3c,
  0x00, 0x00, 0x00, 0x00, 0x0b, 0xa2, 0x4d, 0xbd, 0x5a, 0xff, 0xff, 0xff,
  0x04, 0x00, 0x00, 0x00, 0x0c, 0x00, 0x00, 0x00, 0xe7, 0xb6, 0x6f, 0xbe,
  0x80, 0x0c, 0xd4, 0xbd, 0xa5, 0xf6, 0x83, 0xbd, 0x72, 0xff, 0xff, 0xff,
  0x04, 0x00, 0x00, 0x00, 0x80, 0x00, 0x00, 0x00, 0x01, 0xba, 0xa2, 0xbd,
  0x36, 0x6e, 0x57, 0x3e, 0xfc, 0xd8, 0x54, 0xbd, 0xaa, 0x64, 0x38, 0xbc,
  0x00, 0x00, 0x00, 0x00, 0xa4, 0x1f, 0x8d, 0x3e, 0xa1, 0x43, 0x0f, 0x3e,
  0x28, 0xc3, 0x7a, 0x3e, 0x35, 0x51, 0x08, 0x3d, 0x00, 0x00, 0x00, 0x00,
  0x00, 0x00, 0x00, 0x00, 0xd3, 0x67, 0xdd, 0xbd, 0xf9, 0xc3, 0xce, 0x3e,
  0x8f, 0xfa, 0xd3, 0x3d, 0x79, 0x4a, 0xc8, 0xbd, 0x57, 0x23, 0x24, 0x3e,
  0x22, 0x33, 0x06, 0xbd, 0x00, 0x00, 0x00, 0x00, 0xbc, 0xd8, 0x69, 0xbe,
  0x0c, 0xc5, 0x1b, 0xbe, 0x00, 0x00, 0x00, 0x00, 0xf1, 0xf0, 0x49, 0xbe,
  0x44, 0x1f, 0x14, 0x3e, 0xc3, 0xab, 0x27, 0x3e, 0x00, 0x00, 0x00, 0x00,
  0x49, 0x04, 0xc0, 0x3d, 0x98, 0xf9, 0xba, 0xbc, 0x80, 0xbb, 0x0f, 0xbe,
  0xd6, 0x6d, 0x17, 0xbe, 0xc6, 0x90, 0xbd, 0x3e, 0x9c, 0x9e, 0x49, 0x3e,
  0xdb, 0x6c, 0x81, 0xbd, 0x00, 0x00, 0x06, 0x00, 0x08, 0x00, 0x04, 0x00,
  0x06, 0x00, 0x00, 0x00, 0x04, 0x00, 0x00, 0x00, 0x40, 0x00, 0x00, 0x00,
  0x43, 0xd5, 0x4b, 0x3d, 0x00, 0x00, 0x00, 0x00, 0xa6, 0x28, 0x36, 0xbe,
  0x86, 0xbf, 0x52, 0x3d, 0x9c, 0x47, 0x7d, 0x3e, 0x7e, 0x17, 0x01, 0xba,
  0xf2, 0x80, 0xfe, 0x3d, 0x00, 0x00, 0x00, 0x00, 0x2a, 0x5a, 0x6c, 0x3e,
  0xf0, 0x56, 0x3e, 0x3e, 0x00, 0x00, 0x00, 0x00, 0x00, 0x00, 0x00, 0x00,
  0x5f, 0x9f, 0x46, 0x3e, 0x7b, 0xe9, 0x60, 0x3d, 0x6e, 0xc5, 0x78, 0x3d,
  0x65, 0xa9, 0x91, 0x3d, 0x74, 0xf6, 0xff, 0xff, 0x78, 0xf6, 0xff, 0xff,
  0x0f, 0x00, 0x00, 0x00, 0x4d, 0x4c, 0x49, 0x52, 0x20, 0x43, 0x6f, 0x6e,
  0x76, 0x65, 0x72, 0x74, 0x65, 0x64, 0x2e, 0x00, 0x01, 0x00, 0x00, 0x00,
  0x14, 0x00, 0x00, 0x00, 0x00, 0x00, 0x0e, 0x00, 0x18, 0x00, 0x14, 0x00,
  0x10, 0x00, 0x0c, 0x00, 0x08, 0x00, 0x04, 0x00, 0x0e, 0x00, 0x00, 0x00,
  0x14, 0x00, 0x00, 0x00, 0x1c, 0x00, 0x00, 0x00, 0x78, 0x01, 0x00, 0x00,
  0x7c, 0x01, 0x00, 0x00, 0x80, 0x01, 0x00, 0x00, 0x04, 0x00, 0x00, 0x00,
  0x6d, 0x61, 0x69, 0x6e, 0x00, 0x00, 0x00, 0x00, 0x06, 0x00, 0x00, 0x00,
  0x20, 0x01, 0x00, 0x00, 0xd8, 0x00, 0x00, 0x00, 0xa0, 0x00, 0x00, 0x00,
  0x68, 0x00, 0x00, 0x00, 0x34, 0x00, 0x00, 0x00, 0x10, 0x00, 0x00, 0x00,
  0x00, 0x00, 0x0a, 0x00, 0x10, 0x00, 0x0c, 0x00, 0x08, 0x00, 0x04, 0x00,
  0x0a, 0x00, 0x00, 0x00, 0x0c, 0x00, 0x00, 0x00, 0x10, 0x00, 0x00, 0x00,
  0x01, 0x00, 0x00, 0x00, 0x01, 0x00, 0x00, 0x00, 0x10, 0x00, 0x00, 0x00,
  0x01, 0x00, 0x00, 0x00, 0x0f, 0x00, 0x00, 0x00, 0x32, 0xff, 0xff, 0xff,
  0x10, 0x00, 0x00, 0x00, 0x00, 0x00, 0x00, 0x08, 0x0c, 0x00, 0x00, 0x00,
  0x10, 0x00, 0x00, 0x00, 0x28, 0xf7, 0xff, 0xff, 0x01, 0x00, 0x00, 0x00,
  0x0f, 0x00, 0x00, 0x00, 0x03, 0x00, 0x00, 0x00, 0x0e, 0x00, 0x00, 0x00,
  0x0a, 0x00, 0x00, 0x00, 0x03, 0x00, 0x00, 0x00, 0x62, 0xff, 0xff, 0xff,
  0x10, 0x00, 0x00, 0x00, 0x00, 0x00, 0x00, 0x08, 0x10, 0x00, 0x00, 0x00,
  0x14, 0x00, 0x00, 0x00, 0x52, 0xff, 0xff, 0xff, 0x00, 0x00, 0x00, 0x01,
  0x01, 0x00, 0x00, 0x00, 0x0e, 0x00, 0x00, 0x00, 0x03, 0x00, 0x00, 0x00,
  0x0d, 0x00, 0x00, 0x00, 0x09, 0x00, 0x00, 0x00, 0x02, 0x00, 0x00, 0x00,
  0x96, 0xff, 0xff, 0xff, 0x10, 0x00, 0x00, 0x00, 0x00, 0x00, 0x00, 0x08,
  0x10, 0x00, 0x00, 0x00, 0x14, 0x00, 0x00, 0x00, 0x86, 0xff, 0xff, 0xff,
  0x00, 0x00, 0x00, 0x01, 0x01, 0x00, 0x00, 0x00, 0x0d, 0x00, 0x00, 0x00,
  0x03, 0x00, 0x00, 0x00, 0x0c, 0x00, 0x00, 0x00, 0x08, 0x00, 0x00, 0x00,
  0x01, 0x00, 0x00, 0x00, 0xca, 0xff, 0xff, 0xff, 0x10, 0x00, 0x00, 0x00,
  0x00, 0x00, 0x00, 0x08, 0x10, 0x00, 0x00, 0x00, 0x14, 0x00, 0x00, 0x00,
  0xba, 0xff, 0xff, 0xff, 0x00, 0x00, 0x00, 0x01, 0x01, 0x00, 0x00, 0x00,
  0x0c, 0x00, 0x00, 0x00, 0x03, 0x00, 0x00, 0x00, 0x0b, 0x00, 0x00, 0x00,
  0x07, 0x00, 0x00, 0x00, 0x04, 0x00, 0x00, 0x00, 0x00, 0x00, 0x0e, 0x00,
  0x16, 0x00, 0x00, 0x00, 0x10, 0x00, 0x0c, 0x00, 0x0b, 0x00, 0x04, 0x00,
  0x0e, 0x00, 0x00, 0x00, 0x18, 0x00, 0x00, 0x00, 0x00, 0x00, 0x00, 0x08,
  0x18, 0x00, 0x00, 0x00, 0x1c, 0x00, 0x00, 0x00, 0x00, 0x00, 0x06, 0x00,
  0x08, 0x00, 0x07, 0x00, 0x06, 0x00, 0x00, 0x00, 0x00, 0x00, 0x00, 0x01,
  0x01, 0x00, 0x00, 0x00, 0x0b, 0x00, 0x00, 0x00, 0x03, 0x00, 0x00, 0x00,
  0x00, 0x00, 0x00, 0x00, 0x06, 0x00, 0x00, 0x00, 0x05, 0x00, 0x00, 0x00,
  0x01, 0x00, 0x00, 0x00, 0x10, 0x00, 0x00, 0x00, 0x01, 0x00, 0x00, 0x00,
  0x00, 0x00, 0x00, 0x00, 0x11, 0x00, 0x00, 0x00, 0x98, 0x07, 0x00, 0x00,
  0x1c, 0x07, 0x00, 0x00, 0xa0, 0x06, 0x00, 0x00, 0x3c, 0x06, 0x00, 0x00,
  0xd8, 0x05, 0x00, 0x00, 0x78, 0x05, 0x00, 0x00, 0x24, 0x05, 0x00, 0x00,
  0xcc, 0x04, 0x00, 0x00, 0x74, 0x04, 0x00, 0x00, 0x1c, 0x04, 0x00, 0x00,
  0xc4, 0x03, 0x00, 0x00, 0x18, 0x03, 0x00, 0x00, 0x64, 0x02, 0x00, 0x00,
  0xac, 0x01, 0x00, 0x00, 0xf4, 0x00, 0x00, 0x00, 0x60, 0x00, 0x00, 0x00,
  0x04, 0x00, 0x00, 0x00, 0xc2, 0xf8, 0xff, 0xff, 0x00, 0x00, 0x00, 0x01,
  0x14, 0x00, 0x00, 0x00, 0x1c, 0x00, 0x00, 0x00, 0x1c, 0x00, 0x00, 0x00,
  0x11, 0x00, 0x00, 0x00, 0x34, 0x00, 0x00, 0x00, 0x02, 0x00, 0x00, 0x00,
  0xff, 0xff, 0xff, 0xff, 0x03, 0x00, 0x00, 0x00, 0xac, 0xf8, 0xff, 0xff,
  0x19, 0x00, 0x00, 0x00, 0x53, 0x74, 0x61, 0x74, 0x65, 0x66, 0x75, 0x6c,
  0x50, 0x61, 0x72, 0x74, 0x69, 0x74, 0x69, 0x6f, 0x6e, 0x65, 0x64, 0x43,
  0x61, 0x6c, 0x6c, 0x3a, 0x30, 0x00, 0x00, 0x00, 0x02, 0x00, 0x00, 0x00,
  0x01, 0x00, 0x00, 0x00, 0x03, 0x00, 0x00, 0x00, 0x1a, 0xf9, 0xff, 0xff,
  0x00, 0x00, 0x00, 0x01, 0x14, 0x00, 0x00, 0x00, 0x1c, 0x00, 0x00, 0x00,
  0x1c, 0x00, 0x00, 0x00, 0x10, 0x00, 0x00, 0x00, 0x6c, 0x00, 0x00, 0x00,
  0x02, 0x00, 0x00, 0x00, 0xff, 0xff, 0xff, 0xff, 0x03, 0x00, 0x00, 0x00,
  0x04, 0xf9, 0xff, 0xff, 0x50, 0x00, 0x00, 0x00, 0x61, 0x75, 0x74, 0x6f,
  0x65, 0x6e, 0x63, 0x6f, 0x64, 0x65, 0x72, 0x2f, 0x73, 0x65, 0x71, 0x75,
  0x65, 0x6e, 0x74, 0x69, 0x61, 0x6c, 0x5f, 0x31, 0x2f, 0x64, 0x65, 0x6e,
  0x73, 0x65, 0x5f, 0x34, 0x2f, 0x4d, 0x61, 0x74, 0x4d, 0x75, 0x6c, 0x3b,
  0x61, 0x75, 0x74, 0x6f, 0x65, 0x6e, 0x63, 0x6f, 0x64, 0x65, 0x72, 0x2f,
  0x73, 0x65, 0x71, 0x75, 0x65, 0x6e, 0x74, 0x69, 0x61, 0x6c, 0x5f, 0x31,
  0x2f, 0x64, 0x65, 0x6e, 0x73, 0x65, 0x5f, 0x34, 0x2f, 0x42, 0x69, 0x61,
  0x73, 0x41, 0x64, 0x64, 0x00, 0x00, 0x00, 0x00, 0x02, 0x00, 0x00, 0x00,
  0x01, 0x00, 0x00, 0x00, 0x03, 0x00, 0x00, 0x00, 0xaa, 0xf9, 0xff, 0xff,
  0x00, 0x00, 0x00, 0x01, 0x14, 0x00, 0x00, 0x00, 0x1c, 0x00, 0x00, 0x00,
  0x1c, 0x00, 0x00, 0x00, 0x0f, 0x00, 0x00, 0x00, 0x90, 0x00, 0x00, 0x00,
  0x02, 0x00, 0x00, 0x00, 0xff, 0xff, 0xff, 0xff, 0x20, 0x00, 0x00, 0x00,
  0x94, 0xf9, 0xff, 0xff, 0x76, 0x00, 0x00, 0x00, 0x61, 0x75, 0x74, 0x6f,
  0x65, 0x6e, 0x63, 0x6f, 0x64, 0x65, 0x72, 0x2f, 0x73, 0x65, 0x71, 0x75,
  0x65, 0x6e, 0x74, 0x69, 0x61, 0x6c, 0x5f, 0x31, 0x2f, 0x64, 0x65, 0x6e,
  0x73, 0x65, 0x5f, 0x33, 0x2f, 0x4d, 0x61, 0x74, 0x4d, 0x75, 0x6c, 0x3b,
  0x61, 0x75, 0x74, 0x6f, 0x65, 0x6e, 0x63, 0x6f, 0x64, 0x65, 0x72, 0x2f,
  0x73, 0x65, 0x71, 0x75, 0x65, 0x6e, 0x74, 0x69, 0x61, 0x6c, 0x5f, 0x31,
  0x2f, 0x64, 0x65, 0x6e, 0x73, 0x65, 0x5f, 0x33, 0x2f, 0x52, 0x65, 0x6c,
  0x75, 0x3b, 0x61, 0x75, 0x74, 0x6f, 0x65, 0x6e, 0x63, 0x6f, 0x64, 0x65,
  0x72, 0x2f, 0x73, 0x65, 0x71, 0x75, 0x65, 0x6e, 0x74, 0x69, 0x61, 0x6c,
  0x5f, 0x31, 0x2f, 0x64, 0x65, 0x6e, 0x73, 0x65, 0x5f, 0x33, 0x2f, 0x42,
  0x69, 0x61, 0x73, 0x41, 0x64, 0x64, 0x00, 0x00, 0x02, 0x00, 0x00, 0x00,
  0x01, 0x00, 0x00, 0x00, 0x20, 0x00, 0x00, 0x00, 0x5e, 0xfa, 0xff, 0xff,
  0x00, 0x00, 0x00, 0x01, 0x14, 0x00, 0x00, 0x00, 0x1c, 0x00, 0x00, 0x00,
  0x1c, 0x00, 0x00, 0x00, 0x0e, 0x00, 0x00, 0x00, 0x90, 0x00, 0x00, 0x00,
  0x02, 0x00, 0x00, 0x00, 0xff, 0xff, 0xff, 0xff, 0x10, 0x00, 0x00, 0x00,
  0x48, 0xfa, 0xff, 0xff, 0x76, 0x00, 0x00, 0x00, 0x61, 0x75, 0x74, 0x6f,
  0x65, 0x6e, 0x63, 0x6f, 0x64, 0x65, 0x72, 0x2f, 0x73, 0x65, 0x71, 0x75,
  0x65, 0x6e, 0x74, 0x69, 0x61, 0x6c, 0x5f, 0x31, 0x2f, 0x64, 0x65, 0x6e,
  0x73, 0x65, 0x5f, 0x32, 0x2f, 0x4d, 0x61, 0x74, 0x4d, 0x75, 0x6c, 0x3b,
  0x61, 0x75, 0x74, 0x6f, 0x65, 0x6e, 0x63, 0x6f, 0x64, 0x65, 0x72, 0x2f,
  0x73, 0x65, 0x71, 0x75, 0x65, 0x6e, 0x74, 0x69, 0x61, 0x6c, 0x5f, 0x31,
  0x2f, 0x64, 0x65, 0x6e, 0x73, 0x65, 0x5f, 0x32, 0x2f, 0x52, 0x65, 0x6c,
  0x75, 0x3b, 0x61, 0x75, 0x74, 0x6f, 0x65, 0x6e, 0x63, 0x6f, 0x64, 0x65,
  0x72, 0x2f, 0x73, 0x65, 0x71, 0x75, 0x65, 0x6e, 0x74, 0x69, 0x61, 0x6c,
  0x5f, 0x31, 0x2f, 0x64, 0x65, 0x6e, 0x73, 0x65, 0x5f, 0x32, 0x2f, 0x42,
  0x69, 0x61, 0x73, 0x41, 0x64, 0x64, 0x00, 0x00, 0x02, 0x00, 0x00, 0x00,
  0x01, 0x00, 0x00, 0x00, 0x10, 0x00, 0x00, 0x00, 0x12, 0xfb, 0xff, 0xff,
  0x00, 0x00, 0x00, 0x01, 0x14, 0x00, 0x00, 0x00, 0x1c, 0x00, 0x00, 0x00,
  0x1c, 0x00, 0x00, 0x00, 0x0d, 0x00, 0x00, 0x00, 0x8c, 0x00, 0x00, 0x00,
  0x02, 0x00, 0x00, 0x00, 0xff, 0xff, 0xff, 0xff, 0x10, 0x00, 0x00, 0x00,
  0xfc, 0xfa, 0xff, 0xff, 0x70, 0x00, 0x00, 0x00, 0x61, 0x75, 0x74, 0x6f,
  0x65, 0x6e, 0x63, 0x6f, 0x64, 0x65, 0x72, 0x2f, 0x73, 0x65, 0x71, 0x75,
  0x65, 0x6e, 0x74, 0x69, 0x61, 0x6c, 0x2f, 0x64, 0x65, 0x6e, 0x73, 0x65,
  0x5f, 0x31, 0x2f, 0x4d, 0x61, 0x74, 0x4d, 0x75, 0x6c, 0x3b, 0x61, 0x75,
  0x74, 0x6f, 0x65, 0x6e, 0x63, 0x6f, 0x64, 0x65, 0x72, 0x2f, 0x73, 0x65,
  0x71, 0x75, 0x65, 0x6e, 0x74, 0x69, 0x61, 0x6c, 0x2f, 0x64, 0x65, 0x6e,
  0x73, 0x65, 0x5f, 0x31, 0x2f, 0x52, 0x65, 0x6c, 0x75, 0x3b, 0x61, 0x75,
  0x74, 0x6f, 0x65, 0x6e, 0x63, 0x6f, 0x64, 0x65, 0x72, 0x2f, 0x73, 0x65,
  0x71, 0x75, 0x65, 0x6e, 0x74, 0x69, 0x61, 0x6c, 0x2f, 0x64, 0x65, 0x6e,
  0x73, 0x65, 0x5f, 0x31, 0x2f, 0x42, 0x69, 0x61, 0x73, 0x41, 0x64, 0x64,
  0x00, 0x00, 0x00, 0x00, 0x02, 0x00, 0x00, 0x00, 0x01, 0x00, 0x00, 0x00,
  0x10, 0x00, 0x00, 0x00, 0xc2, 0xfb, 0xff, 0xff, 0x00, 0x00, 0x00, 0x01,
  0x14, 0x00, 0x00, 0x00, 0x1c, 0x00, 0x00, 0x00, 0x1c, 0x00, 0x00, 0x00,
  0x0c, 0x00, 0x00, 0x00, 0x84, 0x00, 0x00, 0x00, 0x02, 0x00, 0x00, 0x00,
  0xff, 0xff, 0xff, 0xff, 0x20, 0x00, 0x00, 0x00, 0xac, 0xfb, 0xff, 0xff,
  0x6a, 0x00, 0x00, 0x00, 0x61, 0x75, 0x74, 0x6f, 0x65, 0x6e, 0x63, 0x6f,
  0x64, 0x65, 0x72, 0x2f, 0x73, 0x65, 0x71, 0x75, 0x65, 0x6e, 0x74, 0x69,
  0x61, 0x6c, 0x2f, 0x64, 0x65, 0x6e, 0x73, 0x65, 0x2f, 0x4d, 0x61, 0x74,
  0x4d, 0x75, 0x6c, 0x3b, 0x61, 0x75, 0x74, 0x6f, 0x65, 0x6e, 0x63, 0x6f,
  0x64, 0x65, 0x72, 0x2f, 0x73, 0x65, 0x71, 0x75, 0x65, 0x6e, 0x74, 0x69,
  0x61, 0x6c, 0x2f, 0x64, 0x65, 0x6e, 0x73, 0x65, 0x2f, 0x52, 0x65, 0x6c,
  0x75, 0x3b, 0x61, 0x75, 0x74, 0x6f, 0x65, 0x6e, 0x63, 0x6f, 0x64, 0x65,
  0x72, 0x2f, 0x73, 0x65, 0x71, 0x75, 0x65, 0x6e, 0x74, 0x69, 0x61, 0x6c,
  0x2f, 0x64, 0x65, 0x6e, 0x73, 0x65, 0x2f, 0x42, 0x69, 0x61, 0x73, 0x41,
  0x64, 0x64, 0x00, 0x00, 0x02, 0x00, 0x00, 0x00, 0x01, 0x00, 0x00, 0x00,
  0x20, 0x00, 0x00, 0x00, 0xe2, 0xfc, 0xff, 0xff, 0x00, 0x00, 0x00, 0x01,
  0x10, 0x00, 0x00, 0x00, 0x10, 0x00, 0x00, 0x00, 0x0b, 0x00, 0x00, 0x00,
  0x34, 0x00, 0x00, 0x00, 0x44, 0xfc, 0xff, 0xff, 0x27, 0x00, 0x00, 0x00,
  0x61, 0x75, 0x74, 0x6f, 0x65, 0x6e, 0x63, 0x6f, 0x64, 0x65, 0x72, 0x2f,
  0x73, 0x65, 0x71, 0x75, 0x65, 0x6e, 0x74, 0x69, 0x61, 0x6c, 0x5f, 0x31,
  0x2f, 0x64, 0x65, 0x6e, 0x73, 0x65, 0x5f, 0x34, 0x2f, 0x4d, 0x61, 0x74,
  0x4d, 0x75, 0x6c, 0x00, 0x02, 0x00, 0x00, 0x00, 0x03, 0x00, 0x00, 0x00,
  0x20, 0x00, 0x00, 0x00, 0x36, 0xfd, 0xff, 0xff, 0x00, 0x00, 0x00, 0x01,
  0x10, 0x00, 0x00, 0x00, 0x10, 0x00, 0x00, 0x00, 0x0a, 0x00, 0x00, 0x00,
  0x34, 0x00, 0x00, 0x00, 0x98, 0xfc, 0xff, 0xff, 0x27, 0x00, 0x00, 0x00,
  0x61, 0x75, 0x74, 0x6f, 0x65, 0x6e, 0x63, 0x6f, 0x64, 0x65, 0x72, 0x2f,
  0x73, 0x65, 0x71, 0x75, 0x65, 0x6e, 0x74, 0x69, 0x61, 0x6c, 0x5f, 0x31,
  0x2f, 0x64, 0x65, 0x6e, 0x73, 0x65, 0x5f, 0x33, 0x2f, 0x4d, 0x61, 0x74,
  0x4d, 0x75, 0x6c, 0x00, 0x02, 0x00, 0x00, 0x00, 0x20, 0x00, 0x00, 0x00,
  0x10, 0x00, 0x00, 0x00, 0x8a, 0xfd, 0xff, 0xff, 0x00, 0x00, 0x00, 0x01,
  0x10, 0x00, 0x00, 0x00, 0x10, 0x00, 0x00, 0x00, 0x09, 0x00, 0x00, 0x00,
  0x34, 0x00, 0x00, 0x00, 0xec, 0xfc, 0xff, 0xff, 0x27, 0x00, 0x00, 0x00,
  0x61, 0x75, 0x74, 0x6f, 0x65, 0x6e, 0x63, 0x6f, 0x64, 0x65, 0x72, 0x2f,
  0x73, 0x65, 0x71, 0x75, 0x65, 0x6e, 0x74, 0x69, 0x61, 0x6c, 0x5f, 0x31,
  0x2f, 0x64, 0x65, 0x6e, 0x73, 0x65, 0x5f, 0x32, 0x2f, 0x4d, 0x61, 0x74,
  0x4d, 0x75, 0x6c, 0x00, 0x02, 0x00, 0x00, 0x00, 0x10, 0x00, 0x00, 0x00,
  0x10, 0x00, 0x00, 0x00, 0xde, 0xfd, 0xff, 0xff, 0x00, 0x00, 0x00, 0x01,
  0x10, 0x00, 0x00, 0x00, 0x10, 0x00, 0x00, 0x00, 0x08, 0x00, 0x00, 0x00,
  0x34, 0x00, 0x00, 0x00, 0x40, 0xfd, 0xff, 0xff, 0x25, 0x00, 0x00, 0x00,
  0x61, 0x75, 0x74, 0x6f, 0x65, 0x6e, 0x63, 0x6f, 0x64, 0x65, 0x72, 0x2f,
  0x73, 0x65, 0x71, 0x75, 0x65, 0x6e, 0x74, 0x69, 0x61, 0x6c, 0x2f, 0x64,
  0x65, 0x6e, 0x73, 0x65, 0x5f, 0x31, 0x2f, 0x4d, 0x61, 0x74, 0x4d, 0x75,
  0x6c, 0x00, 0x00, 0x00, 0x02, 0x00, 0x00, 0x00, 0x10, 0x00, 0x00, 0x00,
  0x20, 0x00, 0x00, 0x00, 0x32, 0xfe, 0xff, 0xff, 0x00, 0x00, 0x00, 0x01,
  0x10, 0x00, 0x00, 0x00, 0x10, 0x00, 0x00, 0x00, 0x07, 0x00, 0x00, 0x00,
  0x30, 0x00, 0x00, 0x00, 0x94, 0xfd, 0xff, 0xff, 0x23, 0x00, 0x00, 0x00,
  0x61, 0x75, 0x74, 0x6f, 0x65, 0x6e, 0x63, 0x6f, 0x64, 0x65, 0x72, 0x2f,
  0x73, 0x65, 0x71, 0x75, 0x65, 0x6e, 0x74, 0x69, 0x61, 0x6c, 0x2f, 0x64,
  0x65, 0x6e, 0x73, 0x65, 0x2f, 0x4d, 0x61, 0x74, 0x4d, 0x75, 0x6c, 0x00,
  0x02, 0x00, 0x00, 0x00, 0x20, 0x00, 0x00, 0x00, 0x03, 0x00, 0x00, 0x00,
  0x82, 0xfe, 0xff, 0xff, 0x00, 0x00, 0x00, 0x01, 0x10, 0x00, 0x00, 0x00,
  0x10, 0x00, 0x00, 0x00, 0x06, 0x00, 0x00, 0x00, 0x40, 0x00, 0x00, 0x00,
  0xe4, 0xfd, 0xff, 0xff, 0x33, 0x00, 0x00, 0x00, 0x61, 0x75, 0x74, 0x6f,
  0x65, 0x6e, 0x63, 0x6f, 0x64, 0x65, 0x72, 0x2f, 0x73, 0x65, 0x71, 0x75,
  0x65, 0x6e, 0x74, 0x69, 0x61, 0x6c, 0x2f, 0x64, 0x65, 0x6e, 0x73, 0x65,
  0x2f, 0x42, 0x69, 0x61, 0x73, 0x41, 0x64, 0x64, 0x2f, 0x52, 0x65, 0x61,
  0x64, 0x56, 0x61, 0x72, 0x69, 0x61, 0x62, 0x6c, 0x65, 0x4f, 0x70, 0x00,
  0x01, 0x00, 0x00, 0x00, 0x20, 0x00, 0x00, 0x00, 0xde, 0xfe, 0xff, 0xff,
  0x00, 0x00, 0x00, 0x01, 0x10, 0x00, 0x00, 0x00, 0x10, 0x00, 0x00, 0x00,
  0x05, 0x00, 0x00, 0x00, 0x44, 0x00, 0x00, 0x00, 0x40, 0xfe, 0xff, 0xff,
  0x35, 0x00, 0x00, 0x00, 0x61, 0x75, 0x74, 0x6f, 0x65, 0x6e, 0x63, 0x6f,
  0x64, 0x65, 0x72, 0x2f, 0x73, 0x65, 0x71, 0x75, 0x65, 0x6e, 0x74, 0x69,
  0x61, 0x6c, 0x2f, 0x64, 0x65, 0x6e, 0x73, 0x65, 0x5f, 0x31, 0x2f, 0x42,
  0x69, 0x61, 0x73, 0x41, 0x64, 0x64, 0x2f, 0x52, 0x65, 0x61, 0x64, 0x56,
  0x61, 0x72, 0x69, 0x61, 0x62, 0x6c, 0x65, 0x4f, 0x70, 0x00, 0x00, 0x00,
  0x01, 0x00, 0x00, 0x00, 0x10, 0x00, 0x00, 0x00, 0x3e, 0xff, 0xff, 0xff,
  0x00, 0x00, 0x00, 0x01, 0x10, 0x00, 0x00, 0x00, 0x10, 0x00, 0x00, 0x00,
  0x04, 0x00, 0x00, 0x00, 0x44, 0x00, 0x00, 0x00, 0xa0, 0xfe, 0xff, 0xff,
  0x37, 0x00, 0x00, 0x00, 0x61, 0x75, 0x74, 0x6f, 0x65, 0x6e, 0x63, 0x6f,
  0x64, 0x65, 0x72, 0x2f, 0x73, 0x65, 0x71, 0x75, 0x65, 0x6e, 0x74, 0x69,
  0x61, 0x6c, 0x5f, 0x31, 0x2f, 0x64, 0x65, 0x6e, 0x73, 0x65, 0x5f, 0x34,
  0x2f, 0x42, 0x69, 0x61, 0x73, 0x41, 0x64, 0x64, 0x2f, 0x52, 0x65, 0x61,
  0x64, 0x56, 0x61, 0x72, 0x69, 0x61, 0x62, 0x6c, 0x65, 0x4f, 0x70, 0x00,
  0x01, 0x00, 0x00, 0x00, 0x03, 0x00, 0x00, 0x00, 0x9e, 0xff, 0xff, 0xff,
  0x00, 0x00, 0x00, 0x01, 0x10, 0x00, 0x00, 0x00, 0x10, 0x00, 0x00, 0x00,
  0x03, 0x00, 0x00, 0x00, 0x44, 0x00, 0x00, 0x00, 0x00, 0xff, 0xff, 0xff,
  0x37, 0x00, 0x00, 0x00, 0x61, 0x75, 0x74, 0x6f, 0x65, 0x6e, 0x63, 0x6f,
  0x64, 0x65, 0x72, 0x2f, 0x73, 0x65, 0x71, 0x75, 0x65, 0x6e, 0x74, 0x69,
  0x61, 0x6c, 0x5f, 0x31, 0x2f, 0x64, 0x65, 0x6e, 0x73, 0x65, 0x5f, 0x33,
  0x2f, 0x42, 0x69, 0x61, 0x73, 0x41, 0x64, 0x64, 0x2f, 0x52, 0x65, 0x61,
  0x64, 0x56, 0x61, 0x72, 0x69, 0x61, 0x62, 0x6c, 0x65, 0x4f, 0x70, 0x00,
  0x01, 0x00, 0x00, 0x00, 0x20, 0x00, 0x00, 0x00, 0x00, 0x00, 0x16, 0x00,
  0x18, 0x00, 0x14, 0x00, 0x00, 0x00, 0x10, 0x00, 0x0c, 0x00, 0x08, 0x00,
  0x00, 0x00, 0x00, 0x00, 0x00, 0x00, 0x07, 0x00, 0x16, 0x00, 0x00, 0x00,
  0x00, 0x00, 0x00, 0x01, 0x10, 0x00, 0x00, 0x00, 0x10, 0x00, 0x00, 0x00,
  0x02, 0x00, 0x00, 0x00, 0x44, 0x00, 0x00, 0x00, 0x78, 0xff, 0xff, 0xff,
  0x37, 0x00, 0x00, 0x00, 0x61, 0x75, 0x74, 0x6f, 0x65, 0x6e, 0x63, 0x6f,
  0x64, 0x65, 0x72, 0x2f, 0x73, 0x65, 0x71, 0x75, 0x65, 0x6e, 0x74, 0x69,
  0x61, 0x6c, 0x5f, 0x31, 0x2f, 0x64, 0x65, 0x6e, 0x73, 0x65, 0x5f, 0x32,
  0x2f, 0x42, 0x69, 0x61, 0x73, 0x41, 0x64, 0x64, 0x2f, 0x52, 0x65, 0x61,
  0x64, 0x56, 0x61, 0x72, 0x69, 0x61, 0x62, 0x6c, 0x65, 0x4f, 0x70, 0x00,
  0x01, 0x00, 0x00, 0x00, 0x10, 0x00, 0x00, 0x00, 0x00, 0x00, 0x16, 0x00,
  0x1c, 0x00, 0x18, 0x00, 0x00, 0x00, 0x14, 0x00, 0x10, 0x00, 0x0c, 0x00,
  0x00, 0x00, 0x00, 0x00, 0x08, 0x00, 0x07, 0x00, 0x16, 0x00, 0x00, 0x00,
  0x00, 0x00, 0x00, 0x01, 0x14, 0x00, 0x00, 0x00, 0x20, 0x00, 0x00, 0x00,
  0x20, 0x00, 0x00, 0x00, 0x01, 0x00, 0x00, 0x00, 0x38, 0x00, 0x00, 0x00,
  0x02, 0x00, 0x00, 0x00, 0xff, 0xff, 0xff, 0xff, 0x03, 0x00, 0x00, 0x00,
  0x04, 0x00, 0x04, 0x00, 0x04, 0x00, 0x00, 0x00, 0x19, 0x00, 0x00, 0x00,
  0x73, 0x65, 0x72, 0x76, 0x69, 0x6e, 0x67, 0x5f, 0x64, 0x65, 0x66, 0x61,
  0x75, 0x6c, 0x74, 0x5f, 0x69, 0x6e, 0x70, 0x75, 0x74, 0x5f, 0x31, 0x3a,
  0x30, 0x00, 0x00, 0x00, 0x02, 0x00, 0x00, 0x00, 0x01, 0x00, 0x00, 0x00,
  0x03, 0x00, 0x00, 0x00, 0x02, 0x00, 0x00, 0x00, 0x20, 0x00, 0x00, 0x00,
  0x04, 0x00, 0x00, 0x00, 0xf4, 0xff, 0xff, 0xff, 0x0e, 0x00, 0x00, 0x00,
  0x00, 0x00, 0x00, 0x0e, 0x0c, 0x00, 0x0c, 0x00, 0x0b, 0x00, 0x00, 0x00,
  0x00, 0x00, 0x04, 0x00, 0x0c, 0x00, 0x00, 0x00, 0x09, 0x00, 0x00, 0x00,
  0x00, 0x00, 0x00, 0x09
};

#endif //MODELS/AUTOENCODER/AUTOENCODER_MODEL_H