/* Copyright 2020 The TensorFlow Authors. All Rights Reserved.

Licensed under the Apache License, Version 2.0 (the "License");
you may not use this file except in compliance with the License.
You may obtain a copy of the License at

    http://www.apache.org/licenses/LICENSE-2.0

Unless required by applicable law or agreed to in writing, software
distributed under the License is distributed on an "AS IS" BASIS,
WITHOUT WARRANTIES OR CONDITIONS OF ANY KIND, either express or implied.
See the License for the specific language governing permissions and
limitations under the License.
==============================================================================*/

// This is a standard TensorFlow Lite FlatBuffer model file that has been
// converted into a C data array, so it can be easily compiled into a binary
// for devices that don't have a file system. It was created using the command:
// xxd -i model.tflite > model.cc

#ifndef MY_MODEL_H
#define MY_MODEL_H

unsigned char cnn_model[] = {
  0x1c, 0x00, 0x00, 0x00, 0x54, 0x46, 0x4c, 0x33, 0x14, 0x00, 0x20, 0x00,
  0x1c, 0x00, 0x18, 0x00, 0x14, 0x00, 0x10, 0x00, 0x0c, 0x00, 0x00, 0x00,
  0x08, 0x00, 0x04, 0x00, 0x14, 0x00, 0x00, 0x00, 0x1c, 0x00, 0x00, 0x00,
  0x88, 0x00, 0x00, 0x00, 0xe0, 0x00, 0x00, 0x00, 0xe0, 0x0d, 0x00, 0x00,
  0xf0, 0x0d, 0x00, 0x00, 0x60, 0x14, 0x00, 0x00, 0x03, 0x00, 0x00, 0x00,
  0x01, 0x00, 0x00, 0x00, 0x04, 0x00, 0x00, 0x00, 0x62, 0xf1, 0xff, 0xff,
  0x0c, 0x00, 0x00, 0x00, 0x1c, 0x00, 0x00, 0x00, 0x38, 0x00, 0x00, 0x00,
  0x0f, 0x00, 0x00, 0x00, 0x73, 0x65, 0x72, 0x76, 0x69, 0x6e, 0x67, 0x5f,
  0x64, 0x65, 0x66, 0x61, 0x75, 0x6c, 0x74, 0x00, 0x01, 0x00, 0x00, 0x00,
  0x04, 0x00, 0x00, 0x00, 0x94, 0xff, 0xff, 0xff, 0x0a, 0x00, 0x00, 0x00,
  0x04, 0x00, 0x00, 0x00, 0x05, 0x00, 0x00, 0x00, 0x64, 0x65, 0x6e, 0x73,
  0x65, 0x00, 0x00, 0x00, 0x01, 0x00, 0x00, 0x00, 0x04, 0x00, 0x00, 0x00,
  0x02, 0xf2, 0xff, 0xff, 0x04, 0x00, 0x00, 0x00, 0x0c, 0x00, 0x00, 0x00,
  0x63, 0x6f, 0x6e, 0x76, 0x32, 0x64, 0x5f, 0x69, 0x6e, 0x70, 0x75, 0x74,
  0x00, 0x00, 0x00, 0x00, 0x02, 0x00, 0x00, 0x00, 0x34, 0x00, 0x00, 0x00,
  0x04, 0x00, 0x00, 0x00, 0xdc, 0xff, 0xff, 0xff, 0x0d, 0x00, 0x00, 0x00,
  0x04, 0x00, 0x00, 0x00, 0x13, 0x00, 0x00, 0x00, 0x43, 0x4f, 0x4e, 0x56,
  0x45, 0x52, 0x53, 0x49, 0x4f, 0x4e, 0x5f, 0x4d, 0x45, 0x54, 0x41, 0x44,
  0x41, 0x54, 0x41, 0x00, 0x08, 0x00, 0x0c, 0x00, 0x08, 0x00, 0x04, 0x00,
  0x08, 0x00, 0x00, 0x00, 0x0c, 0x00, 0x00, 0x00, 0x04, 0x00, 0x00, 0x00,
  0x13, 0x00, 0x00, 0x00, 0x6d, 0x69, 0x6e, 0x5f, 0x72, 0x75, 0x6e, 0x74,
  0x69, 0x6d, 0x65, 0x5f, 0x76, 0x65, 0x72, 0x73, 0x69, 0x6f, 0x6e, 0x00,
  0x0e, 0x00, 0x00, 0x00, 0xfc, 0x0c, 0x00, 0x00, 0xf4, 0x0c, 0x00, 0x00,
  0xc4, 0x0c, 0x00, 0x00, 0x34, 0x0c, 0x00, 0x00, 0x18, 0x0c, 0x00, 0x00,
  0x00, 0x0c, 0x00, 0x00, 0xb0, 0x00, 0x00, 0x00, 0xa8, 0x00, 0x00, 0x00,
  0xa0, 0x00, 0x00, 0x00, 0x98, 0x00, 0x00, 0x00, 0x90, 0x00, 0x00, 0x00,
  0x88, 0x00, 0x00, 0x00, 0x68, 0x00, 0x00, 0x00, 0x04, 0x00, 0x00, 0x00,
  0xb6, 0xf2, 0xff, 0xff, 0x04, 0x00, 0x00, 0x00, 0x54, 0x00, 0x00, 0x00,
  0x0c, 0x00, 0x00, 0x00, 0x08, 0x00, 0x0e, 0x00, 0x08, 0x00, 0x04, 0x00,
  0x08, 0x00, 0x00, 0x00, 0x10, 0x00, 0x00, 0x00, 0x24, 0x00, 0x00, 0x00,
  0x00, 0x00, 0x06, 0x00, 0x08, 0x00, 0x04, 0x00, 0x06, 0x00, 0x00, 0x00,
  0x04, 0x00, 0x00, 0x00, 0x00, 0x00, 0x00, 0x00, 0x00, 0x00, 0x0a, 0x00,
  0x10, 0x00, 0x0c, 0x00, 0x08, 0x00, 0x04, 0x00, 0x0a, 0x00, 0x00, 0x00,
  0x01, 0x00, 0x00, 0x00, 0x02, 0x00, 0x00, 0x00, 0x04, 0x00, 0x00, 0x00,
  0x06, 0x00, 0x00, 0x00, 0x32, 0x2e, 0x31, 0x35, 0x2e, 0x30, 0x00, 0x00,
  0x16, 0xf3, 0xff, 0xff, 0x04, 0x00, 0x00, 0x00, 0x10, 0x00, 0x00, 0x00,
  0x31, 0x2e, 0x35, 0x2e, 0x30, 0x00, 0x00, 0x00, 0x00, 0x00, 0x00, 0x00,
  0x00, 0x00, 0x00, 0x00, 0x6c, 0xed, 0xff, 0xff, 0x70, 0xed, 0xff, 0xff,
  0x74, 0xed, 0xff, 0xff, 0x78, 0xed, 0xff, 0xff, 0x7c, 0xed, 0xff, 0xff,
  0x46, 0xf3, 0xff, 0xff, 0x04, 0x00, 0x00, 0x00, 0x40, 0x0b, 0x00, 0x00,
  0x64, 0xd6, 0xd7, 0xbe, 0x0b, 0x73, 0x61, 0x3e, 0x8e, 0x9f, 0xf6, 0xbf,
  0x40, 0x90, 0xf6, 0xbe, 0xf0, 0x05, 0x92, 0xbf, 0x55, 0x23, 0x3c, 0xbf,
  0x40, 0x23, 0xcb, 0x3f, 0x46, 0x17, 0xcb, 0xbe, 0x8c, 0x19, 0x3a, 0xbe,
  0xf2, 0x62, 0x13, 0x3f, 0xbd, 0xcf, 0xed, 0xbf, 0xb6, 0x79, 0xf2, 0xbc,
  0x28, 0x46, 0x3d, 0xbf, 0x89, 0xd5, 0xf1, 0xbe, 0x53, 0xf7, 0xc5, 0x3f,
  0x8c, 0x6a, 0x34, 0xbe, 0x92, 0xcd, 0x32, 0xbe, 0x19, 0x9a, 0x49, 0x3f,
  0xa4, 0xd8, 0x09, 0xc0, 0xad, 0x68, 0x95, 0xbe, 0x72, 0x93, 0x3e, 0xbf,
  0xae, 0xa5, 0x1f, 0xbf, 0xf8, 0xe5, 0xe1, 0x3f, 0xc6, 0x58, 0x21, 0x3e,
  0x18, 0x85, 0x83, 0xbe, 0xcc, 0x97, 0xa8, 0x3e, 0x4a, 0xfd, 0xfb, 0xbf,
  0x15, 0x33, 0x9a, 0xbe, 0x01, 0x01, 0x90, 0xbf, 0x9c, 0x9a, 0x39, 0xbf,
  0x64, 0x64, 0xd6, 0x3f, 0x43, 0x24, 0x95, 0xbe, 0x19, 0x7a, 0x22, 0xbe,
  0x5a, 0x1d, 0x0c, 0x3f, 0x29, 0x70, 0xfb, 0xbf, 0xec, 0x3f, 0xa4, 0xbe,
  0x3d, 0xcc, 0x75, 0xbf, 0xfe, 0x97, 0x02, 0xbf, 0xb3, 0x19, 0xb2, 0x3f,
  0x0f, 0x26, 0xca, 0xbc, 0x0a, 0x4e, 0x35, 0xbe, 0x7b, 0x98, 0x33, 0x3f,
  0x11, 0x56, 0x18, 0xc0, 0xd5, 0x76, 0xc3, 0xbe, 0xf2, 0xec, 0x7c, 0xbf,
  0x88, 0x01, 0x4b, 0xbf, 0xee, 0xab, 0xf5, 0x3f, 0x60, 0xeb, 0xe5, 0x3c,
  0xc8, 0x94, 0xf8, 0xbe, 0xdb, 0x16, 0xa6, 0x3e, 0x52, 0x52, 0x0d, 0xc0,
  0x39, 0x7a, 0x20, 0xbf, 0x2b, 0x41, 0x95, 0xbf, 0xca, 0xd8, 0x7b, 0xbf,
  0x2f, 0x7c, 0xd7, 0x3f, 0x32, 0x7a, 0x89, 0xbe, 0x6b, 0x69, 0x23, 0xbe,
  0x6a, 0x88, 0x76, 0x3e, 0x8d, 0xa8, 0xf3, 0xbf, 0xe5, 0x7a, 0x92, 0xbe,
  0xc7, 0xa9, 0x67, 0xbf, 0xb5, 0x7c, 0x1d, 0xbf, 0x53, 0x24, 0xb9, 0x3f,
  0xc3, 0xb0, 0xfd, 0xbd, 0x7b, 0x41, 0xc4, 0xbe, 0x1a, 0x75, 0xee, 0x3e,
  0xd0, 0xb2, 0xff, 0xbf, 0x17, 0xe7, 0x9b, 0xbe, 0xad, 0xc5, 0x6a, 0xbf,
  0x3b, 0x57, 0x38, 0xbf, 0x87, 0x0e, 0xeb, 0x3f, 0x05, 0xcf, 0x99, 0x3d,
  0x24, 0x39, 0xd0, 0xbe, 0x6e, 0x39, 0xe2, 0x3e, 0x26, 0x97, 0x03, 0xc0,
  0x6c, 0xca, 0x08, 0xbf, 0xa6, 0x42, 0x83, 0xbf, 0x79, 0x47, 0x2e, 0xbf,
  0x38, 0x54, 0xe1, 0x3f, 0x58, 0xd4, 0x7a, 0xbe, 0x9f, 0x5b, 0x7b, 0xbd,
  0x7e, 0xef, 0xdc, 0x3e, 0xd0, 0xc0, 0xd9, 0xbf, 0x2c, 0xc5, 0xd5, 0xbe,
  0x30, 0x7a, 0x58, 0xbf, 0x03, 0xff, 0xf9, 0xbe, 0x2f, 0x1c, 0xb0, 0x3f,
  0x0e, 0xd8, 0x29, 0xbd, 0xe0, 0x93, 0xe5, 0xbe, 0xa3, 0x65, 0xeb, 0x3e,
  0xd5, 0x6a, 0x05, 0xc0, 0x68, 0x91, 0xe7, 0xbe, 0x53, 0xef, 0x57, 0xbf,
  0xa9, 0x93, 0x4a, 0xbf, 0x9d, 0xa5, 0xd9, 0x3f, 0x25, 0x5b, 0x18, 0xbd,
  0xeb, 0x34, 0xe1, 0xbe, 0xfd, 0x07, 0xc8, 0x3e, 0xd4, 0x26, 0xff, 0xbf,
  0xbd, 0xff, 0xec, 0xbe, 0x50, 0x17, 0x95, 0xbf, 0xfc, 0xe0, 0x21, 0xbf,
  0xc6, 0x98, 0xe3, 0x3f, 0x09, 0x77, 0x91, 0xbd, 0xb8, 0x5b, 0x05, 0xbd,
  0x8f, 0x70, 0x82, 0x3e, 0xf5, 0x11, 0xe8, 0xbf, 0x4e, 0x78, 0xb0, 0xbe,
  0x15, 0xc8, 0x3e, 0xbf, 0x59, 0x2c, 0x19, 0xbf, 0x77, 0xfb, 0xc3, 0x3f,
  0xc5, 0xf8, 0x01, 0x3d, 0xd6, 0x60, 0x40, 0xbe, 0x7f, 0x9b, 0xa8, 0x3e,
  0x3d, 0x54, 0xfe, 0xbf, 0x2b, 0x5a, 0x93, 0xbe, 0x2a, 0xcc, 0x87, 0xbf,
  0x3d, 0xf5, 0x47, 0xbf, 0x3d, 0x65, 0xd2, 0x3f, 0x12, 0xd1, 0x1e, 0x3e,
  0x9f, 0x82, 0xaf, 0xbe, 0x26, 0x4e, 0x05, 0x3f, 0xea, 0x07, 0x03, 0xc0,
  0x7d, 0xe5, 0x0b, 0xbf, 0xc0, 0xfc, 0x8f, 0xbf, 0x80, 0xeb, 0x3f, 0xbf,
  0xd9, 0x0a, 0xcd, 0x3f, 0x43, 0x13, 0xc2, 0xbc, 0x59, 0xe1, 0x4c, 0xbe,
  0xd4, 0x5d, 0xb2, 0x3e, 0x22, 0x0c, 0xe4, 0xbf, 0x25, 0x0a, 0xe4, 0xbe,
  0x9c, 0xbd, 0x39, 0xbf, 0x4f, 0x0e, 0x0e, 0xbf, 0x86, 0x8d, 0xa4, 0x3f,
  0x9a, 0xfc, 0x99, 0xbd, 0x66, 0x42, 0xc4, 0xbe, 0x85, 0x09, 0xa6, 0x3e,
  0xbb, 0x2f, 0x0a, 0xc0, 0x4c, 0x62, 0xd2, 0xbe, 0xa0, 0x70, 0x37, 0xbf,
  0x04, 0x00, 0x33, 0xbf, 0x06, 0x64, 0xdf, 0x3f, 0x85, 0xde, 0xcd, 0xbd,
  0x88, 0xa8, 0x83, 0xbe, 0xa7, 0xc3, 0x29, 0x3f, 0x30, 0x01, 0x05, 0xc0,
  0x4f, 0xa9, 0x94, 0xbe, 0xc0, 0xe0, 0x86, 0xbf, 0x97, 0x52, 0x36, 0xbf,
  0x26, 0x9c, 0xe0, 0x3f, 0xbd, 0xef, 0xb3, 0xbd, 0x13, 0xcc, 0xa8, 0xbe,
  0xd0, 0x99, 0x90, 0x3e, 0x40, 0x16, 0xd9, 0xbf, 0x0d, 0xb9, 0xc5, 0xbe,
  0x3a, 0x45, 0x25, 0xbf, 0xb3, 0x7c, 0xf8, 0xbe, 0x36, 0x10, 0xba, 0x3f,
  0x48, 0xe8, 0x44, 0xbd, 0x51, 0x58, 0xc4, 0xbe, 0x7b, 0x3e, 0x91, 0x3e,
  0xc4, 0x36, 0x0c, 0xc0, 0x6a, 0xdc, 0x06, 0xbf, 0x50, 0x41, 0x83, 0xbf,
  0x98, 0x45, 0x2e, 0xbf, 0xa0, 0x07, 0xc2, 0x3f, 0x28, 0x98, 0xfa, 0x3d,
  0x50, 0x52, 0x9d, 0xbe, 0xec, 0x78, 0x3e, 0x3f, 0xc4, 0x70, 0xf9, 0xbf,
  0x1d, 0x98, 0xf7, 0xbe, 0xa8, 0x7a, 0x82, 0xbf, 0x3c, 0x09, 0x23, 0xbf,
  0xf1, 0x14, 0xca, 0x3f, 0x49, 0x5d, 0xa2, 0xbc, 0x53, 0xbc, 0x72, 0xbe,
  0x79, 0xd1, 0x97, 0x3e, 0x35, 0x38, 0xe7, 0xbf, 0xc5, 0xc9, 0x85, 0xbe,
  0x16, 0x56, 0x75, 0xbf, 0x35, 0xa6, 0x32, 0xbf, 0xe8, 0x57, 0xd1, 0x3f,
  0x13, 0x43, 0x40, 0x3b, 0x77, 0x8c, 0x46, 0xbe, 0x58, 0x78, 0x7e, 0x3e,
  0x08, 0x5d, 0x09, 0xc0, 0x14, 0x71, 0xac, 0xbe, 0x6a, 0x91, 0x8d, 0xbf,
  0x55, 0x5f, 0x41, 0xbf, 0x26, 0xfb, 0xdc, 0x3f, 0x2e, 0x48, 0x8b, 0x3c,
  0x76, 0x0f, 0x62, 0xbe, 0xdf, 0xe2, 0x30, 0x3f, 0xcd, 0x98, 0x06, 0xc0,
  0x7a, 0xe0, 0xcb, 0xbe, 0x81, 0x8c, 0x74, 0xbf, 0x5c, 0x79, 0x40, 0xbf,
  0x4a, 0xfe, 0xc5, 0x3f, 0xa5, 0x6a, 0xda, 0xbd, 0x49, 0xcb, 0x64, 0xbe,
  0x82, 0xed, 0x94, 0x3e, 0xce, 0x83, 0xe1, 0xbf, 0x30, 0xb9, 0xe4, 0xbe,
  0x3c, 0x00, 0x52, 0xbf, 0x62, 0x68, 0x2a, 0xbf, 0xd7, 0x8e, 0xac, 0x3f,
  0x73, 0x6f, 0x1d, 0x3c, 0xf4, 0xfa, 0x76, 0xbe, 0x90, 0x0a, 0x11, 0x3e,
  0xcb, 0x24, 0xfc, 0xbf, 0xc5, 0x89, 0xcf, 0xbe, 0xee, 0x43, 0x49, 0xbf,
  0xf6, 0xa8, 0x4b, 0xbf, 0x22, 0xe4, 0xc1, 0x3f, 0xb7, 0xd3, 0xb3, 0x3d,
  0xad, 0xd9, 0x93, 0xbe, 0x94, 0x7d, 0x1d, 0x3f, 0x75, 0xe6, 0xfb, 0xbf,
  0xa4, 0xa6, 0x30, 0xbe, 0x65, 0xba, 0x58, 0xbf, 0x00, 0x23, 0xd0, 0xbe,
  0x31, 0x73, 0xce, 0x3f, 0x74, 0xe5, 0x4f, 0xbc, 0x2d, 0x51, 0x96, 0xbe,
  0xf6, 0x5e, 0xcb, 0x3e, 0x3f, 0x00, 0xd7, 0xbf, 0xfa, 0x51, 0x87, 0xbe,
  0xa2, 0x2f, 0x48, 0xbf, 0x1c, 0xbc, 0xb8, 0xbe, 0x7c, 0x2c, 0xc9, 0x3f,
  0xa5, 0x25, 0x51, 0x3e, 0xda, 0xfb, 0xa0, 0xbe, 0xf7, 0xf3, 0x6b, 0x3e,
  0x47, 0xd5, 0x09, 0xc0, 0x85, 0xa9, 0x6f, 0xbe, 0x65, 0x2c, 0x43, 0xbf,
  0x41, 0xa6, 0x53, 0xbf, 0x02, 0x65, 0xaf, 0x3f, 0xdf, 0x2b, 0x10, 0x3e,
  0x7a, 0x8c, 0xa3, 0xbe, 0xab, 0x36, 0x7b, 0xbe, 0x9f, 0x2d, 0x4d, 0xbd,
  0xb3, 0x6e, 0xf2, 0xbe, 0x49, 0x57, 0x98, 0xbd, 0xc7, 0xb6, 0xff, 0xbe,
  0x4a, 0xf6, 0xb7, 0x3f, 0x1c, 0x9f, 0xcf, 0x3d, 0x43, 0xdd, 0xe2, 0x3c,
  0x6d, 0x9a, 0xe0, 0xbd, 0x5e, 0xc8, 0xa3, 0xbd, 0x65, 0x46, 0xcc, 0x3d,
  0x9f, 0x58, 0x6c, 0xbd, 0x73, 0xfd, 0x00, 0xbd, 0x46, 0xc5, 0x09, 0x3f,
  0x17, 0x19, 0x33, 0x3e, 0x96, 0x4e, 0x1e, 0xbe, 0x84, 0x44, 0xa0, 0xbe,
  0xb1, 0x12, 0xbe, 0xbd, 0x76, 0x92, 0x6e, 0xbe, 0xcf, 0x63, 0x9e, 0xbe,
  0xe2, 0x3a, 0x7c, 0xbe, 0x23, 0x64, 0xa7, 0x3f, 0xf8, 0xd4, 0x0c, 0x3e,
  0xbe, 0xdb, 0x91, 0xbe, 0xe3, 0x44, 0x18, 0xbf, 0x00, 0xf6, 0x32, 0xbe,
  0x4a, 0x32, 0x01, 0xbf, 0x34, 0xa6, 0xab, 0xbe, 0xa2, 0x45, 0x00, 0xbf,
  0x78, 0xb9, 0xc2, 0x3f, 0x6a, 0xa0, 0x2e, 0x3d, 0xea, 0x73, 0x57, 0xbd,
  0x5b, 0x34, 0x5b, 0xbe, 0x3d, 0xb3, 0xef, 0xbd, 0x85, 0xe4, 0x0e, 0xbd,
  0xbd, 0x46, 0x4d, 0xbd, 0xdb, 0x60, 0x20, 0xbe, 0x7a, 0x18, 0x0a, 0x3f,
  0xcb, 0x8a, 0x15, 0x3d, 0x11, 0x21, 0x86, 0xbe, 0x0e, 0xa0, 0x9b, 0xbe,
  0xee, 0x13, 0x49, 0xbc, 0x19, 0x11, 0xd7, 0xbe, 0xed, 0x83, 0xbb, 0xbe,
  0x65, 0x7f, 0xca, 0xbe, 0xef, 0x83, 0xb4, 0x3f, 0x23, 0x91, 0x12, 0x3e,
  0x81, 0x43, 0x0c, 0xbf, 0xef, 0xf5, 0xdb, 0xbe, 0xd5, 0xf6, 0x0f, 0xbe,
  0xe1, 0xc3, 0x00, 0xbf, 0x68, 0x35, 0x9c, 0xbe, 0x59, 0x89, 0x17, 0xbf,
  0x0c, 0x34, 0xda, 0x3f, 0x3a, 0xe3, 0xb2, 0x3c, 0x22, 0x3a, 0xd8, 0x3d,
  0x7f, 0x62, 0x53, 0xbe, 0xc8, 0x6a, 0x22, 0x3d, 0xc5, 0x08, 0x13, 0xbd,
  0x5e, 0x6e, 0x83, 0x3d, 0xd2, 0x76, 0xb7, 0xbd, 0xc0, 0x79, 0x51, 0x3f,
  0xc0, 0xec, 0x1a, 0x3e, 0x22, 0x70, 0x01, 0xbe, 0x9b, 0x36, 0xd2, 0xbe,
  0x75, 0x0f, 0xaf, 0xbd, 0xe6, 0x5e, 0x19, 0xbf, 0xf2, 0x97, 0x9e, 0xbe,
  0xe3, 0xa9, 0x02, 0xbf, 0x0e, 0x81, 0xc4, 0x3f, 0x57, 0x68, 0x3f, 0x3e,
  0x78, 0xa7, 0xeb, 0xbe, 0x5a, 0xe0, 0xec, 0xbe, 0x36, 0xa6, 0x19, 0xbd,
  0xe3, 0x12, 0x03, 0xbf, 0xbc, 0x4d, 0x09, 0xbe, 0x98, 0x83, 0x05, 0xbf,
  0xd2, 0xfd, 0xd2, 0x3f, 0x30, 0xf3, 0x0e, 0x3d, 0x8f, 0x22, 0x32, 0x3e,
  0x52, 0xd2, 0x8e, 0x3d, 0x9a, 0xbd, 0x65, 0x3d, 0x74, 0x8e, 0xe5, 0x3c,
  0xb5, 0x74, 0xee, 0x3c, 0xda, 0xbf, 0x8c, 0xbc, 0x71, 0xb5, 0x06, 0x3f,
  0x42, 0x55, 0x5e, 0x3e, 0x57, 0x04, 0x97, 0xbe, 0x85, 0x25, 0x8d, 0xbe,
  0x24, 0xb0, 0xfe, 0xbd, 0xa4, 0x35, 0xda, 0xbe, 0x17, 0xd3, 0x07, 0xbf,
  0x84, 0xaf, 0xba, 0xbe, 0xa5, 0xf2, 0xb9, 0x3f, 0xc7, 0xf7, 0xff, 0x3d,
  0x17, 0x25, 0xf4, 0xbe, 0xc8, 0x67, 0xf3, 0xbe, 0xe0, 0xb5, 0x90, 0xbb,
  0x5b, 0xb1, 0xb4, 0xbe, 0x43, 0x53, 0x8e, 0xbe, 0x1a, 0x06, 0x06, 0xbf,
  0xf2, 0x1c, 0xb5, 0x3f, 0xd4, 0x97, 0x5b, 0x3c, 0x9a, 0xda, 0x8d, 0xbd,
  0x0f, 0x89, 0x6a, 0x3d, 0xf6, 0x69, 0xb4, 0x3c, 0x34, 0x7e, 0x01, 0xbd,
  0x9f, 0x0e, 0x6b, 0x3d, 0xbb, 0xf2, 0xda, 0xbc, 0xdd, 0xe8, 0x57, 0x3f,
  0x96, 0x24, 0x26, 0x3e, 0xe0, 0xff, 0x12, 0xbe, 0xfc, 0xa4, 0x57, 0xbe,
  0x4c, 0xfd, 0x19, 0xbe, 0x17, 0x25, 0x4b, 0xbe, 0x76, 0xa9, 0xf1, 0xbe,
  0xc3, 0x5f, 0x53, 0xbe, 0x5a, 0x5a, 0xc3, 0x3f, 0xdf, 0x00, 0x4a, 0x3e,
  0xa4, 0xc8, 0xd6, 0xbe, 0xa2, 0x55, 0xa3, 0xbe, 0x6f, 0x4f, 0x85, 0xbd,
  0x87, 0x0b, 0x2e, 0xbf, 0xcf, 0xfc, 0x83, 0xbe, 0xef, 0x03, 0xfd, 0xbe,
  0xe7, 0x43, 0xbe, 0x3f, 0x9a, 0x39, 0x1d, 0x3e, 0x82, 0x11, 0x1e, 0xbe,
  0xbf, 0xdb, 0x50, 0xbe, 0x43, 0xed, 0x8d, 0x3d, 0xa1, 0xc1, 0x2f, 0xbc,
  0x86, 0x33, 0x1c, 0x3e, 0x4c, 0x7f, 0x72, 0x3c, 0x95, 0x5e, 0x35, 0x3f,
  0x82, 0x25, 0x83, 0x3e, 0x9d, 0x67, 0xb4, 0xbe, 0x45, 0xd3, 0xc5, 0xbe,
  0x31, 0xf4, 0x8b, 0x3d, 0x3b, 0x9b, 0xbc, 0xbe, 0x96, 0x77, 0x42, 0xbe,
  0x5f, 0xf2, 0x70, 0xbe, 0xe2, 0x9b, 0xca, 0x3f, 0x88, 0xc5, 0xcb, 0x3c,
  0xd6, 0x8a, 0x0c, 0xbf, 0x45, 0x7a, 0xa8, 0xbe, 0x07, 0x83, 0xb1, 0x3a,
  0xed, 0x02, 0x14, 0xbf, 0x18, 0xd1, 0x89, 0xbe, 0x38, 0x5d, 0xe2, 0xbe,
  0x37, 0x5c, 0xc6, 0x3f, 0x7d, 0x6a, 0x8b, 0x3c, 0x16, 0x74, 0xd4, 0xbd,
  0x77, 0x7e, 0xb7, 0xbd, 0x22, 0x97, 0xc5, 0x3c, 0x5c, 0x23, 0xcb, 0xbc,
  0x4a, 0x69, 0x78, 0xbd, 0x47, 0x60, 0x95, 0x3d, 0xf4, 0xe3, 0x3b, 0x3f,
  0x56, 0xc4, 0x17, 0x3e, 0x2a, 0xd1, 0x70, 0xbe, 0x9a, 0xed, 0xaf, 0xbe,
  0x75, 0x0b, 0x61, 0xbd, 0x1f, 0x26, 0xe4, 0xbe, 0x9f, 0x95, 0xd6, 0xbe,
  0xe4, 0x6b, 0x8e, 0xbe, 0x8c, 0x0d, 0xcb, 0x3f, 0x48, 0x12, 0x26, 0x3e,
  0xe2, 0x39, 0xe7, 0xbe, 0x0f, 0x76, 0xaa, 0xbe, 0x64, 0xbc, 0x67, 0xbd,
  0xa1, 0xde, 0x06, 0xbf, 0x64, 0xbf, 0x81, 0xbe, 0x82, 0x75, 0x10, 0xbf,
  0xca, 0x3a, 0xb2, 0x3f, 0x17, 0x38, 0xc6, 0x3d, 0x74, 0x8d, 0xef, 0xbd,
  0xa4, 0xe0, 0x37, 0xbd, 0x10, 0xf0, 0x02, 0xbe, 0x08, 0xbb, 0x6b, 0xbe,
  0x5b, 0x64, 0x44, 0x3d, 0x22, 0x2c, 0xd0, 0xbd, 0x0a, 0xe2, 0x1c, 0x3f,
  0xf3, 0xac, 0x42, 0x3e, 0xff, 0x02, 0xb9, 0xbe, 0x2b, 0x74, 0xa5, 0xbe,
  0x43, 0x88, 0x4b, 0xbe, 0xb9, 0x79, 0xd1, 0xbe, 0xbb, 0xc2, 0x0d, 0xbf,
  0xc3, 0xb5, 0xff, 0xbe, 0x0e, 0x7f, 0xe2, 0x3f, 0x07, 0x60, 0xd5, 0x3d,
  0x2e, 0xe2, 0x0c, 0xbf, 0x38, 0x1f, 0xfe, 0xbe, 0x8b, 0x0d, 0x7c, 0xbd,
  0x3c, 0xd5, 0x16, 0xbf, 0x5b, 0x19, 0x12, 0xbe, 0x7f, 0x44, 0xe3, 0xbe,
  0x22, 0xa7, 0xa0, 0x3f, 0x25, 0x13, 0x10, 0x3e, 0x9a, 0x6f, 0xf1, 0x3d,
  0xe2, 0x7c, 0x0c, 0xbe, 0x44, 0x2d, 0x9c, 0x3d, 0x23, 0x4e, 0xc3, 0x3c,
  0xe7, 0x79, 0x0b, 0x3d, 0x89, 0xce, 0x49, 0xbc, 0x88, 0x3c, 0x3d, 0x3f,
  0xe2, 0x6a, 0xc2, 0x3d, 0x66, 0x0d, 0x5d, 0xbe, 0x82, 0xd8, 0xb8, 0xbe,
  0x19, 0x50, 0xed, 0xbd, 0xc7, 0x97, 0x02, 0xbf, 0x6c, 0x4e, 0xc7, 0xbe,
  0xa0, 0x3a, 0xf9, 0xbe, 0x92, 0x2a, 0xb7, 0x3f, 0x0f, 0xda, 0xd4, 0x3d,
  0x56, 0x5a, 0xbc, 0xbe, 0x3d, 0xde, 0xa6, 0xbe, 0xc6, 0x7f, 0x15, 0xbe,
  0x61, 0x89, 0xfb, 0xbe, 0x50, 0xac, 0xef, 0xbe, 0x09, 0x09, 0x03, 0xbf,
  0x38, 0xf9, 0xb6, 0x3f, 0xe0, 0x80, 0x07, 0xbd, 0x5f, 0x53, 0x0d, 0x3e,
  0x85, 0x5e, 0xcd, 0xbd, 0xe1, 0x1d, 0xd3, 0x3d, 0xad, 0x41, 0x19, 0xbe,
  0x86, 0x4a, 0x5e, 0xbd, 0x9a, 0x34, 0x77, 0xba, 0xb1, 0x73, 0x11, 0x3f,
  0x40, 0xa1, 0x64, 0x3e, 0x20, 0x92, 0x93, 0xbe, 0x34, 0x95, 0xb0, 0xbe,
  0x76, 0xb4, 0x8f, 0xbd, 0x67, 0xcd, 0xa4, 0xbe, 0xcd, 0xb6, 0x87, 0xbe,
  0x91, 0x38, 0xd1, 0xbe, 0xaa, 0x29, 0xb4, 0x3f, 0x90, 0xff, 0x96, 0x3d,
  0xc5, 0xae, 0xb0, 0x3e, 0x3c, 0x52, 0xde, 0x3d, 0xa7, 0x81, 0x53, 0x3e,
  0xbb, 0x0b, 0x10, 0x3f, 0xf3, 0xa1, 0x01, 0x3f, 0x47, 0x96, 0x1c, 0x3f,
  0x4d, 0x5f, 0xfc, 0xbf, 0xa1, 0xc6, 0xef, 0xbd, 0xe5, 0x05, 0x69, 0xbb,
  0x04, 0xc6, 0x45, 0xbd, 0xf6, 0x5e, 0x2f, 0x3e, 0x9c, 0x83, 0x5f, 0x3d,
  0xcd, 0xb4, 0x73, 0x3e, 0xdb, 0xda, 0x14, 0x3e, 0x5a, 0x27, 0xa1, 0xbf,
  0x2f, 0xa8, 0x4d, 0xbe, 0x47, 0xb1, 0x8b, 0x3e, 0x93, 0x13, 0x80, 0x3c,
  0xb0, 0xc7, 0xa3, 0x3e, 0xc2, 0x5f, 0x04, 0x3f, 0x94, 0xdd, 0x04, 0x3f,
  0xc5, 0x90, 0xe8, 0x3e, 0x76, 0x36, 0xfc, 0xbf, 0xb2, 0x92, 0x55, 0xbe,
  0x1b, 0x07, 0xf3, 0x3e, 0x90, 0x73, 0x90, 0x3e, 0xee, 0xbe, 0x2f, 0x3e,
  0xf2, 0x76, 0x14, 0x3f, 0x0a, 0xc9, 0xee, 0x3e, 0xa6, 0x4b, 0x0f, 0x3f,
  0x13, 0xaf, 0x0a, 0xc0, 0xd5, 0xe2, 0xaa, 0xbd, 0xe1, 0xe3, 0x09, 0x3e,
  0x55, 0xf2, 0xd5, 0xbd, 0xd1, 0xee, 0x3d, 0x3e, 0xf3, 0xe1, 0x88, 0x3e,
  0x99, 0x2a, 0x53, 0x3e, 0x72, 0xc9, 0x16, 0x3e, 0xe7, 0x91, 0xa0, 0xbf,
  0xed, 0x30, 0x74, 0xbe, 0xbe, 0x26, 0xde, 0x3e, 0xc6, 0xf9, 0x33, 0x3e,
  0xe4, 0x4c, 0xc2, 0x3e, 0xbe, 0x39, 0xde, 0x3e, 0x7b, 0x54, 0x14, 0x3f,
  0x99, 0xf1, 0xf4, 0x3e, 0xb7, 0xd7, 0x08, 0xc0, 0x88, 0xba, 0x08, 0xbe,
  0x4e, 0x28, 0xe5, 0x3e, 0xb8, 0xf8, 0x9f, 0x3e, 0xee, 0xfd, 0xf9, 0x3d,
  0x3e, 0x0d, 0x21, 0x3f, 0x13, 0x86, 0x06, 0x3f, 0x3e, 0xc2, 0x36, 0x3f,
  0x8f, 0xe8, 0x17, 0xc0, 0x2d, 0xb2, 0xfc, 0xbd, 0xfb, 0xbf, 0x02, 0xbd,
  0xae, 0x45, 0x0d, 0xbe, 0x29, 0xca, 0x82, 0x3e, 0x4e, 0xeb, 0x36, 0x3e,
  0x7f, 0x93, 0x17, 0x3e, 0x37, 0xc8, 0x96, 0x3e, 0x31, 0x6a, 0x9f, 0xbf,
  0x1c, 0xb2, 0xcf, 0xbd, 0x89, 0xb7, 0xbf, 0x3e, 0x31, 0x36, 0x90, 0x3e,
  0x30, 0x20, 0xac, 0x3e, 0x9b, 0xd3, 0x25, 0x3f, 0x77, 0x15, 0x29, 0x3f,
  0x41, 0x74, 0x2d, 0x3f, 0x8c, 0x7f, 0x04, 0xc0, 0x4c, 0x82, 0x70, 0xbc,
  0x5f, 0x4a, 0x0f, 0x3f, 0x33, 0x0d, 0x07, 0x3e, 0x64, 0x52, 0xc4, 0x3d,
  0xaf, 0x3b, 0x29, 0x3f, 0x26, 0x25, 0x11, 0x3f, 0x62, 0x56, 0xd3, 0x3e,
  0x68, 0x2a, 0xf4, 0xbf, 0x42, 0x0c, 0xdf, 0xbd, 0x66, 0x39, 0x83, 0x3d,
  0x23, 0xcb, 0xae, 0x3c, 0x31, 0x85, 0x6a, 0x3e, 0x19, 0x58, 0x98, 0x3d,
  0xa7, 0x47, 0x3e, 0x3e, 0x4f, 0xc2, 0x1d, 0x3e, 0x48, 0x1e, 0x80, 0xbf,
  0x02, 0x6e, 0x37, 0xbe, 0x4e, 0xc8, 0xde, 0x3e, 0xe6, 0xb4, 0x64, 0x3e,
  0x05, 0x00, 0x4e, 0x3e, 0x8a, 0xb4, 0x22, 0x3f, 0x9d, 0xf1, 0x0e, 0x3f,
  0xaa, 0x56, 0x00, 0x3f, 0x81, 0xe5, 0x06, 0xc0, 0x14, 0x37, 0x52, 0xbe,
  0x99, 0x1d, 0xee, 0x3e, 0x0d, 0xaa, 0xc6, 0x3c, 0xfa, 0xf1, 0x89, 0x3e,
  0xce, 0xf5, 0x05, 0x3f, 0xde, 0xb8, 0xbb, 0x3e, 0x16, 0x4b, 0x31, 0x3f,
  0x79, 0xf6, 0x09, 0xc0, 0xe2, 0x2f, 0x0d, 0xbe, 0x20, 0x42, 0xa7, 0x3d,
  0x02, 0x99, 0x16, 0xbe, 0xf3, 0x54, 0x95, 0x3e, 0xbd, 0xcc, 0x12, 0x3e,
  0x17, 0x4b, 0xa8, 0x3e, 0x03, 0x20, 0x8a, 0x3e, 0x7c, 0x7a, 0x99, 0xbf,
  0xdc, 0x12, 0x08, 0xbe, 0x7a, 0xe9, 0xa8, 0x3e, 0xa1, 0xa3, 0x69, 0x3e,
  0xd7, 0xab, 0xad, 0x3e, 0x31, 0x18, 0x99, 0x3e, 0x19, 0x0d, 0x21, 0x3f,
  0xc2, 0x8d, 0xd7, 0x3e, 0x9b, 0x89, 0xf0, 0xbf, 0xe0, 0xd8, 0x2c, 0xbe,
  0xc4, 0xa4, 0xeb, 0x3e, 0x41, 0x10, 0x80, 0x3e, 0xa6, 0xb6, 0x71, 0x3e,
  0x91, 0x7b, 0x02, 0x3f, 0xf2, 0xc5, 0x8d, 0x3e, 0xbb, 0x2e, 0x0e, 0x3f,
  0x69, 0x72, 0x04, 0xc0, 0xf7, 0x90, 0x87, 0x3d, 0x96, 0x9b, 0xe6, 0xbc,
  0xf2, 0x94, 0x1d, 0xbe, 0x2d, 0x6d, 0x6e, 0x3e, 0x83, 0x6c, 0xcf, 0x3d,
  0xec, 0xf5, 0xf3, 0x3d, 0x1e, 0x74, 0x9f, 0x3e, 0x6b, 0xb3, 0x6a, 0xbf,
  0x83, 0x81, 0x14, 0xbe, 0xcc, 0xaf, 0xa1, 0x3e, 0x3a, 0xf2, 0x02, 0xbd,
  0xde, 0xd1, 0x9b, 0x3e, 0x73, 0x9e, 0xe4, 0x3e, 0xdb, 0x07, 0x27, 0x3f,
  0x4c, 0x52, 0xc7, 0x3e, 0xf0, 0xaf, 0xf4, 0xbf, 0x00, 0xa8, 0x62, 0xbe,
  0x02, 0xc6, 0x25, 0x3f, 0x68, 0x64, 0x9c, 0x3e, 0xb2, 0xd3, 0x99, 0x3e,
  0x86, 0xf6, 0x20, 0x3f, 0x65, 0xdf, 0x93, 0x3e, 0x92, 0x09, 0x28, 0x3f,
  0x85, 0x62, 0x0b, 0xc0, 0x70, 0x6d, 0xa1, 0xbd, 0xa9, 0xb1, 0x93, 0x3c,
  0xf2, 0x64, 0x92, 0xbd, 0x2a, 0x5d, 0x85, 0x3e, 0x4c, 0x88, 0x46, 0x3e,
  0x62, 0xf9, 0x16, 0x3e, 0x17, 0xb8, 0x82, 0x3e, 0xfe, 0x24, 0x84, 0xbf,
  0x27, 0x25, 0x9f, 0xbe, 0x38, 0xe0, 0xbb, 0x3e, 0xdb, 0xca, 0x02, 0x3e,
  0xf9, 0xbe, 0xab, 0x3e, 0xf1, 0xb5, 0xc8, 0x3e, 0xec, 0x74, 0x1b, 0x3f,
  0xa0, 0x06, 0x05, 0x3f, 0x31, 0x37, 0xee, 0xbf, 0x12, 0x08, 0x28, 0xbe,
  0xda, 0x22, 0x0a, 0x3f, 0x81, 0x8b, 0x39, 0x3e, 0x92, 0x38, 0xdc, 0x3e,
  0x7a, 0x18, 0x00, 0x3f, 0x05, 0xf2, 0xf1, 0x3e, 0x5a, 0x4c, 0x25, 0x3f,
  0xa0, 0xc6, 0x0d, 0xc0, 0x4f, 0x6b, 0xd4, 0xbd, 0xc3, 0x51, 0x2d, 0x3e,
  0x9f, 0x33, 0x0c, 0x3c, 0x8d, 0xeb, 0x92, 0x3d, 0xf9, 0x46, 0x53, 0x3d,
  0x50, 0xb4, 0x97, 0x3e, 0xc0, 0xe4, 0xbf, 0x3e, 0x9d, 0xb4, 0x99, 0xbf,
  0x93, 0x83, 0xca, 0xbc, 0xbd, 0xa1, 0x9c, 0x3e, 0xb2, 0x26, 0x9a, 0x3e,
  0xec, 0xd2, 0x13, 0x3f, 0xf0, 0x8c, 0x28, 0x3f, 0x52, 0x2e, 0x79, 0x3f,
  0xf4, 0xbb, 0xe5, 0x3e, 0xb1, 0x03, 0x08, 0xc0, 0x5f, 0x9d, 0x8a, 0xbe,
  0x47, 0x92, 0xc3, 0x3e, 0x43, 0x38, 0x29, 0x3d, 0x22, 0x99, 0x41, 0x3e,
  0x22, 0x1c, 0x35, 0x3f, 0xbc, 0x42, 0xf6, 0x3e, 0x26, 0x30, 0x35, 0x3f,
  0x29, 0x32, 0x08, 0xc0, 0xe8, 0x21, 0xce, 0xbd, 0xa5, 0x25, 0x6f, 0x3d,
  0x7d, 0xcf, 0x38, 0xbd, 0xe0, 0xa7, 0x11, 0x3e, 0x2a, 0xcb, 0x00, 0x3e,
  0x8b, 0x45, 0x68, 0x3d, 0xfa, 0x0d, 0xc7, 0x3d, 0xaf, 0xf0, 0xa5, 0xbf,
  0x1c, 0x63, 0x98, 0xbe, 0x6e, 0x34, 0x9e, 0x3e, 0x83, 0xf7, 0x9e, 0x3e,
  0xef, 0xc7, 0xec, 0x3e, 0x9a, 0x59, 0x05, 0x3f, 0x7e, 0x99, 0x27, 0x3f,
  0x5e, 0x47, 0x28, 0x3f, 0x23, 0xb7, 0x08, 0xc0, 0xf1, 0x0b, 0x39, 0xbe,
  0x33, 0x38, 0xde, 0x3e, 0x4c, 0x19, 0xaf, 0x3d, 0xe7, 0x3d, 0x8c, 0x3e,
  0x61, 0x1a, 0x1e, 0x3f, 0x8b, 0xbf, 0xfe, 0x3e, 0x8f, 0x6f, 0xc2, 0x3e,
  0xb6, 0xbf, 0x06, 0xc0, 0xed, 0x8e, 0x4b, 0xbe, 0x15, 0xc6, 0x32, 0x3d,
  0xff, 0x89, 0x80, 0xbd, 0x4e, 0x63, 0x7e, 0x3d, 0x57, 0xb1, 0x52, 0xbd,
  0x77, 0x1b, 0x9f, 0x3e, 0x89, 0x2e, 0x75, 0x3e, 0x2e, 0x96, 0x8c, 0xbf,
  0x0f, 0x8f, 0x36, 0xbe, 0x91, 0xc9, 0x1a, 0x3e, 0xec, 0x8e, 0xe9, 0xbc,
  0x78, 0xc8, 0x9c, 0x3e, 0xb9, 0xbc, 0xb4, 0x3e, 0xe6, 0x9d, 0x2d, 0x3f,
  0x9d, 0x3d, 0xe0, 0x3e, 0x5f, 0x6e, 0x03, 0xc0, 0x26, 0xec, 0xb3, 0xbe,
  0x92, 0xfe, 0xff, 0xff, 0x04, 0x00, 0x00, 0x00, 0x08, 0x00, 0x00, 0x00,
  0xff, 0xff, 0xff, 0xff, 0xf0, 0x00, 0x00, 0x00, 0xa6, 0xfe, 0xff, 0xff,
  0x04, 0x00, 0x00, 0x00, 0x0c, 0x00, 0x00, 0x00, 0x5d, 0x78, 0x42, 0xbe,
  0xa2, 0xb9, 0xe4, 0x3e, 0x87, 0x80, 0xeb, 0xbe, 0xbe, 0xfe, 0xff, 0xff,
  0x04, 0x00, 0x00, 0x00, 0x80, 0x00, 0x00, 0x00, 0x8d, 0xcb, 0x48, 0x3d,
  0xbe, 0x41, 0xb6, 0xbf, 0x01, 0x97, 0x86, 0x3e, 0xf7, 0x68, 0x94, 0x3e,
  0x86, 0x57, 0x0d, 0x3f, 0x08, 0x2e, 0xc2, 0xbf, 0x40, 0x7f, 0xe0, 0x3e,
  0x21, 0x63, 0x93, 0xbe, 0xba, 0x5f, 0x8b, 0xbf, 0x2b, 0x3f, 0xe8, 0x3e,
  0x96, 0xf8, 0x92, 0x3d, 0x62, 0x86, 0xab, 0xbf, 0xe2, 0xa6, 0x32, 0xbd,
  0xaa, 0x24, 0xf9, 0xbf, 0x63, 0x36, 0xa5, 0x3e, 0x07, 0x72, 0xd7, 0x3e,
  0x10, 0x24, 0xd0, 0xbf, 0xd8, 0xc2, 0xde, 0x3e, 0x4c, 0x61, 0xf4, 0x3d,
  0xbc, 0x44, 0xf3, 0xbf, 0x21, 0x5e, 0x70, 0xbd, 0x7e, 0xd7, 0x02, 0xc0,
  0x7f, 0xdc, 0x89, 0x3e, 0x4b, 0x63, 0xd5, 0x3e, 0xef, 0x70, 0x58, 0xbf,
  0xa7, 0x78, 0x09, 0xbe, 0xcb, 0x26, 0xea, 0xbd, 0x9e, 0xbd, 0x37, 0x3f,
  0xf6, 0x4b, 0xdd, 0x3e, 0xf8, 0x73, 0xca, 0x3e, 0x16, 0x0a, 0xc6, 0x3e,
  0x2e, 0x93, 0x42, 0xbd, 0x4a, 0xff, 0xff, 0xff, 0x04, 0x00, 0x00, 0x00,
  0x20, 0x00, 0x00, 0x00, 0xd5, 0xe6, 0x74, 0xbe, 0xb5, 0xb0, 0x50, 0xbe,
  0xeb, 0x47, 0xc7, 0x3d, 0xa3, 0x76, 0x92, 0xbe, 0x68, 0x0f, 0x82, 0xbd,
  0xcc, 0xa4, 0x42, 0xbe, 0xf3, 0x6e, 0x5d, 0x3e, 0x16, 0x6a, 0xb5, 0x3c,
  0xb0, 0xf9, 0xff, 0xff, 0xb4, 0xf9, 0xff, 0xff, 0x0f, 0x00, 0x00, 0x00,
  0x4d, 0x4c, 0x49, 0x52, 0x20, 0x43, 0x6f, 0x6e, 0x76, 0x65, 0x72, 0x74,
  0x65, 0x64, 0x2e, 0x00, 0x01, 0x00, 0x00, 0x00, 0x14, 0x00, 0x00, 0x00,
  0x00, 0x00, 0x0e, 0x00, 0x18, 0x00, 0x14, 0x00, 0x10, 0x00, 0x0c, 0x00,
  0x08, 0x00, 0x04, 0x00, 0x0e, 0x00, 0x00, 0x00, 0x14, 0x00, 0x00, 0x00,
  0x1c, 0x00, 0x00, 0x00, 0x88, 0x01, 0x00, 0x00, 0x8c, 0x01, 0x00, 0x00,
  0x90, 0x01, 0x00, 0x00, 0x04, 0x00, 0x00, 0x00, 0x6d, 0x61, 0x69, 0x6e,
  0x00, 0x00, 0x00, 0x00, 0x05, 0x00, 0x00, 0x00, 0x20, 0x01, 0x00, 0x00,
  0xbc, 0x00, 0x00, 0x00, 0x84, 0x00, 0x00, 0x00, 0x40, 0x00, 0x00, 0x00,
  0x04, 0x00, 0x00, 0x00, 0x62, 0xff, 0xff, 0xff, 0x1c, 0x00, 0x00, 0x00,
  0x00, 0x00, 0x00, 0x09, 0x1c, 0x00, 0x00, 0x00, 0x20, 0x00, 0x00, 0x00,
  0x04, 0x00, 0x00, 0x00, 0x00, 0x00, 0x06, 0x00, 0x08, 0x00, 0x04, 0x00,
  0x06, 0x00, 0x00, 0x00, 0x00, 0x00, 0x80, 0x3f, 0x01, 0x00, 0x00, 0x00,
  0x0a, 0x00, 0x00, 0x00, 0x01, 0x00, 0x00, 0x00, 0x09, 0x00, 0x00, 0x00,
  0x9a, 0xff, 0xff, 0xff, 0x14, 0x00, 0x00, 0x00, 0x00, 0x00, 0x00, 0x08,
  0x10, 0x00, 0x00, 0x00, 0x14, 0x00, 0x00, 0x00, 0x03, 0x00, 0x00, 0x00,
  0x70, 0xfa, 0xff, 0xff, 0x01, 0x00, 0x00, 0x00, 0x09, 0x00, 0x00, 0x00,
  0x03, 0x00, 0x00, 0x00, 0x08, 0x00, 0x00, 0x00, 0x05, 0x00, 0x00, 0x00,
  0x03, 0x00, 0x00, 0x00, 0x00, 0x00, 0x0a, 0x00, 0x10, 0x00, 0x0c, 0x00,
  0x08, 0x00, 0x04, 0x00, 0x0a, 0x00, 0x00, 0x00, 0x0c, 0x00, 0x00, 0x00,
  0x10, 0x00, 0x00, 0x00, 0x02, 0x00, 0x00, 0x00, 0x01, 0x00, 0x00, 0x00,
  0x08, 0x00, 0x00, 0x00, 0x02, 0x00, 0x00, 0x00, 0x07, 0x00, 0x00, 0x00,
  0x04, 0x00, 0x00, 0x00, 0x00, 0x00, 0x0e, 0x00, 0x1a, 0x00, 0x14, 0x00,
  0x10, 0x00, 0x0c, 0x00, 0x0b, 0x00, 0x04, 0x00, 0x0e, 0x00, 0x00, 0x00,
  0x24, 0x00, 0x00, 0x00, 0x00, 0x00, 0x00, 0x05, 0x34, 0x00, 0x00, 0x00,
  0x38, 0x00, 0x00, 0x00, 0x01, 0x00, 0x00, 0x00, 0x00, 0x00, 0x0e, 0x00,
  0x18, 0x00, 0x17, 0x00, 0x10, 0x00, 0x0c, 0x00, 0x08, 0x00, 0x04, 0x00,
  0x0e, 0x00, 0x00, 0x00, 0x02, 0x00, 0x00, 0x00, 0x01, 0x00, 0x00, 0x00,
  0x02, 0x00, 0x00, 0x00, 0x01, 0x00, 0x00, 0x00, 0x00, 0x00, 0x00, 0x01,
  0x01, 0x00, 0x00, 0x00, 0x07, 0x00, 0x00, 0x00, 0x01, 0x00, 0x00, 0x00,
  0x06, 0x00, 0x00, 0x00, 0x00, 0x00, 0x0e, 0x00, 0x14, 0x00, 0x00, 0x00,
  0x10, 0x00, 0x0c, 0x00, 0x0b, 0x00, 0x04, 0x00, 0x0e, 0x00, 0x00, 0x00,
  0x1c, 0x00, 0x00, 0x00, 0x00, 0x00, 0x00, 0x01, 0x28, 0x00, 0x00, 0x00,
  0x2c, 0x00, 0x00, 0x00, 0x0c, 0x00, 0x14, 0x00, 0x13, 0x00, 0x0c, 0x00,
  0x08, 0x00, 0x07, 0x00, 0x0c, 0x00, 0x00, 0x00, 0x00, 0x00, 0x00, 0x01,
  0x01, 0x00, 0x00, 0x00, 0x01, 0x00, 0x00, 0x00, 0x00, 0x00, 0x00, 0x01,
  0x01, 0x00, 0x00, 0x00, 0x06, 0x00, 0x00, 0x00, 0x03, 0x00, 0x00, 0x00,
  0x00, 0x00, 0x00, 0x00, 0x02, 0x00, 0x00, 0x00, 0x01, 0x00, 0x00, 0x00,
  0x01, 0x00, 0x00, 0x00, 0x0a, 0x00, 0x00, 0x00, 0x01, 0x00, 0x00, 0x00,
  0x00, 0x00, 0x00, 0x00, 0x0b, 0x00, 0x00, 0x00, 0x44, 0x04, 0x00, 0x00,
  0xd4, 0x03, 0x00, 0x00, 0x68, 0x03, 0x00, 0x00, 0x14, 0x03, 0x00, 0x00,
  0xc8, 0x02, 0x00, 0x00, 0x68, 0x02, 0x00, 0x00, 0xa4, 0x01, 0x00, 0x00,
  0x30, 0x01, 0x00, 0x00, 0xd4, 0x00, 0x00, 0x00, 0x60, 0x00, 0x00, 0x00,
  0x04, 0x00, 0x00, 0x00, 0xfe, 0xfb, 0xff, 0xff, 0x00, 0x00, 0x00, 0x01,
  0x14, 0x00, 0x00, 0x00, 0x1c, 0x00, 0x00, 0x00, 0x1c, 0x00, 0x00, 0x00,
  0x0b, 0x00, 0x00, 0x00, 0x34, 0x00, 0x00, 0x00, 0x02, 0x00, 0x00, 0x00,
  0xff, 0xff, 0xff, 0xff, 0x03, 0x00, 0x00, 0x00, 0xe0, 0xfb, 0xff, 0xff,
  0x19, 0x00, 0x00, 0x00, 0x53, 0x74, 0x61, 0x74, 0x65, 0x66, 0x75, 0x6c,
  0x50, 0x61, 0x72, 0x74, 0x69, 0x74, 0x69, 0x6f, 0x6e, 0x65, 0x64, 0x43,
  0x61, 0x6c, 0x6c, 0x3a, 0x30, 0x00, 0x00, 0x00, 0x02, 0x00, 0x00, 0x00,
  0x01, 0x00, 0x00, 0x00, 0x03, 0x00, 0x00, 0x00, 0x56, 0xfc, 0xff, 0xff,
  0x00, 0x00, 0x00, 0x01, 0x14, 0x00, 0x00, 0x00, 0x1c, 0x00, 0x00, 0x00,
  0x1c, 0x00, 0x00, 0x00, 0x0a, 0x00, 0x00, 0x00, 0x4c, 0x00, 0x00, 0x00,
  0x02, 0x00, 0x00, 0x00, 0xff, 0xff, 0xff, 0xff, 0x03, 0x00, 0x00, 0x00,
  0x38, 0xfc, 0xff, 0xff, 0x30, 0x00, 0x00, 0x00, 0x73, 0x65, 0x71, 0x75,
  0x65, 0x6e, 0x74, 0x69, 0x61, 0x6c, 0x2f, 0x64, 0x65, 0x6e, 0x73, 0x65,
  0x2f, 0x4d, 0x61, 0x74, 0x4d, 0x75, 0x6c, 0x3b, 0x73, 0x65, 0x71, 0x75,
  0x65, 0x6e, 0x74, 0x69, 0x61, 0x6c, 0x2f, 0x64, 0x65, 0x6e, 0x73, 0x65,
  0x2f, 0x42, 0x69, 0x61, 0x73, 0x41, 0x64, 0x64, 0x00, 0x00, 0x00, 0x00,
  0x02, 0x00, 0x00, 0x00, 0x01, 0x00, 0x00, 0x00, 0x03, 0x00, 0x00, 0x00,
  0xc6, 0xfc, 0xff, 0xff, 0x00, 0x00, 0x00, 0x01, 0x14, 0x00, 0x00, 0x00,
  0x1c, 0x00, 0x00, 0x00, 0x1c, 0x00, 0x00, 0x00, 0x09, 0x00, 0x00, 0x00,
  0x34, 0x00, 0x00, 0x00, 0x02, 0x00, 0x00, 0x00, 0xff, 0xff, 0xff, 0xff,
  0xf0, 0x00, 0x00, 0x00, 0xa8, 0xfc, 0xff, 0xff, 0x1a, 0x00, 0x00, 0x00,
  0x73, 0x65, 0x71, 0x75, 0x65, 0x6e, 0x74, 0x69, 0x61, 0x6c, 0x2f, 0x66,
  0x6c, 0x61, 0x74, 0x74, 0x65, 0x6e, 0x2f, 0x52, 0x65, 0x73, 0x68, 0x61,
  0x70, 0x65, 0x00, 0x00, 0x02, 0x00, 0x00, 0x00, 0x01, 0x00, 0x00, 0x00,
  0xf0, 0x00, 0x00, 0x00, 0x1e, 0xfd, 0xff, 0xff, 0x00, 0x00, 0x00, 0x01,
  0x14, 0x00, 0x00, 0x00, 0x24, 0x00, 0x00, 0x00, 0x24, 0x00, 0x00, 0x00,
  0x08, 0x00, 0x00, 0x00, 0x44, 0x00, 0x00, 0x00, 0x04, 0x00, 0x00, 0x00,
  0xff, 0xff, 0xff, 0xff, 0x0a, 0x00, 0x00, 0x00, 0x03, 0x00, 0x00, 0x00,
  0x08, 0x00, 0x00, 0x00, 0x08, 0xfd, 0xff, 0xff, 0x20, 0x00, 0x00, 0x00,
  0x73, 0x65, 0x71, 0x75, 0x65, 0x6e, 0x74, 0x69, 0x61, 0x6c, 0x2f, 0x6d,
  0x61, 0x78, 0x5f, 0x70, 0x6f, 0x6f, 0x6c, 0x69, 0x6e, 0x67, 0x32, 0x64,
  0x2f, 0x4d, 0x61, 0x78, 0x50, 0x6f, 0x6f, 0x6c, 0x00, 0x00, 0x00, 0x00,
  0x04, 0x00, 0x00, 0x00, 0x01, 0x00, 0x00, 0x00, 0x0a, 0x00, 0x00, 0x00,
  0x03, 0x00, 0x00, 0x00, 0x08, 0x00, 0x00, 0x00, 0x8e, 0xfd, 0xff, 0xff,
  0x00, 0x00, 0x00, 0x01, 0x14, 0x00, 0x00, 0x00, 0x24, 0x00, 0x00, 0x00,
  0x24, 0x00, 0x00, 0x00, 0x07, 0x00, 0x00, 0x00, 0x94, 0x00, 0x00, 0x00,
  0x04, 0x00, 0x00, 0x00, 0xff, 0xff, 0xff, 0xff, 0x15, 0x00, 0x00, 0x00,
  0x03, 0x00, 0x00, 0x00, 0x08, 0x00, 0x00, 0x00, 0x78, 0xfd, 0xff, 0xff,
  0x72, 0x00, 0x00, 0x00, 0x73, 0x65, 0x71, 0x75, 0x65, 0x6e, 0x74, 0x69,
  0x61, 0x6c, 0x2f, 0x63, 0x6f, 0x6e, 0x76, 0x32, 0x64, 0x2f, 0x52, 0x65,
  0x6c, 0x75, 0x3b, 0x73, 0x65, 0x71, 0x75, 0x65, 0x6e, 0x74, 0x69, 0x61,
  0x6c, 0x2f, 0x63, 0x6f, 0x6e, 0x76, 0x32, 0x64, 0x2f, 0x42, 0x69, 0x61,
  0x73, 0x41, 0x64, 0x64, 0x3b, 0x73, 0x65, 0x71, 0x75, 0x65, 0x6e, 0x74,
  0x69, 0x61, 0x6c, 0x2f, 0x63, 0x6f, 0x6e, 0x76, 0x32, 0x64, 0x2f, 0x43,
  0x6f, 0x6e, 0x76, 0x32, 0x44, 0x3b, 0x73, 0x65, 0x71, 0x75, 0x65, 0x6e,
  0x74, 0x69, 0x61, 0x6c, 0x2f, 0x63, 0x6f, 0x6e, 0x76, 0x32, 0x64, 0x2f,
  0x42, 0x69, 0x61, 0x73, 0x41, 0x64, 0x64, 0x2f, 0x52, 0x65, 0x61, 0x64,
  0x56, 0x61, 0x72, 0x69, 0x61, 0x62, 0x6c, 0x65, 0x4f, 0x70, 0x00, 0x00,
  0x04, 0x00, 0x00, 0x00, 0x01, 0x00, 0x00, 0x00, 0x15, 0x00, 0x00, 0x00,
  0x03, 0x00, 0x00, 0x00, 0x08, 0x00, 0x00, 0x00, 0xba, 0xfe, 0xff, 0xff,
  0x00, 0x00, 0x00, 0x01, 0x10, 0x00, 0x00, 0x00, 0x10, 0x00, 0x00, 0x00,
  0x06, 0x00, 0x00, 0x00, 0x24, 0x00, 0x00, 0x00, 0x20, 0xfe, 0xff, 0xff,
  0x17, 0x00, 0x00, 0x00, 0x73, 0x65, 0x71, 0x75, 0x65, 0x6e, 0x74, 0x69,
  0x61, 0x6c, 0x2f, 0x64, 0x65, 0x6e, 0x73, 0x65, 0x2f, 0x4d, 0x61, 0x74,
  0x4d, 0x75, 0x6c, 0x00, 0x02, 0x00, 0x00, 0x00, 0x03, 0x00, 0x00, 0x00,
  0xf0, 0x00, 0x00, 0x00, 0x00, 0x00, 0x16, 0x00, 0x1c, 0x00, 0x18, 0x00,
  0x17, 0x00, 0x10, 0x00, 0x0c, 0x00, 0x08, 0x00, 0x00, 0x00, 0x00, 0x00,
  0x00, 0x00, 0x07, 0x00, 0x16, 0x00, 0x00, 0x00, 0x00, 0x00, 0x00, 0x01,
  0x14, 0x00, 0x00, 0x00, 0x14, 0x00, 0x00, 0x00, 0x05, 0x00, 0x00, 0x00,
  0x00, 0x00, 0x00, 0x02, 0x28, 0x00, 0x00, 0x00, 0x80, 0xfe, 0xff, 0xff,
  0x18, 0x00, 0x00, 0x00, 0x73, 0x65, 0x71, 0x75, 0x65, 0x6e, 0x74, 0x69,
  0x61, 0x6c, 0x2f, 0x66, 0x6c, 0x61, 0x74, 0x74, 0x65, 0x6e, 0x2f, 0x43,
  0x6f, 0x6e, 0x73, 0x74, 0x00, 0x00, 0x00, 0x00, 0x01, 0x00, 0x00, 0x00,
  0x02, 0x00, 0x00, 0x00, 0x5e, 0xff, 0xff, 0xff, 0x00, 0x00, 0x00, 0x01,
  0x10, 0x00, 0x00, 0x00, 0x10, 0x00, 0x00, 0x00, 0x04, 0x00, 0x00, 0x00,
  0x34, 0x00, 0x00, 0x00, 0xc4, 0xfe, 0xff, 0xff, 0x27, 0x00, 0x00, 0x00,
  0x73, 0x65, 0x71, 0x75, 0x65, 0x6e, 0x74, 0x69, 0x61, 0x6c, 0x2f, 0x64,
  0x65, 0x6e, 0x73, 0x65, 0x2f, 0x42, 0x69, 0x61, 0x73, 0x41, 0x64, 0x64,
  0x2f, 0x52, 0x65, 0x61, 0x64, 0x56, 0x61, 0x72, 0x69, 0x61, 0x62, 0x6c,
  0x65, 0x4f, 0x70, 0x00, 0x01, 0x00, 0x00, 0x00, 0x03, 0x00, 0x00, 0x00,
  0xae, 0xff, 0xff, 0xff, 0x00, 0x00, 0x00, 0x01, 0x10, 0x00, 0x00, 0x00,
  0x10, 0x00, 0x00, 0x00, 0x03, 0x00, 0x00, 0x00, 0x28, 0x00, 0x00, 0x00,
  0x14, 0xff, 0xff, 0xff, 0x18, 0x00, 0x00, 0x00, 0x73, 0x65, 0x71, 0x75,
  0x65, 0x6e, 0x74, 0x69, 0x61, 0x6c, 0x2f, 0x63, 0x6f, 0x6e, 0x76, 0x32,
  0x64, 0x2f, 0x43, 0x6f, 0x6e, 0x76, 0x32, 0x44, 0x00, 0x00, 0x00, 0x00,
  0x04, 0x00, 0x00, 0x00, 0x08, 0x00, 0x00, 0x00, 0x04, 0x00, 0x00, 0x00,
  0x01, 0x00, 0x00, 0x00, 0x01, 0x00, 0x00, 0x00, 0x00, 0x00, 0x16, 0x00,
  0x18, 0x00, 0x14, 0x00, 0x00, 0x00, 0x10, 0x00, 0x0c, 0x00, 0x08, 0x00,
  0x00, 0x00, 0x00, 0x00, 0x00, 0x00, 0x07, 0x00, 0x16, 0x00, 0x00, 0x00,
  0x00, 0x00, 0x00, 0x01, 0x10, 0x00, 0x00, 0x00, 0x10, 0x00, 0x00, 0x00,
  0x02, 0x00, 0x00, 0x00, 0x38, 0x00, 0x00, 0x00, 0x7c, 0xff, 0xff, 0xff,
  0x28, 0x00, 0x00, 0x00, 0x73, 0x65, 0x71, 0x75, 0x65, 0x6e, 0x74, 0x69,
  0x61, 0x6c, 0x2f, 0x63, 0x6f, 0x6e, 0x76, 0x32, 0x64, 0x2f, 0x42, 0x69,
  0x61, 0x73, 0x41, 0x64, 0x64, 0x2f, 0x52, 0x65, 0x61, 0x64, 0x56, 0x61,
  0x72, 0x69, 0x61, 0x62, 0x6c, 0x65, 0x4f, 0x70, 0x00, 0x00, 0x00, 0x00,
  0x01, 0x00, 0x00, 0x00, 0x08, 0x00, 0x00, 0x00, 0x00, 0x00, 0x16, 0x00,
  0x1c, 0x00, 0x18, 0x00, 0x00, 0x00, 0x14, 0x00, 0x10, 0x00, 0x0c, 0x00,
  0x00, 0x00, 0x00, 0x00, 0x08, 0x00, 0x07, 0x00, 0x16, 0x00, 0x00, 0x00,
  0x00, 0x00, 0x00, 0x01, 0x14, 0x00, 0x00, 0x00, 0x28, 0x00, 0x00, 0x00,
  0x28, 0x00, 0x00, 0x00, 0x01, 0x00, 0x00, 0x00, 0x44, 0x00, 0x00, 0x00,
  0x04, 0x00, 0x00, 0x00, 0xff, 0xff, 0xff, 0xff, 0x18, 0x00, 0x00, 0x00,
  0x03, 0x00, 0x00, 0x00, 0x01, 0x00, 0x00, 0x00, 0x04, 0x00, 0x04, 0x00,
  0x04, 0x00, 0x00, 0x00, 0x1e, 0x00, 0x00, 0x00, 0x73, 0x65, 0x72, 0x76,
  0x69, 0x6e, 0x67, 0x5f, 0x64, 0x65, 0x66, 0x61, 0x75, 0x6c, 0x74, 0x5f,
  0x63, 0x6f, 0x6e, 0x76, 0x32, 0x64, 0x5f, 0x69, 0x6e, 0x70, 0x75, 0x74,
  0x3a, 0x30, 0x00, 0x00, 0x04, 0x00, 0x00, 0x00, 0x01, 0x00, 0x00, 0x00,
  0x18, 0x00, 0x00, 0x00, 0x03, 0x00, 0x00, 0x00, 0x01, 0x00, 0x00, 0x00,
  0x05, 0x00, 0x00, 0x00, 0x50, 0x00, 0x00, 0x00, 0x34, 0x00, 0x00, 0x00,
  0x24, 0x00, 0x00, 0x00, 0x14, 0x00, 0x00, 0x00, 0x04, 0x00, 0x00, 0x00,
  0xd0, 0xff, 0xff, 0xff, 0x19, 0x00, 0x00, 0x00, 0x00, 0x00, 0x00, 0x19,
  0xdc, 0xff, 0xff, 0xff, 0x09, 0x00, 0x00, 0x00, 0x00, 0x00, 0x00, 0x09,
  0xe8, 0xff, 0xff, 0xff, 0x16, 0x00, 0x00, 0x00, 0x00, 0x00, 0x00, 0x16,
  0xf4, 0xff, 0xff, 0xff, 0x11, 0x00, 0x00, 0x00, 0x00, 0x00, 0x00, 0x11,
  0x0c, 0x00, 0x0c, 0x00, 0x0b, 0x00, 0x00, 0x00, 0x00, 0x00, 0x04, 0x00,
  0x0c, 0x00, 0x00, 0x00, 0x03, 0x00, 0x00, 0x00, 0x00, 0x00, 0x00, 0x03
};
unsigned int cnn_model_len = 5364;



#endif  // TENSORFLOW_LITE_MICRO_EXAMPLES_MICRO_SPEECH_MICRO_FEATURES_MODEL_H_