unsigned char g_model[] = {
  0x1c, 0x00, 0x00, 0x00, 0x54, 0x46, 0x4c, 0x33, 0x14, 0x00, 0x20, 0x00,
  0x1c, 0x00, 0x18, 0x00, 0x14, 0x00, 0x10, 0x00, 0x0c, 0x00, 0x00, 0x00,
  0x08, 0x00, 0x04, 0x00, 0x14, 0x00, 0x00, 0x00, 0x1c, 0x00, 0x00, 0x00,
  0x88, 0x00, 0x00, 0x00, 0xe0, 0x00, 0x00, 0x00, 0xe0, 0x0d, 0x00, 0x00,
  0xf0, 0x0d, 0x00, 0x00, 0x60, 0x14, 0x00, 0x00, 0x03, 0x00, 0x00, 0x00,
  0x01, 0x00, 0x00, 0x00, 0x04, 0x00, 0x00, 0x00, 0x62, 0xf1, 0xff, 0xff,
  0x0c, 0x00, 0x00, 0x00, 0x1c, 0x00, 0x00, 0x00, 0x38, 0x00, 0x00, 0x00,
  0x0f, 0x00, 0x00, 0x00, 0x73, 0x65, 0x72, 0x76, 0x69, 0x6e, 0x67, 0x5f,
  0x64, 0x65, 0x66, 0x61, 0x75, 0x6c, 0x74, 0x00, 0x01, 0x00, 0x00, 0x00,
  0x04, 0x00, 0x00, 0x00, 0x94, 0xff, 0xff, 0xff, 0x0a, 0x00, 0x00, 0x00,
  0x04, 0x00, 0x00, 0x00, 0x05, 0x00, 0x00, 0x00, 0x64, 0x65, 0x6e, 0x73,
  0x65, 0x00, 0x00, 0x00, 0x01, 0x00, 0x00, 0x00, 0x04, 0x00, 0x00, 0x00,
  0x02, 0xf2, 0xff, 0xff, 0x04, 0x00, 0x00, 0x00, 0x0c, 0x00, 0x00, 0x00,
  0x63, 0x6f, 0x6e, 0x76, 0x32, 0x64, 0x5f, 0x69, 0x6e, 0x70, 0x75, 0x74,
  0x00, 0x00, 0x00, 0x00, 0x02, 0x00, 0x00, 0x00, 0x34, 0x00, 0x00, 0x00,
  0x04, 0x00, 0x00, 0x00, 0xdc, 0xff, 0xff, 0xff, 0x0d, 0x00, 0x00, 0x00,
  0x04, 0x00, 0x00, 0x00, 0x13, 0x00, 0x00, 0x00, 0x43, 0x4f, 0x4e, 0x56,
  0x45, 0x52, 0x53, 0x49, 0x4f, 0x4e, 0x5f, 0x4d, 0x45, 0x54, 0x41, 0x44,
  0x41, 0x54, 0x41, 0x00, 0x08, 0x00, 0x0c, 0x00, 0x08, 0x00, 0x04, 0x00,
  0x08, 0x00, 0x00, 0x00, 0x0c, 0x00, 0x00, 0x00, 0x04, 0x00, 0x00, 0x00,
  0x13, 0x00, 0x00, 0x00, 0x6d, 0x69, 0x6e, 0x5f, 0x72, 0x75, 0x6e, 0x74,
  0x69, 0x6d, 0x65, 0x5f, 0x76, 0x65, 0x72, 0x73, 0x69, 0x6f, 0x6e, 0x00,
  0x0e, 0x00, 0x00, 0x00, 0xfc, 0x0c, 0x00, 0x00, 0xf4, 0x0c, 0x00, 0x00,
  0xc4, 0x0c, 0x00, 0x00, 0x34, 0x0c, 0x00, 0x00, 0x18, 0x0c, 0x00, 0x00,
  0x00, 0x0c, 0x00, 0x00, 0xb0, 0x00, 0x00, 0x00, 0xa8, 0x00, 0x00, 0x00,
  0xa0, 0x00, 0x00, 0x00, 0x98, 0x00, 0x00, 0x00, 0x90, 0x00, 0x00, 0x00,
  0x88, 0x00, 0x00, 0x00, 0x68, 0x00, 0x00, 0x00, 0x04, 0x00, 0x00, 0x00,
  0xb6, 0xf2, 0xff, 0xff, 0x04, 0x00, 0x00, 0x00, 0x54, 0x00, 0x00, 0x00,
  0x0c, 0x00, 0x00, 0x00, 0x08, 0x00, 0x0e, 0x00, 0x08, 0x00, 0x04, 0x00,
  0x08, 0x00, 0x00, 0x00, 0x10, 0x00, 0x00, 0x00, 0x24, 0x00, 0x00, 0x00,
  0x00, 0x00, 0x06, 0x00, 0x08, 0x00, 0x04, 0x00, 0x06, 0x00, 0x00, 0x00,
  0x04, 0x00, 0x00, 0x00, 0x00, 0x00, 0x00, 0x00, 0x00, 0x00, 0x0a, 0x00,
  0x10, 0x00, 0x0c, 0x00, 0x08, 0x00, 0x04, 0x00, 0x0a, 0x00, 0x00, 0x00,
  0x01, 0x00, 0x00, 0x00, 0x02, 0x00, 0x00, 0x00, 0x04, 0x00, 0x00, 0x00,
  0x06, 0x00, 0x00, 0x00, 0x32, 0x2e, 0x31, 0x35, 0x2e, 0x30, 0x00, 0x00,
  0x16, 0xf3, 0xff, 0xff, 0x04, 0x00, 0x00, 0x00, 0x10, 0x00, 0x00, 0x00,
  0x31, 0x2e, 0x35, 0x2e, 0x30, 0x00, 0x00, 0x00, 0x00, 0x00, 0x00, 0x00,
  0x00, 0x00, 0x00, 0x00, 0x6c, 0xed, 0xff, 0xff, 0x70, 0xed, 0xff, 0xff,
  0x74, 0xed, 0xff, 0xff, 0x78, 0xed, 0xff, 0xff, 0x7c, 0xed, 0xff, 0xff,
  0x46, 0xf3, 0xff, 0xff, 0x04, 0x00, 0x00, 0x00, 0x40, 0x0b, 0x00, 0x00,
  0xcd, 0x2a, 0x86, 0x3f, 0xc4, 0x63, 0x45, 0xbf, 0x59, 0x23, 0x3f, 0xbe,
  0x58, 0x16, 0xb3, 0xbf, 0x54, 0x7f, 0x28, 0x3f, 0x24, 0xce, 0x99, 0x3f,
  0x3f, 0xd1, 0x66, 0x3e, 0x7c, 0x1f, 0x25, 0xbd, 0xe5, 0xfb, 0x37, 0x3f,
  0xac, 0x43, 0xcf, 0xbe, 0xfa, 0x33, 0xa1, 0xbd, 0xf8, 0x7a, 0x8f, 0xbf,
  0xad, 0x75, 0x36, 0x3f, 0x65, 0x08, 0x84, 0x3f, 0xf8, 0x98, 0x90, 0x3e,
  0xd1, 0xc6, 0xb2, 0x3e, 0x89, 0x84, 0x5f, 0x3f, 0xf1, 0xf4, 0x1a, 0xbf,
  0x7f, 0xf0, 0xd1, 0x3c, 0x78, 0x2c, 0xa9, 0xbf, 0x19, 0xcf, 0x6a, 0x3f,
  0x5a, 0xec, 0x85, 0x3f, 0x08, 0x77, 0x0c, 0x3f, 0x38, 0x03, 0x86, 0x3e,
  0xd5, 0x4d, 0x46, 0x3f, 0x0c, 0xf0, 0x20, 0xbf, 0x18, 0xce, 0xac, 0xbe,
  0x06, 0x9d, 0xaa, 0xbf, 0xca, 0x8f, 0x1b, 0x3f, 0xdb, 0x08, 0x86, 0x3f,
  0xdf, 0xe6, 0x92, 0x3e, 0xf1, 0xe2, 0x6e, 0x3d, 0xd6, 0xcf, 0x39, 0x3f,
  0x42, 0xa3, 0xdd, 0xbe, 0x72, 0x10, 0x44, 0xbe, 0x95, 0x1c, 0x7d, 0xbf,
  0xa9, 0xbc, 0x19, 0x3f, 0xc8, 0x48, 0x7d, 0x3f, 0x6d, 0xc3, 0x1f, 0x3e,
  0x3c, 0xc6, 0xc5, 0x3d, 0x8e, 0x61, 0x8d, 0x3f, 0x51, 0x7e, 0xe4, 0xbe,
  0x4b, 0x8a, 0x55, 0xbe, 0x3e, 0x73, 0xc6, 0xbf, 0xeb, 0x73, 0x3f, 0x3f,
  0xe3, 0xad, 0x95, 0x3f, 0x02, 0x7f, 0xe7, 0x3e, 0x54, 0x55, 0x60, 0x3d,
  0xd3, 0xac, 0x7c, 0x3f, 0x99, 0xc6, 0x04, 0xbf, 0xc2, 0xe2, 0xb7, 0xbe,
  0xf8, 0x61, 0xb1, 0xbf, 0x02, 0x37, 0x60, 0x3f, 0x39, 0x03, 0x88, 0x3f,
  0xcf, 0x93, 0x34, 0x3e, 0x16, 0x8d, 0xdf, 0x3d, 0x93, 0x63, 0x54, 0x3f,
  0x53, 0xff, 0xec, 0xbe, 0x85, 0x15, 0x62, 0xbb, 0xbe, 0xfe, 0xa3, 0xbf,
  0xa9, 0xed, 0x2b, 0x3f, 0x6b, 0x10, 0x7d, 0x3f, 0xf9, 0x32, 0x01, 0x3d,
  0x63, 0xa0, 0xf6, 0xbd, 0xaf, 0x73, 0x63, 0x3f, 0x6d, 0x09, 0x31, 0xbf,
  0xa3, 0x45, 0xb5, 0xbd, 0xb8, 0x35, 0xb9, 0xbf, 0x46, 0x51, 0x59, 0x3f,
  0x3b, 0x14, 0x85, 0x3f, 0xc6, 0xde, 0x19, 0x3e, 0xf0, 0xeb, 0x7c, 0xbd,
  0xc9, 0x78, 0x74, 0x3f, 0x4d, 0xed, 0x31, 0xbf, 0x76, 0xb6, 0x36, 0xbe,
  0x48, 0x63, 0xa0, 0xbf, 0xe8, 0x55, 0x3c, 0x3f, 0x1c, 0x6c, 0x99, 0x3f,
  0x3d, 0x7b, 0xca, 0x3d, 0x83, 0x9f, 0x13, 0xbe, 0x8e, 0x8b, 0x26, 0x3f,
  0x12, 0x7a, 0x1d, 0xbf, 0x61, 0x2b, 0x1a, 0x3c, 0xc3, 0x41, 0xc2, 0xbf,
  0x6a, 0x54, 0x04, 0x3f, 0x3b, 0xa3, 0x7f, 0x3f, 0xb7, 0x83, 0x03, 0xbe,
  0x17, 0xa8, 0xa1, 0x3d, 0xe5, 0xcf, 0x77, 0x3f, 0x5e, 0x5a, 0x42, 0xbf,
  0xb3, 0xe5, 0xc2, 0xbd, 0x1d, 0xb4, 0xc9, 0xbf, 0xb5, 0xe3, 0x5d, 0x3f,
  0xb8, 0x19, 0x80, 0x3f, 0x77, 0x49, 0xb5, 0xbc, 0x13, 0xc4, 0x1a, 0x3e,
  0xe0, 0xc8, 0x6b, 0x3f, 0x4f, 0x1d, 0x2f, 0xbf, 0x2b, 0xbc, 0x35, 0xbe,
  0x08, 0xe3, 0xb3, 0xbf, 0x43, 0x70, 0x54, 0x3f, 0x6a, 0xa3, 0x7f, 0x3f,
  0x19, 0x86, 0x46, 0x3e, 0xe7, 0xf9, 0xd9, 0x3d, 0x54, 0x56, 0x4a, 0x3f,
  0x26, 0x91, 0x05, 0xbf, 0x27, 0x22, 0xbb, 0xbd, 0xcf, 0xa1, 0xac, 0xbf,
  0x6d, 0xe1, 0x2c, 0x3f, 0x19, 0xda, 0x7c, 0x3f, 0xe7, 0x72, 0x51, 0x3b,
  0x1c, 0x29, 0x2c, 0xbe, 0x31, 0xf7, 0x4b, 0x3f, 0x47, 0x76, 0x38, 0xbf,
  0x68, 0x2c, 0xcf, 0xbc, 0x0f, 0xc6, 0xd2, 0xbf, 0xcd, 0x1c, 0x52, 0x3f,
  0x7c, 0x53, 0x76, 0x3f, 0x36, 0x5e, 0x5c, 0x3d, 0x09, 0x65, 0x8a, 0xbd,
  0x7c, 0xa5, 0x38, 0x3f, 0x0c, 0xfb, 0x1a, 0xbf, 0x51, 0x0a, 0x14, 0xbe,
  0xcc, 0x3c, 0xb1, 0xbf, 0x8f, 0x7a, 0x36, 0x3f, 0x2c, 0x99, 0x77, 0x3f,
  0xaa, 0x9d, 0xc1, 0x3e, 0x7f, 0xdb, 0x79, 0x3d, 0x9e, 0x7e, 0x1b, 0x3f,
  0x4e, 0xb3, 0x15, 0xbf, 0x97, 0x06, 0xb2, 0x3b, 0xc9, 0x1b, 0xad, 0xbf,
  0xd7, 0x5a, 0x36, 0x3f, 0x3c, 0xa8, 0x48, 0x3f, 0x5f, 0x71, 0x46, 0xbe,
  0x71, 0xa1, 0xac, 0x3c, 0x2b, 0xee, 0x65, 0x3f, 0x16, 0x45, 0x40, 0xbf,
  0xa9, 0x86, 0x37, 0xbd, 0x05, 0x0a, 0xca, 0xbf, 0x66, 0x8c, 0x5d, 0x3f,
  0x71, 0xa5, 0x93, 0x3f, 0x12, 0x23, 0x99, 0x3c, 0x1d, 0x71, 0xe1, 0xbd,
  0x14, 0x74, 0x7e, 0x3f, 0x91, 0x03, 0x10, 0xbf, 0x8e, 0x85, 0x71, 0xbe,
  0x7d, 0x61, 0xb6, 0xbf, 0xc6, 0x0a, 0x55, 0x3f, 0x3b, 0x20, 0x9d, 0x3f,
  0x81, 0xe0, 0x67, 0x3e, 0x79, 0x84, 0x73, 0x3e, 0x30, 0xb4, 0x3a, 0x3f,
  0xa3, 0x8b, 0x19, 0xbf, 0x0c, 0xcd, 0x20, 0xbe, 0x2b, 0x90, 0x98, 0xbf,
  0xa3, 0x18, 0x2c, 0x3f, 0x8b, 0x7a, 0x56, 0x3f, 0x5a, 0x29, 0x19, 0xbe,
  0xd0, 0x00, 0x96, 0xbd, 0x48, 0x17, 0x3e, 0x3f, 0xe9, 0x8a, 0x06, 0xbf,
  0x9d, 0x43, 0x77, 0x3c, 0x0c, 0xc6, 0xb9, 0xbf, 0xad, 0xc3, 0x54, 0x3f,
  0x0a, 0x5d, 0x89, 0x3f, 0xfa, 0xfc, 0x2a, 0xbe, 0x96, 0xb9, 0xf2, 0xbd,
  0xb6, 0xa8, 0x80, 0x3f, 0xcb, 0xe9, 0x36, 0xbf, 0xf9, 0x05, 0x16, 0xbd,
  0x56, 0x6e, 0xc5, 0xbf, 0xbf, 0x42, 0x4e, 0x3f, 0xad, 0x37, 0xa0, 0x3f,
  0x78, 0x7a, 0xa6, 0x3e, 0x65, 0x36, 0x3a, 0x3e, 0x73, 0xc4, 0x1e, 0x3f,
  0x48, 0x43, 0x0a, 0xbf, 0x15, 0x27, 0x6c, 0x3d, 0xac, 0xe9, 0x97, 0xbf,
  0xd4, 0xd9, 0x04, 0x3f, 0xa8, 0x9f, 0x91, 0x3f, 0x39, 0x62, 0x09, 0xbe,
  0x0e, 0x41, 0xe5, 0x3c, 0x75, 0x90, 0x4d, 0x3f, 0x35, 0x60, 0x2b, 0xbf,
  0xfb, 0xa3, 0xb7, 0x3d, 0x35, 0x46, 0xd1, 0xbf, 0x18, 0x89, 0x47, 0x3f,
  0x65, 0xce, 0x75, 0x3f, 0x96, 0xa3, 0x3c, 0x3d, 0x31, 0xf8, 0x38, 0xbb,
  0x6d, 0xbc, 0x87, 0x3f, 0x5f, 0x8b, 0x35, 0xbf, 0xe1, 0x27, 0x16, 0x3b,
  0xf4, 0x36, 0xbe, 0xbf, 0xaa, 0x81, 0x54, 0x3f, 0xcc, 0x94, 0x8c, 0x3f,
  0x9c, 0x17, 0xeb, 0x3e, 0xd8, 0xff, 0x55, 0x3e, 0x4d, 0xf4, 0x41, 0x3f,
  0xef, 0x93, 0x0e, 0xbf, 0x49, 0x8a, 0xb5, 0xbc, 0x7d, 0xbb, 0xb0, 0xbf,
  0x75, 0x6a, 0x45, 0x3f, 0x3e, 0x4a, 0x60, 0x3f, 0x10, 0x7f, 0x63, 0x3d,
  0xc4, 0x45, 0x43, 0x3d, 0xf0, 0xbf, 0x6c, 0x3f, 0xfa, 0xac, 0x17, 0xbf,
  0x5e, 0xd8, 0x91, 0xbd, 0x5b, 0x9d, 0xc0, 0xbf, 0x6d, 0x35, 0x58, 0x3f,
  0xaa, 0x08, 0x8a, 0x3f, 0xa8, 0xd0, 0x0a, 0xbe, 0x2b, 0x70, 0xd0, 0x3c,
  0x6f, 0x09, 0x5a, 0x3f, 0xb0, 0x9a, 0xe6, 0xbe, 0xe0, 0x91, 0x25, 0xbe,
  0xcd, 0xfc, 0xbe, 0xbf, 0xb8, 0x02, 0x59, 0x3f, 0x61, 0x08, 0x92, 0x3f,
  0xa1, 0x86, 0xcb, 0x3e, 0xd3, 0x67, 0xde, 0x3d, 0x72, 0x6c, 0x56, 0x3f,
  0xda, 0x5f, 0x0f, 0xbf, 0xef, 0x91, 0xe6, 0xbc, 0x76, 0xfa, 0xa8, 0xbf,
  0x49, 0x0e, 0x5c, 0x3f, 0xf2, 0x1f, 0x64, 0x3f, 0x77, 0x28, 0x2d, 0x3d,
  0x2d, 0xf6, 0x07, 0xbd, 0x28, 0xcf, 0x7d, 0x3f, 0xff, 0x18, 0x26, 0xbf,
  0x98, 0x73, 0xb6, 0x3d, 0xa0, 0x78, 0xca, 0xbf, 0x84, 0xb1, 0x2b, 0x3f,
  0xae, 0x6d, 0x6a, 0x3f, 0x82, 0x91, 0x91, 0x3c, 0x0e, 0x31, 0x3a, 0xbd,
  0xd9, 0xd6, 0x7e, 0x3f, 0x5b, 0xcc, 0x9d, 0xbe, 0x0e, 0x7a, 0x33, 0xbd,
  0x80, 0xb9, 0x60, 0x3d, 0x65, 0xfd, 0x90, 0x3f, 0x91, 0xd1, 0x54, 0x3f,
  0x45, 0xe1, 0x12, 0xbf, 0x3b, 0x10, 0x0f, 0xbf, 0xc4, 0x92, 0x69, 0x3e,
  0x1d, 0xa3, 0x29, 0xbd, 0xdb, 0xc0, 0x61, 0x3e, 0x13, 0xa5, 0xf0, 0x3d,
  0x64, 0x81, 0xb6, 0x3e, 0xe5, 0x97, 0x40, 0xbc, 0xcf, 0x03, 0x2b, 0xbe,
  0xea, 0x68, 0x8c, 0xbc, 0xe4, 0xb1, 0x3c, 0x3f, 0x48, 0x12, 0x55, 0xbe,
  0x69, 0x6c, 0xe3, 0x3d, 0xdf, 0x69, 0xbc, 0xbc, 0x1e, 0x47, 0x83, 0x3f,
  0x22, 0xbf, 0xb8, 0x3e, 0x3b, 0xa5, 0x16, 0xbf, 0xe1, 0x8d, 0xaa, 0xbe,
  0x51, 0xc6, 0x99, 0x3f, 0xde, 0xc0, 0x11, 0xbf, 0xbf, 0x1c, 0x80, 0xbd,
  0x19, 0x24, 0x30, 0x3b, 0x00, 0x1f, 0x8f, 0x3f, 0x3e, 0xa2, 0x5f, 0x3f,
  0xdd, 0xcd, 0xfe, 0xbe, 0x46, 0x6b, 0x2f, 0xbf, 0x9f, 0x2a, 0xd9, 0x3e,
  0x91, 0x67, 0x23, 0xbe, 0xbc, 0x6c, 0x94, 0x3d, 0x05, 0x9d, 0x5c, 0x3c,
  0x29, 0x21, 0x16, 0x3f, 0xd9, 0x54, 0xa0, 0x3d, 0x36, 0x72, 0x4a, 0xbe,
  0xa7, 0x6a, 0x28, 0xbe, 0x01, 0x75, 0x73, 0x3f, 0xa2, 0x5c, 0xcf, 0xbe,
  0x88, 0x64, 0x9e, 0x3d, 0x1e, 0xbb, 0x99, 0x3d, 0xbd, 0xd1, 0x9a, 0x3f,
  0x00, 0x0c, 0x14, 0x3f, 0xa9, 0x7b, 0x3e, 0xbf, 0x2a, 0x2c, 0x97, 0xbe,
  0x18, 0xc2, 0x86, 0x3f, 0x7a, 0x34, 0xba, 0xbe, 0x0e, 0x82, 0xee, 0xbd,
  0x0c, 0x25, 0x6b, 0x3d, 0x63, 0xae, 0x97, 0x3f, 0x10, 0xa0, 0x64, 0x3f,
  0xbe, 0x2e, 0xe9, 0xbe, 0x07, 0x19, 0x26, 0xbf, 0xa4, 0x14, 0xa7, 0x3e,
  0x8b, 0x4f, 0x22, 0xbe, 0x2c, 0x7e, 0x00, 0x3e, 0xec, 0x36, 0x7a, 0x3d,
  0x25, 0xe2, 0xdf, 0x3e, 0x13, 0x7e, 0x23, 0x3e, 0xb9, 0x35, 0xa0, 0xbe,
  0x0a, 0x05, 0x91, 0xbe, 0x96, 0x07, 0x7f, 0x3f, 0x2a, 0x7d, 0xa3, 0xbe,
  0x70, 0x83, 0x1d, 0x3e, 0x6a, 0xd8, 0x5f, 0xbd, 0x23, 0x82, 0xa0, 0x3f,
  0x45, 0xc6, 0x10, 0x3f, 0x72, 0x97, 0x22, 0xbf, 0x68, 0xff, 0xe6, 0xbe,
  0x3e, 0x4c, 0x82, 0x3f, 0x08, 0x9b, 0xd6, 0xbe, 0x4d, 0xbe, 0xb9, 0xbd,
  0xb4, 0x37, 0x1a, 0xba, 0xba, 0x5a, 0x83, 0x3f, 0x27, 0x1a, 0x61, 0x3f,
  0xe1, 0x88, 0x10, 0xbf, 0xfc, 0x4b, 0x0d, 0xbf, 0x2b, 0xb6, 0xfe, 0x3e,
  0x1b, 0xe2, 0x35, 0xbe, 0x04, 0xcd, 0xc2, 0x3d, 0x80, 0x0b, 0x85, 0xbc,
  0xc7, 0x59, 0x20, 0x3f, 0xbc, 0x2a, 0x9c, 0x3d, 0xd1, 0xee, 0x47, 0xbe,
  0x13, 0x8a, 0x35, 0xbe, 0xe5, 0x81, 0x96, 0x3f, 0x13, 0x05, 0x8d, 0xbe,
  0x99, 0xd9, 0xa7, 0x3d, 0x30, 0x03, 0x4d, 0x3d, 0x27, 0x5e, 0xb7, 0x3f,
  0x02, 0xac, 0x12, 0x3f, 0x67, 0x62, 0x24, 0xbf, 0x63, 0x30, 0xda, 0xbe,
  0xc6, 0xf1, 0x6f, 0x3f, 0xc3, 0xfc, 0x0b, 0xbf, 0xc4, 0x10, 0x8d, 0x3c,
  0x4d, 0x04, 0x77, 0x3d, 0x26, 0x59, 0x94, 0x3f, 0xec, 0xcd, 0x65, 0x3f,
  0x41, 0x2a, 0xd6, 0xbe, 0x49, 0xb4, 0x0e, 0xbf, 0x73, 0x25, 0xda, 0x3e,
  0xd7, 0xf0, 0x6f, 0xbc, 0x1d, 0xd7, 0x1d, 0x3e, 0xf7, 0x0e, 0x88, 0xbd,
  0x5c, 0x7d, 0x05, 0x3f, 0x00, 0x99, 0x10, 0x3d, 0x53, 0x30, 0x84, 0xbe,
  0xb5, 0x57, 0x82, 0x3d, 0x04, 0xde, 0x92, 0x3f, 0x52, 0x34, 0x94, 0xbe,
  0x09, 0x60, 0xa5, 0x3d, 0x16, 0x36, 0x1b, 0xbc, 0xc6, 0x47, 0xba, 0x3f,
  0x0d, 0x67, 0x1d, 0x3f, 0xc4, 0x06, 0x21, 0xbf, 0x2d, 0x8e, 0xae, 0xbe,
  0x7b, 0xbc, 0x55, 0x3f, 0x17, 0x4a, 0x15, 0xbf, 0xce, 0x5d, 0x17, 0xbe,
  0xff, 0x3a, 0x46, 0x3e, 0x7a, 0x93, 0x84, 0x3f, 0x7e, 0x8e, 0x55, 0x3f,
  0x19, 0xb7, 0x1d, 0xbf, 0x83, 0x27, 0x2a, 0xbf, 0x17, 0xec, 0xd1, 0x3e,
  0x75, 0xc2, 0xc4, 0xbb, 0x11, 0xc3, 0xe6, 0x3d, 0xce, 0x7f, 0x98, 0x3d,
  0xeb, 0x67, 0x06, 0x3f, 0x13, 0x75, 0x65, 0xbd, 0xc2, 0xe2, 0x8d, 0xbe,
  0xb1, 0x80, 0x93, 0x3b, 0xd2, 0x8d, 0x8c, 0x3f, 0xbb, 0xf0, 0x9a, 0xbe,
  0x08, 0xec, 0xc9, 0x3d, 0xc6, 0xd2, 0x2d, 0x3d, 0xf0, 0x95, 0x9e, 0x3f,
  0xc7, 0x1b, 0x3e, 0x3f, 0xef, 0x72, 0x04, 0xbf, 0x18, 0xac, 0x3c, 0xbe,
  0x68, 0x6b, 0x6e, 0x3f, 0x74, 0xfe, 0xa8, 0xbe, 0x51, 0xbb, 0x75, 0x3d,
  0xd8, 0xc9, 0x8c, 0xbd, 0x2d, 0xbd, 0x7f, 0x3f, 0x4a, 0x3a, 0x6f, 0x3f,
  0xc6, 0x1f, 0xfb, 0xbe, 0x0e, 0x1b, 0x19, 0xbf, 0x59, 0x41, 0xf2, 0x3e,
  0x97, 0x16, 0xfa, 0xbd, 0x05, 0xe0, 0xc9, 0x3d, 0xb3, 0xe5, 0x4d, 0x3e,
  0x4a, 0xca, 0x2f, 0x3f, 0x43, 0x94, 0xad, 0x3d, 0x8f, 0xf7, 0xf7, 0xbd,
  0x45, 0x1d, 0x5f, 0x3c, 0x94, 0xe2, 0x97, 0x3f, 0xa1, 0xa3, 0xa3, 0xbe,
  0x90, 0x4b, 0xfa, 0x3c, 0x7a, 0xaa, 0x51, 0x3c, 0x14, 0xed, 0xae, 0x3f,
  0xd3, 0x01, 0x2e, 0x3f, 0x0c, 0xab, 0x2e, 0xbf, 0x51, 0xf6, 0xc5, 0xbe,
  0xef, 0x43, 0x6e, 0x3f, 0xf3, 0xbb, 0xa0, 0xbe, 0x95, 0xaa, 0x8d, 0xbd,
  0xe9, 0x60, 0xb2, 0xbd, 0x1d, 0x07, 0x57, 0x3f, 0xf8, 0x6c, 0x4e, 0x3f,
  0x9b, 0x00, 0x09, 0xbf, 0xad, 0xa6, 0x23, 0xbf, 0xd2, 0x31, 0xb5, 0x3e,
  0xe8, 0x67, 0x04, 0xbe, 0x10, 0xac, 0x90, 0x3c, 0x63, 0x02, 0x40, 0x3e,
  0x95, 0x87, 0x4a, 0x3f, 0xdb, 0xac, 0xf1, 0x3d, 0x8c, 0x59, 0xc3, 0xbd,
  0x82, 0x0a, 0x13, 0xbe, 0x14, 0x0f, 0x97, 0x3f, 0x06, 0xdc, 0x98, 0xbe,
  0x4c, 0xab, 0x2a, 0xbc, 0x90, 0xee, 0xcd, 0x3d, 0xa7, 0xb1, 0xaa, 0x3f,
  0xba, 0xd3, 0x52, 0x3f, 0xf9, 0x8b, 0xe6, 0xbe, 0x17, 0x20, 0x81, 0xbe,
  0x72, 0x5b, 0x84, 0x3f, 0x98, 0x9c, 0xee, 0xbe, 0xf2, 0x70, 0x56, 0xbb,
  0xca, 0xc1, 0x4d, 0x3c, 0x45, 0x5d, 0x60, 0x3f, 0x93, 0x1c, 0x55, 0x3f,
  0x85, 0x63, 0x2e, 0xbf, 0x32, 0xc1, 0x28, 0xbf, 0xdf, 0x83, 0xb4, 0x3e,
  0x9d, 0x40, 0xa5, 0xbd, 0x30, 0xaa, 0xb4, 0x3d, 0x6e, 0xcb, 0xc5, 0x3d,
  0x74, 0x7b, 0xf8, 0x3e, 0x08, 0x03, 0xa5, 0x3d, 0x93, 0xf8, 0xb0, 0xbd,
  0x68, 0xf0, 0x6a, 0xbd, 0x53, 0x9d, 0x92, 0x3f, 0x8f, 0x0a, 0x20, 0xbe,
  0xbd, 0x9e, 0x05, 0x3d, 0x55, 0x35, 0xd8, 0xbb, 0x3f, 0x79, 0xa6, 0x3f,
  0x59, 0x3e, 0x47, 0x3f, 0xdf, 0x88, 0x27, 0xbf, 0x59, 0x5a, 0xc9, 0xbe,
  0xf1, 0x00, 0x50, 0x3f, 0x6e, 0xd1, 0xb9, 0xbe, 0xf4, 0xb3, 0xd7, 0xbc,
  0xf6, 0x09, 0xb4, 0xbd, 0xde, 0x54, 0x54, 0x3f, 0xbe, 0x69, 0x45, 0x3f,
  0x36, 0xca, 0xfc, 0xbe, 0x3e, 0x58, 0x1e, 0xbf, 0xea, 0x9f, 0xaa, 0x3d,
  0x6b, 0xcb, 0x9c, 0x3d, 0x05, 0x4a, 0xa5, 0x3d, 0x4c, 0xc4, 0x22, 0x3e,
  0xa4, 0x36, 0xa3, 0x3e, 0xcf, 0x94, 0x1d, 0x3e, 0x17, 0xf2, 0x50, 0xbe,
  0x4a, 0xaf, 0xd6, 0xbd, 0x25, 0x68, 0x9b, 0x3f, 0x05, 0x66, 0xed, 0x3c,
  0x55, 0xb1, 0x5a, 0xbd, 0x00, 0x6c, 0x9f, 0x3d, 0x51, 0x27, 0xb3, 0x3f,
  0x66, 0x43, 0x47, 0x3f, 0x3a, 0x43, 0xf1, 0xbe, 0x51, 0x31, 0x4f, 0xbe,
  0xc2, 0x0b, 0xf4, 0xbf, 0x14, 0x26, 0x17, 0x3f, 0x89, 0x21, 0xbf, 0x3d,
  0x15, 0xca, 0x88, 0x3e, 0x6a, 0x85, 0xe3, 0xbf, 0x63, 0xef, 0xd9, 0xbf,
  0xa3, 0xa1, 0xbc, 0x3e, 0x00, 0x26, 0x9b, 0x3e, 0xc0, 0x80, 0x7b, 0xbf,
  0x74, 0x6c, 0x34, 0x3e, 0xd5, 0x98, 0x85, 0xbb, 0x6a, 0xf1, 0x0b, 0x3e,
  0x8c, 0xce, 0x82, 0xbf, 0x32, 0x12, 0x09, 0xbf, 0x67, 0xbe, 0x5e, 0x3e,
  0xfa, 0x81, 0xe8, 0x3d, 0xf7, 0x8c, 0xf8, 0xbf, 0xdc, 0x52, 0xb2, 0x3e,
  0x4a, 0xd5, 0xc4, 0x3a, 0x08, 0xda, 0x98, 0x3d, 0x80, 0xcb, 0x02, 0xc0,
  0x5b, 0x9a, 0xc4, 0xbf, 0x9f, 0x2e, 0x9d, 0x3e, 0xf7, 0xd8, 0x24, 0x3e,
  0xcd, 0x2f, 0xf0, 0xbf, 0x3e, 0x00, 0x38, 0x3f, 0x2f, 0x3c, 0x73, 0x3e,
  0xd8, 0x42, 0x4f, 0x3e, 0xb3, 0x9f, 0xe5, 0xbf, 0x7e, 0x2d, 0xc2, 0xbf,
  0xd8, 0xf3, 0x00, 0x3f, 0xcd, 0x21, 0x2c, 0x3f, 0x40, 0xfb, 0x84, 0xbf,
  0x16, 0xa6, 0xb7, 0x3c, 0xbc, 0x00, 0xf3, 0xbd, 0xfb, 0xf2, 0x6d, 0x3e,
  0x10, 0x32, 0xa3, 0xbf, 0x23, 0xaf, 0x46, 0xbf, 0x14, 0x2a, 0xfc, 0x3d,
  0xb5, 0xf4, 0xef, 0x3d, 0xca, 0x6d, 0xed, 0xbf, 0xb2, 0x73, 0xba, 0x3e,
  0xb5, 0x86, 0x53, 0xbc, 0x1a, 0xfb, 0x2f, 0x3e, 0x77, 0x3b, 0x03, 0xc0,
  0x55, 0xd9, 0xc4, 0xbf, 0xce, 0x49, 0xc0, 0x3e, 0x39, 0xe8, 0xbd, 0x3e,
  0x14, 0x2f, 0xda, 0xbf, 0x85, 0xb4, 0x2c, 0x3f, 0x09, 0x06, 0x26, 0x3e,
  0x9f, 0xbb, 0xd0, 0x3d, 0x1e, 0x56, 0xe7, 0xbf, 0x8a, 0x54, 0xda, 0xbf,
  0x2a, 0xe5, 0xda, 0x3e, 0xf3, 0x69, 0xf2, 0x3e, 0xe8, 0x98, 0x70, 0xbf,
  0x8f, 0x95, 0xb4, 0x3e, 0x0c, 0x94, 0xa1, 0xbd, 0x30, 0x77, 0xf5, 0x3d,
  0x39, 0xf7, 0x8f, 0xbf, 0x2a, 0xe0, 0xfe, 0xbe, 0xd1, 0xf2, 0xa3, 0x3e,
  0x30, 0x8b, 0x21, 0x3d, 0xc4, 0x52, 0xe2, 0xbf, 0x32, 0x43, 0xb4, 0x3e,
  0x3e, 0x26, 0x50, 0x3d, 0x11, 0xf3, 0x31, 0x3d, 0x08, 0x05, 0xf6, 0xbf,
  0xb3, 0xc3, 0xc3, 0xbf, 0x17, 0xdc, 0x08, 0x3f, 0xdf, 0x77, 0x97, 0x3e,
  0x73, 0x17, 0x00, 0xc0, 0x56, 0x02, 0xf0, 0x3e, 0xb6, 0xce, 0x0d, 0x3e,
  0x9e, 0x0e, 0xbe, 0x3d, 0xda, 0xf4, 0xeb, 0xbf, 0x80, 0xad, 0xbb, 0xbf,
  0xa3, 0x45, 0xd5, 0x3e, 0xd5, 0x9a, 0xc2, 0x3e, 0x72, 0x9a, 0x71, 0xbf,
  0xba, 0xc6, 0x9b, 0x3e, 0x65, 0x11, 0xdd, 0xbd, 0xbf, 0xad, 0x82, 0x3d,
  0xd8, 0x63, 0x87, 0xbf, 0xc2, 0x7a, 0xf1, 0xbe, 0xd1, 0x8a, 0x48, 0x3e,
  0x26, 0xeb, 0x4b, 0x3d, 0xb0, 0xe0, 0xf4, 0xbf, 0xa9, 0xc1, 0xc6, 0x3e,
  0xf1, 0xa2, 0x46, 0xbd, 0x62, 0x19, 0xf3, 0x3d, 0xae, 0x3c, 0x06, 0xc0,
  0xa7, 0x2d, 0xbe, 0xbf, 0x85, 0x4b, 0x0a, 0x3f, 0xec, 0x7e, 0xde, 0x3e,
  0xfa, 0xd4, 0xdf, 0xbf, 0xcf, 0xfb, 0x22, 0x3f, 0xb0, 0xf4, 0x8e, 0x3e,
  0x12, 0x5f, 0x8d, 0x3e, 0xec, 0x2b, 0xd8, 0xbf, 0xbe, 0x5e, 0xb5, 0xbf,
  0x58, 0x8f, 0x0d, 0x3f, 0xfb, 0xbe, 0x08, 0x3f, 0xdc, 0x18, 0x86, 0xbf,
  0xe5, 0x9d, 0x73, 0x3e, 0x8c, 0x50, 0x89, 0x3c, 0xd9, 0x99, 0x5f, 0xbd,
  0x6f, 0x5c, 0x77, 0xbf, 0x55, 0x95, 0x21, 0xbf, 0x6b, 0x6a, 0x82, 0x3d,
  0x7a, 0x6d, 0x41, 0x3e, 0x08, 0xed, 0xdd, 0xbf, 0x13, 0x99, 0x84, 0x3e,
  0xca, 0x4d, 0x6d, 0xbd, 0x34, 0x78, 0x71, 0x3d, 0x33, 0x27, 0x00, 0xc0,
  0x0c, 0x74, 0xb0, 0xbf, 0x4d, 0x33, 0x16, 0x3f, 0x2d, 0xfc, 0x19, 0x3e,
  0xfb, 0xbf, 0xed, 0xbf, 0xcf, 0x80, 0x21, 0x3f, 0xfe, 0x6b, 0x86, 0x3e,
  0x6b, 0x2f, 0x28, 0x3e, 0x9e, 0x18, 0xe3, 0xbf, 0x56, 0x4c, 0xc9, 0xbf,
  0x70, 0x8a, 0x96, 0x3e, 0xa8, 0x48, 0x2e, 0x3f, 0x55, 0x78, 0x3d, 0xbf,
  0x57, 0x1a, 0xb5, 0x3e, 0xe9, 0x53, 0xa2, 0xbd, 0xc5, 0x73, 0x4b, 0x3d,
  0xef, 0x60, 0x8e, 0xbf, 0xbf, 0x02, 0x29, 0xbf, 0x27, 0xda, 0x1b, 0x3e,
  0x8a, 0xbc, 0xc1, 0x3d, 0x25, 0x6b, 0xee, 0xbf, 0x60, 0xe1, 0xdf, 0x3e,
  0x36, 0xcb, 0x5f, 0xbd, 0x96, 0xb2, 0x47, 0x3e, 0x3c, 0x87, 0x08, 0xc0,
  0x00, 0xe5, 0xba, 0xbf, 0xa0, 0xfa, 0x04, 0x3f, 0x69, 0x00, 0x6d, 0x3e,
  0x60, 0xae, 0xe5, 0xbf, 0x1c, 0xdf, 0x01, 0x3f, 0x1c, 0xb7, 0x79, 0x3e,
  0x47, 0x18, 0x31, 0x3e, 0x81, 0x79, 0xeb, 0xbf, 0xaf, 0x48, 0xd0, 0xbf,
  0x86, 0x76, 0xdd, 0x3e, 0x48, 0x54, 0x08, 0x3f, 0x64, 0x79, 0x90, 0xbf,
  0x27, 0xfc, 0x83, 0x3e, 0x2d, 0x8a, 0xe4, 0xbd, 0xe1, 0x66, 0x5e, 0x3e,
  0xc5, 0x3f, 0x96, 0xbf, 0x08, 0x0b, 0x0c, 0xbf, 0x50, 0xac, 0x09, 0x3e,
  0x56, 0x35, 0xdb, 0x3d, 0x05, 0x26, 0xf3, 0xbf, 0x93, 0x8d, 0xff, 0x3e,
  0x51, 0xd9, 0xbb, 0xbc, 0xe7, 0x4f, 0xff, 0x3d, 0xd2, 0x82, 0x03, 0xc0,
  0x3b, 0x2e, 0xb8, 0xbf, 0xe2, 0xc7, 0x0f, 0x3f, 0x98, 0x74, 0xd7, 0x3e,
  0x67, 0x4b, 0xdf, 0xbf, 0x08, 0xbf, 0x17, 0x3f, 0x50, 0x0d, 0xcb, 0x3d,
  0x2e, 0xe2, 0x2f, 0x3d, 0x1e, 0xaa, 0xea, 0xbf, 0xd2, 0x07, 0xd2, 0xbf,
  0x2f, 0xfd, 0xbd, 0x3e, 0x36, 0xdf, 0xe3, 0x3e, 0x6b, 0xd8, 0x9b, 0xbf,
  0xe3, 0x86, 0x43, 0x3e, 0x48, 0xbc, 0x1a, 0xbe, 0x7e, 0xc0, 0x48, 0x3e,
  0x92, 0xd6, 0x92, 0xbf, 0x0d, 0xfb, 0x09, 0xbf, 0x0c, 0xec, 0x3a, 0x3e,
  0x31, 0x18, 0x35, 0x3e, 0xec, 0xaf, 0xfb, 0xbf, 0x97, 0x96, 0xdf, 0x3e,
  0x7a, 0xfc, 0xe9, 0xbd, 0x6d, 0x17, 0x67, 0x3e, 0x08, 0x8d, 0x00, 0xc0,
  0xaf, 0x77, 0xb0, 0xbf, 0xae, 0xa8, 0x1e, 0x3f, 0xaf, 0x97, 0xb0, 0x3e,
  0x13, 0xad, 0xe9, 0xbf, 0x95, 0xba, 0x3b, 0x3f, 0x14, 0xaf, 0x7c, 0x3e,
  0x99, 0x0d, 0xa3, 0x3c, 0x05, 0xd2, 0xee, 0xbf, 0xdc, 0xef, 0xc6, 0xbf,
  0x8a, 0x19, 0xe6, 0x3e, 0x79, 0xec, 0x28, 0x3f, 0xcc, 0x57, 0x85, 0xbf,
  0xe4, 0xc4, 0x7b, 0x3e, 0x48, 0xb8, 0xd0, 0xbd, 0xfc, 0x16, 0xc3, 0x3d,
  0x23, 0x72, 0x86, 0xbf, 0xf8, 0x5f, 0x3d, 0xbf, 0xcc, 0xd1, 0xa9, 0x3e,
  0x30, 0x4a, 0x30, 0x3e, 0x9c, 0x38, 0xea, 0xbf, 0x39, 0x2f, 0xd2, 0x3e,
  0x96, 0xbf, 0x08, 0xbe, 0x74, 0x4d, 0xfb, 0x3d, 0x1c, 0x05, 0x0a, 0xc0,
  0xd4, 0xb2, 0xa1, 0xbf, 0x7c, 0x9e, 0xf0, 0x3e, 0x61, 0xd2, 0xd6, 0x3e,
  0xa8, 0xb7, 0xea, 0xbf, 0x6f, 0x0e, 0x20, 0x3f, 0x0a, 0x41, 0x4a, 0x3d,
  0x90, 0xf9, 0x25, 0x3e, 0xcc, 0x04, 0xed, 0xbf, 0x4c, 0x28, 0xc3, 0xbf,
  0x87, 0x82, 0xcb, 0x3e, 0x1f, 0xdf, 0xf1, 0x3e, 0x10, 0xbe, 0x65, 0xbf,
  0x75, 0xb1, 0x94, 0x3e, 0x24, 0x1d, 0xc5, 0x3b, 0xfb, 0x44, 0xb8, 0x3d,
  0x04, 0x33, 0x80, 0xbf, 0xcd, 0x39, 0x12, 0xbf, 0x2b, 0x78, 0x5d, 0x3a,
  0xf3, 0x48, 0x68, 0x3d, 0xd6, 0xa3, 0xf4, 0xbf, 0xa6, 0x81, 0xcd, 0x3e,
  0x78, 0x60, 0xab, 0xbd, 0x24, 0x4c, 0xfc, 0x3b, 0xa7, 0x9a, 0x05, 0xc0,
  0xf7, 0xaa, 0x93, 0xbf, 0x37, 0xa0, 0xd0, 0x3e, 0x59, 0x67, 0x68, 0x3e,
  0x92, 0xfe, 0xff, 0xff, 0x04, 0x00, 0x00, 0x00, 0x08, 0x00, 0x00, 0x00,
  0xff, 0xff, 0xff, 0xff, 0xf0, 0x00, 0x00, 0x00, 0xa6, 0xfe, 0xff, 0xff,
  0x04, 0x00, 0x00, 0x00, 0x0c, 0x00, 0x00, 0x00, 0x08, 0xb2, 0xd0, 0x3b,
  0xef, 0x8d, 0x48, 0x3e, 0x65, 0xb5, 0x25, 0xbe, 0xbe, 0xfe, 0xff, 0xff,
  0x04, 0x00, 0x00, 0x00, 0x80, 0x00, 0x00, 0x00, 0xfa, 0xe5, 0x2c, 0x3f,
  0x7a, 0x57, 0x9b, 0xbd, 0x1e, 0xdd, 0xc3, 0xbd, 0x72, 0xa1, 0x43, 0xbf,
  0x5c, 0xc8, 0x20, 0xbe, 0xca, 0xf7, 0x0b, 0xc0, 0x3f, 0xd8, 0xa3, 0x3e,
  0x81, 0xb2, 0xf1, 0x3e, 0xef, 0x01, 0x54, 0x3e, 0x0b, 0xb4, 0x91, 0x3e,
  0xe2, 0x1c, 0x8a, 0x3e, 0x6d, 0x92, 0x85, 0x3e, 0xdb, 0x25, 0x4d, 0xbf,
  0x63, 0x5d, 0x82, 0x3e, 0xfe, 0x67, 0xfd, 0x3e, 0x9d, 0x9e, 0xfc, 0xbe,
  0xf1, 0xc3, 0x17, 0x3f, 0x01, 0xe0, 0xe8, 0xbc, 0x3a, 0x98, 0x3a, 0xbd,
  0x37, 0xef, 0x21, 0xbf, 0x2d, 0xb9, 0x65, 0xbf, 0x17, 0x52, 0x0a, 0xbe,
  0xaa, 0xdb, 0xe4, 0xbd, 0xa1, 0x5c, 0x45, 0x3f, 0xef, 0x72, 0x30, 0x3e,
  0x16, 0x05, 0xd6, 0xbf, 0x9b, 0x20, 0xdb, 0x3e, 0x01, 0x89, 0xa5, 0xbd,
  0xe0, 0x96, 0x92, 0x3e, 0x8c, 0x10, 0xf7, 0xbf, 0xce, 0x96, 0xc4, 0x3e,
  0x9f, 0xc6, 0x6d, 0x3d, 0x4a, 0xff, 0xff, 0xff, 0x04, 0x00, 0x00, 0x00,
  0x20, 0x00, 0x00, 0x00, 0xd9, 0xc9, 0x16, 0x3e, 0xeb, 0x2e, 0x19, 0xbe,
  0x4c, 0x09, 0xc0, 0xbe, 0x26, 0x3e, 0xf7, 0x3d, 0x88, 0x1e, 0x72, 0x3d,
  0xc3, 0x73, 0x57, 0x3e, 0xac, 0xf7, 0xb9, 0xbd, 0x8d, 0x60, 0x73, 0xbe,
  0xb0, 0xf9, 0xff, 0xff, 0xb4, 0xf9, 0xff, 0xff, 0x0f, 0x00, 0x00, 0x00,
  0x4d, 0x4c, 0x49, 0x52, 0x20, 0x43, 0x6f, 0x6e, 0x76, 0x65, 0x72, 0x74,
  0x65, 0x64, 0x2e, 0x00, 0x01, 0x00, 0x00, 0x00, 0x14, 0x00, 0x00, 0x00,
  0x00, 0x00, 0x0e, 0x00, 0x18, 0x00, 0x14, 0x00, 0x10, 0x00, 0x0c, 0x00,
  0x08, 0x00, 0x04, 0x00, 0x0e, 0x00, 0x00, 0x00, 0x14, 0x00, 0x00, 0x00,
  0x1c, 0x00, 0x00, 0x00, 0x88, 0x01, 0x00, 0x00, 0x8c, 0x01, 0x00, 0x00,
  0x90, 0x01, 0x00, 0x00, 0x04, 0x00, 0x00, 0x00, 0x6d, 0x61, 0x69, 0x6e,
  0x00, 0x00, 0x00, 0x00, 0x05, 0x00, 0x00, 0x00, 0x20, 0x01, 0x00, 0x00,
  0xbc, 0x00, 0x00, 0x00, 0x84, 0x00, 0x00, 0x00, 0x40, 0x00, 0x00, 0x00,
  0x04, 0x00, 0x00, 0x00, 0x62, 0xff, 0xff, 0xff, 0x1c, 0x00, 0x00, 0x00,
  0x00, 0x00, 0x00, 0x09, 0x1c, 0x00, 0x00, 0x00, 0x20, 0x00, 0x00, 0x00,
  0x04, 0x00, 0x00, 0x00, 0x00, 0x00, 0x06, 0x00, 0x08, 0x00, 0x04, 0x00,
  0x06, 0x00, 0x00, 0x00, 0x00, 0x00, 0x80, 0x3f, 0x01, 0x00, 0x00, 0x00,
  0x0a, 0x00, 0x00, 0x00, 0x01, 0x00, 0x00, 0x00, 0x09, 0x00, 0x00, 0x00,
  0x9a, 0xff, 0xff, 0xff, 0x14, 0x00, 0x00, 0x00, 0x00, 0x00, 0x00, 0x08,
  0x10, 0x00, 0x00, 0x00, 0x14, 0x00, 0x00, 0x00, 0x03, 0x00, 0x00, 0x00,
  0x70, 0xfa, 0xff, 0xff, 0x01, 0x00, 0x00, 0x00, 0x09, 0x00, 0x00, 0x00,
  0x03, 0x00, 0x00, 0x00, 0x08, 0x00, 0x00, 0x00, 0x05, 0x00, 0x00, 0x00,
  0x03, 0x00, 0x00, 0x00, 0x00, 0x00, 0x0a, 0x00, 0x10, 0x00, 0x0c, 0x00,
  0x08, 0x00, 0x04, 0x00, 0x0a, 0x00, 0x00, 0x00, 0x0c, 0x00, 0x00, 0x00,
  0x10, 0x00, 0x00, 0x00, 0x02, 0x00, 0x00, 0x00, 0x01, 0x00, 0x00, 0x00,
  0x08, 0x00, 0x00, 0x00, 0x02, 0x00, 0x00, 0x00, 0x07, 0x00, 0x00, 0x00,
  0x04, 0x00, 0x00, 0x00, 0x00, 0x00, 0x0e, 0x00, 0x1a, 0x00, 0x14, 0x00,
  0x10, 0x00, 0x0c, 0x00, 0x0b, 0x00, 0x04, 0x00, 0x0e, 0x00, 0x00, 0x00,
  0x24, 0x00, 0x00, 0x00, 0x00, 0x00, 0x00, 0x05, 0x34, 0x00, 0x00, 0x00,
  0x38, 0x00, 0x00, 0x00, 0x01, 0x00, 0x00, 0x00, 0x00, 0x00, 0x0e, 0x00,
  0x18, 0x00, 0x17, 0x00, 0x10, 0x00, 0x0c, 0x00, 0x08, 0x00, 0x04, 0x00,
  0x0e, 0x00, 0x00, 0x00, 0x02, 0x00, 0x00, 0x00, 0x01, 0x00, 0x00, 0x00,
  0x02, 0x00, 0x00, 0x00, 0x01, 0x00, 0x00, 0x00, 0x00, 0x00, 0x00, 0x01,
  0x01, 0x00, 0x00, 0x00, 0x07, 0x00, 0x00, 0x00, 0x01, 0x00, 0x00, 0x00,
  0x06, 0x00, 0x00, 0x00, 0x00, 0x00, 0x0e, 0x00, 0x14, 0x00, 0x00, 0x00,
  0x10, 0x00, 0x0c, 0x00, 0x0b, 0x00, 0x04, 0x00, 0x0e, 0x00, 0x00, 0x00,
  0x1c, 0x00, 0x00, 0x00, 0x00, 0x00, 0x00, 0x01, 0x28, 0x00, 0x00, 0x00,
  0x2c, 0x00, 0x00, 0x00, 0x0c, 0x00, 0x14, 0x00, 0x13, 0x00, 0x0c, 0x00,
  0x08, 0x00, 0x07, 0x00, 0x0c, 0x00, 0x00, 0x00, 0x00, 0x00, 0x00, 0x01,
  0x01, 0x00, 0x00, 0x00, 0x01, 0x00, 0x00, 0x00, 0x00, 0x00, 0x00, 0x01,
  0x01, 0x00, 0x00, 0x00, 0x06, 0x00, 0x00, 0x00, 0x03, 0x00, 0x00, 0x00,
  0x00, 0x00, 0x00, 0x00, 0x02, 0x00, 0x00, 0x00, 0x01, 0x00, 0x00, 0x00,
  0x01, 0x00, 0x00, 0x00, 0x0a, 0x00, 0x00, 0x00, 0x01, 0x00, 0x00, 0x00,
  0x00, 0x00, 0x00, 0x00, 0x0b, 0x00, 0x00, 0x00, 0x44, 0x04, 0x00, 0x00,
  0xd4, 0x03, 0x00, 0x00, 0x68, 0x03, 0x00, 0x00, 0x14, 0x03, 0x00, 0x00,
  0xc8, 0x02, 0x00, 0x00, 0x68, 0x02, 0x00, 0x00, 0xa4, 0x01, 0x00, 0x00,
  0x30, 0x01, 0x00, 0x00, 0xd4, 0x00, 0x00, 0x00, 0x60, 0x00, 0x00, 0x00,
  0x04, 0x00, 0x00, 0x00, 0xfe, 0xfb, 0xff, 0xff, 0x00, 0x00, 0x00, 0x01,
  0x14, 0x00, 0x00, 0x00, 0x1c, 0x00, 0x00, 0x00, 0x1c, 0x00, 0x00, 0x00,
  0x0b, 0x00, 0x00, 0x00, 0x34, 0x00, 0x00, 0x00, 0x02, 0x00, 0x00, 0x00,
  0xff, 0xff, 0xff, 0xff, 0x03, 0x00, 0x00, 0x00, 0xe0, 0xfb, 0xff, 0xff,
  0x19, 0x00, 0x00, 0x00, 0x53, 0x74, 0x61, 0x74, 0x65, 0x66, 0x75, 0x6c,
  0x50, 0x61, 0x72, 0x74, 0x69, 0x74, 0x69, 0x6f, 0x6e, 0x65, 0x64, 0x43,
  0x61, 0x6c, 0x6c, 0x3a, 0x30, 0x00, 0x00, 0x00, 0x02, 0x00, 0x00, 0x00,
  0x01, 0x00, 0x00, 0x00, 0x03, 0x00, 0x00, 0x00, 0x56, 0xfc, 0xff, 0xff,
  0x00, 0x00, 0x00, 0x01, 0x14, 0x00, 0x00, 0x00, 0x1c, 0x00, 0x00, 0x00,
  0x1c, 0x00, 0x00, 0x00, 0x0a, 0x00, 0x00, 0x00, 0x4c, 0x00, 0x00, 0x00,
  0x02, 0x00, 0x00, 0x00, 0xff, 0xff, 0xff, 0xff, 0x03, 0x00, 0x00, 0x00,
  0x38, 0xfc, 0xff, 0xff, 0x30, 0x00, 0x00, 0x00, 0x73, 0x65, 0x71, 0x75,
  0x65, 0x6e, 0x74, 0x69, 0x61, 0x6c, 0x2f, 0x64, 0x65, 0x6e, 0x73, 0x65,
  0x2f, 0x4d, 0x61, 0x74, 0x4d, 0x75, 0x6c, 0x3b, 0x73, 0x65, 0x71, 0x75,
  0x65, 0x6e, 0x74, 0x69, 0x61, 0x6c, 0x2f, 0x64, 0x65, 0x6e, 0x73, 0x65,
  0x2f, 0x42, 0x69, 0x61, 0x73, 0x41, 0x64, 0x64, 0x00, 0x00, 0x00, 0x00,
  0x02, 0x00, 0x00, 0x00, 0x01, 0x00, 0x00, 0x00, 0x03, 0x00, 0x00, 0x00,
  0xc6, 0xfc, 0xff, 0xff, 0x00, 0x00, 0x00, 0x01, 0x14, 0x00, 0x00, 0x00,
  0x1c, 0x00, 0x00, 0x00, 0x1c, 0x00, 0x00, 0x00, 0x09, 0x00, 0x00, 0x00,
  0x34, 0x00, 0x00, 0x00, 0x02, 0x00, 0x00, 0x00, 0xff, 0xff, 0xff, 0xff,
  0xf0, 0x00, 0x00, 0x00, 0xa8, 0xfc, 0xff, 0xff, 0x1a, 0x00, 0x00, 0x00,
  0x73, 0x65, 0x71, 0x75, 0x65, 0x6e, 0x74, 0x69, 0x61, 0x6c, 0x2f, 0x66,
  0x6c, 0x61, 0x74, 0x74, 0x65, 0x6e, 0x2f, 0x52, 0x65, 0x73, 0x68, 0x61,
  0x70, 0x65, 0x00, 0x00, 0x02, 0x00, 0x00, 0x00, 0x01, 0x00, 0x00, 0x00,
  0xf0, 0x00, 0x00, 0x00, 0x1e, 0xfd, 0xff, 0xff, 0x00, 0x00, 0x00, 0x01,
  0x14, 0x00, 0x00, 0x00, 0x24, 0x00, 0x00, 0x00, 0x24, 0x00, 0x00, 0x00,
  0x08, 0x00, 0x00, 0x00, 0x44, 0x00, 0x00, 0x00, 0x04, 0x00, 0x00, 0x00,
  0xff, 0xff, 0xff, 0xff, 0x0a, 0x00, 0x00, 0x00, 0x03, 0x00, 0x00, 0x00,
  0x08, 0x00, 0x00, 0x00, 0x08, 0xfd, 0xff, 0xff, 0x20, 0x00, 0x00, 0x00,
  0x73, 0x65, 0x71, 0x75, 0x65, 0x6e, 0x74, 0x69, 0x61, 0x6c, 0x2f, 0x6d,
  0x61, 0x78, 0x5f, 0x70, 0x6f, 0x6f, 0x6c, 0x69, 0x6e, 0x67, 0x32, 0x64,
  0x2f, 0x4d, 0x61, 0x78, 0x50, 0x6f, 0x6f, 0x6c, 0x00, 0x00, 0x00, 0x00,
  0x04, 0x00, 0x00, 0x00, 0x01, 0x00, 0x00, 0x00, 0x0a, 0x00, 0x00, 0x00,
  0x03, 0x00, 0x00, 0x00, 0x08, 0x00, 0x00, 0x00, 0x8e, 0xfd, 0xff, 0xff,
  0x00, 0x00, 0x00, 0x01, 0x14, 0x00, 0x00, 0x00, 0x24, 0x00, 0x00, 0x00,
  0x24, 0x00, 0x00, 0x00, 0x07, 0x00, 0x00, 0x00, 0x94, 0x00, 0x00, 0x00,
  0x04, 0x00, 0x00, 0x00, 0xff, 0xff, 0xff, 0xff, 0x15, 0x00, 0x00, 0x00,
  0x03, 0x00, 0x00, 0x00, 0x08, 0x00, 0x00, 0x00, 0x78, 0xfd, 0xff, 0xff,
  0x72, 0x00, 0x00, 0x00, 0x73, 0x65, 0x71, 0x75, 0x65, 0x6e, 0x74, 0x69,
  0x61, 0x6c, 0x2f, 0x63, 0x6f, 0x6e, 0x76, 0x32, 0x64, 0x2f, 0x52, 0x65,
  0x6c, 0x75, 0x3b, 0x73, 0x65, 0x71, 0x75, 0x65, 0x6e, 0x74, 0x69, 0x61,
  0x6c, 0x2f, 0x63, 0x6f, 0x6e, 0x76, 0x32, 0x64, 0x2f, 0x42, 0x69, 0x61,
  0x73, 0x41, 0x64, 0x64, 0x3b, 0x73, 0x65, 0x71, 0x75, 0x65, 0x6e, 0x74,
  0x69, 0x61, 0x6c, 0x2f, 0x63, 0x6f, 0x6e, 0x76, 0x32, 0x64, 0x2f, 0x43,
  0x6f, 0x6e, 0x76, 0x32, 0x44, 0x3b, 0x73, 0x65, 0x71, 0x75, 0x65, 0x6e,
  0x74, 0x69, 0x61, 0x6c, 0x2f, 0x63, 0x6f, 0x6e, 0x76, 0x32, 0x64, 0x2f,
  0x42, 0x69, 0x61, 0x73, 0x41, 0x64, 0x64, 0x2f, 0x52, 0x65, 0x61, 0x64,
  0x56, 0x61, 0x72, 0x69, 0x61, 0x62, 0x6c, 0x65, 0x4f, 0x70, 0x00, 0x00,
  0x04, 0x00, 0x00, 0x00, 0x01, 0x00, 0x00, 0x00, 0x15, 0x00, 0x00, 0x00,
  0x03, 0x00, 0x00, 0x00, 0x08, 0x00, 0x00, 0x00, 0xba, 0xfe, 0xff, 0xff,
  0x00, 0x00, 0x00, 0x01, 0x10, 0x00, 0x00, 0x00, 0x10, 0x00, 0x00, 0x00,
  0x06, 0x00, 0x00, 0x00, 0x24, 0x00, 0x00, 0x00, 0x20, 0xfe, 0xff, 0xff,
  0x17, 0x00, 0x00, 0x00, 0x73, 0x65, 0x71, 0x75, 0x65, 0x6e, 0x74, 0x69,
  0x61, 0x6c, 0x2f, 0x64, 0x65, 0x6e, 0x73, 0x65, 0x2f, 0x4d, 0x61, 0x74,
  0x4d, 0x75, 0x6c, 0x00, 0x02, 0x00, 0x00, 0x00, 0x03, 0x00, 0x00, 0x00,
  0xf0, 0x00, 0x00, 0x00, 0x00, 0x00, 0x16, 0x00, 0x1c, 0x00, 0x18, 0x00,
  0x17, 0x00, 0x10, 0x00, 0x0c, 0x00, 0x08, 0x00, 0x00, 0x00, 0x00, 0x00,
  0x00, 0x00, 0x07, 0x00, 0x16, 0x00, 0x00, 0x00, 0x00, 0x00, 0x00, 0x01,
  0x14, 0x00, 0x00, 0x00, 0x14, 0x00, 0x00, 0x00, 0x05, 0x00, 0x00, 0x00,
  0x00, 0x00, 0x00, 0x02, 0x28, 0x00, 0x00, 0x00, 0x80, 0xfe, 0xff, 0xff,
  0x18, 0x00, 0x00, 0x00, 0x73, 0x65, 0x71, 0x75, 0x65, 0x6e, 0x74, 0x69,
  0x61, 0x6c, 0x2f, 0x66, 0x6c, 0x61, 0x74, 0x74, 0x65, 0x6e, 0x2f, 0x43,
  0x6f, 0x6e, 0x73, 0x74, 0x00, 0x00, 0x00, 0x00, 0x01, 0x00, 0x00, 0x00,
  0x02, 0x00, 0x00, 0x00, 0x5e, 0xff, 0xff, 0xff, 0x00, 0x00, 0x00, 0x01,
  0x10, 0x00, 0x00, 0x00, 0x10, 0x00, 0x00, 0x00, 0x04, 0x00, 0x00, 0x00,
  0x34, 0x00, 0x00, 0x00, 0xc4, 0xfe, 0xff, 0xff, 0x27, 0x00, 0x00, 0x00,
  0x73, 0x65, 0x71, 0x75, 0x65, 0x6e, 0x74, 0x69, 0x61, 0x6c, 0x2f, 0x64,
  0x65, 0x6e, 0x73, 0x65, 0x2f, 0x42, 0x69, 0x61, 0x73, 0x41, 0x64, 0x64,
  0x2f, 0x52, 0x65, 0x61, 0x64, 0x56, 0x61, 0x72, 0x69, 0x61, 0x62, 0x6c,
  0x65, 0x4f, 0x70, 0x00, 0x01, 0x00, 0x00, 0x00, 0x03, 0x00, 0x00, 0x00,
  0xae, 0xff, 0xff, 0xff, 0x00, 0x00, 0x00, 0x01, 0x10, 0x00, 0x00, 0x00,
  0x10, 0x00, 0x00, 0x00, 0x03, 0x00, 0x00, 0x00, 0x28, 0x00, 0x00, 0x00,
  0x14, 0xff, 0xff, 0xff, 0x18, 0x00, 0x00, 0x00, 0x73, 0x65, 0x71, 0x75,
  0x65, 0x6e, 0x74, 0x69, 0x61, 0x6c, 0x2f, 0x63, 0x6f, 0x6e, 0x76, 0x32,
  0x64, 0x2f, 0x43, 0x6f, 0x6e, 0x76, 0x32, 0x44, 0x00, 0x00, 0x00, 0x00,
  0x04, 0x00, 0x00, 0x00, 0x08, 0x00, 0x00, 0x00, 0x04, 0x00, 0x00, 0x00,
  0x01, 0x00, 0x00, 0x00, 0x01, 0x00, 0x00, 0x00, 0x00, 0x00, 0x16, 0x00,
  0x18, 0x00, 0x14, 0x00, 0x00, 0x00, 0x10, 0x00, 0x0c, 0x00, 0x08, 0x00,
  0x00, 0x00, 0x00, 0x00, 0x00, 0x00, 0x07, 0x00, 0x16, 0x00, 0x00, 0x00,
  0x00, 0x00, 0x00, 0x01, 0x10, 0x00, 0x00, 0x00, 0x10, 0x00, 0x00, 0x00,
  0x02, 0x00, 0x00, 0x00, 0x38, 0x00, 0x00, 0x00, 0x7c, 0xff, 0xff, 0xff,
  0x28, 0x00, 0x00, 0x00, 0x73, 0x65, 0x71, 0x75, 0x65, 0x6e, 0x74, 0x69,
  0x61, 0x6c, 0x2f, 0x63, 0x6f, 0x6e, 0x76, 0x32, 0x64, 0x2f, 0x42, 0x69,
  0x61, 0x73, 0x41, 0x64, 0x64, 0x2f, 0x52, 0x65, 0x61, 0x64, 0x56, 0x61,
  0x72, 0x69, 0x61, 0x62, 0x6c, 0x65, 0x4f, 0x70, 0x00, 0x00, 0x00, 0x00,
  0x01, 0x00, 0x00, 0x00, 0x08, 0x00, 0x00, 0x00, 0x00, 0x00, 0x16, 0x00,
  0x1c, 0x00, 0x18, 0x00, 0x00, 0x00, 0x14, 0x00, 0x10, 0x00, 0x0c, 0x00,
  0x00, 0x00, 0x00, 0x00, 0x08, 0x00, 0x07, 0x00, 0x16, 0x00, 0x00, 0x00,
  0x00, 0x00, 0x00, 0x01, 0x14, 0x00, 0x00, 0x00, 0x28, 0x00, 0x00, 0x00,
  0x28, 0x00, 0x00, 0x00, 0x01, 0x00, 0x00, 0x00, 0x44, 0x00, 0x00, 0x00,
  0x04, 0x00, 0x00, 0x00, 0xff, 0xff, 0xff, 0xff, 0x18, 0x00, 0x00, 0x00,
  0x03, 0x00, 0x00, 0x00, 0x01, 0x00, 0x00, 0x00, 0x04, 0x00, 0x04, 0x00,
  0x04, 0x00, 0x00, 0x00, 0x1e, 0x00, 0x00, 0x00, 0x73, 0x65, 0x72, 0x76,
  0x69, 0x6e, 0x67, 0x5f, 0x64, 0x65, 0x66, 0x61, 0x75, 0x6c, 0x74, 0x5f,
  0x63, 0x6f, 0x6e, 0x76, 0x32, 0x64, 0x5f, 0x69, 0x6e, 0x70, 0x75, 0x74,
  0x3a, 0x30, 0x00, 0x00, 0x04, 0x00, 0x00, 0x00, 0x01, 0x00, 0x00, 0x00,
  0x18, 0x00, 0x00, 0x00, 0x03, 0x00, 0x00, 0x00, 0x01, 0x00, 0x00, 0x00,
  0x05, 0x00, 0x00, 0x00, 0x50, 0x00, 0x00, 0x00, 0x34, 0x00, 0x00, 0x00,
  0x24, 0x00, 0x00, 0x00, 0x14, 0x00, 0x00, 0x00, 0x04, 0x00, 0x00, 0x00,
  0xd0, 0xff, 0xff, 0xff, 0x19, 0x00, 0x00, 0x00, 0x00, 0x00, 0x00, 0x19,
  0xdc, 0xff, 0xff, 0xff, 0x09, 0x00, 0x00, 0x00, 0x00, 0x00, 0x00, 0x09,
  0xe8, 0xff, 0xff, 0xff, 0x16, 0x00, 0x00, 0x00, 0x00, 0x00, 0x00, 0x16,
  0xf4, 0xff, 0xff, 0xff, 0x11, 0x00, 0x00, 0x00, 0x00, 0x00, 0x00, 0x11,
  0x0c, 0x00, 0x0c, 0x00, 0x0b, 0x00, 0x00, 0x00, 0x00, 0x00, 0x04, 0x00,
  0x0c, 0x00, 0x00, 0x00, 0x03, 0x00, 0x00, 0x00, 0x00, 0x00, 0x00, 0x03
};
unsigned int g_model_len = 5364;
