#ifndef AUTOENCODER_MODEL_H
#define AUTOENCODER_MODEL_H

const unsigned int autoencoder_model_dim1 = 9448;

const unsigned char autoencoder_model[9448] = {
    0x1c, 0x00, 0x00, 0x00, 0x54, 0x46, 0x4c, 0x33, 0x14, 0x00, 0x20, 0x00, 
    0x1c, 0x00, 0x18, 0x00, 0x14, 0x00, 0x10, 0x00, 0x0c, 0x00, 0x00, 0x00, 
    0x08, 0x00, 0x04, 0x00, 0x14, 0x00, 0x00, 0x00, 0x1c, 0x00, 0x00, 0x00, 
    0x84, 0x00, 0x00, 0x00, 0xdc, 0x00, 0x00, 0x00, 0xd4, 0x1a, 0x00, 0x00, 
    0xe4, 0x1a, 0x00, 0x00, 0x84, 0x24, 0x00, 0x00, 0x03, 0x00, 0x00, 0x00, 
    0x01, 0x00, 0x00, 0x00, 0x04, 0x00, 0x00, 0x00, 0xd6, 0xe4, 0xff, 0xff, 
    0x0c, 0x00, 0x00, 0x00, 0x1c, 0x00, 0x00, 0x00, 0x3c, 0x00, 0x00, 0x00, 
    0x0f, 0x00, 0x00, 0x00, 0x73, 0x65, 0x72, 0x76, 0x69, 0x6e, 0x67, 0x5f, 
    0x64, 0x65, 0x66, 0x61, 0x75, 0x6c, 0x74, 0x00, 0x01, 0x00, 0x00, 0x00, 
    0x04, 0x00, 0x00, 0x00, 0x98, 0xff, 0xff, 0xff, 0x10, 0x00, 0x00, 0x00, 
    0x04, 0x00, 0x00, 0x00, 0x08, 0x00, 0x00, 0x00, 0x6f, 0x75, 0x74, 0x70, 
    0x75, 0x74, 0x5f, 0x31, 0x00, 0x00, 0x00, 0x00, 0x01, 0x00, 0x00, 0x00, 
    0x04, 0x00, 0x00, 0x00, 0xee, 0xe5, 0xff, 0xff, 0x04, 0x00, 0x00, 0x00, 
    0x07, 0x00, 0x00, 0x00, 0x69, 0x6e, 0x70, 0x75, 0x74, 0x5f, 0x31, 0x00, 
    0x02, 0x00, 0x00, 0x00, 0x34, 0x00, 0x00, 0x00, 0x04, 0x00, 0x00, 0x00, 
    0xdc, 0xff, 0xff, 0xff, 0x13, 0x00, 0x00, 0x00, 0x04, 0x00, 0x00, 0x00, 
    0x13, 0x00, 0x00, 0x00, 0x43, 0x4f, 0x4e, 0x56, 0x45, 0x52, 0x53, 0x49, 
    0x4f, 0x4e, 0x5f, 0x4d, 0x45, 0x54, 0x41, 0x44, 0x41, 0x54, 0x41, 0x00, 
    0x08, 0x00, 0x0c, 0x00, 0x08, 0x00, 0x04, 0x00, 0x08, 0x00, 0x00, 0x00, 
    0x12, 0x00, 0x00, 0x00, 0x04, 0x00, 0x00, 0x00, 0x13, 0x00, 0x00, 0x00, 
    0x6d, 0x69, 0x6e, 0x5f, 0x72, 0x75, 0x6e, 0x74, 0x69, 0x6d, 0x65, 0x5f, 
    0x76, 0x65, 0x72, 0x73, 0x69, 0x6f, 0x6e, 0x00, 0x14, 0x00, 0x00, 0x00, 
    0xf4, 0x19, 0x00, 0x00, 0xec, 0x19, 0x00, 0x00, 0x9c, 0x19, 0x00, 0x00, 
    0x04, 0x19, 0x00, 0x00, 0xe8, 0x18, 0x00, 0x00, 0x98, 0x18, 0x00, 0x00, 
    0x08, 0x18, 0x00, 0x00, 0x78, 0x16, 0x00, 0x00, 0x68, 0x0e, 0x00, 0x00, 
    0x58, 0x0a, 0x00, 0x00, 0x48, 0x02, 0x00, 0x00, 0xb8, 0x00, 0x00, 0x00, 
    0xb0, 0x00, 0x00, 0x00, 0xa8, 0x00, 0x00, 0x00, 0xa0, 0x00, 0x00, 0x00, 
    0x98, 0x00, 0x00, 0x00, 0x90, 0x00, 0x00, 0x00, 0x88, 0x00, 0x00, 0x00, 
    0x68, 0x00, 0x00, 0x00, 0x04, 0x00, 0x00, 0x00, 0xb2, 0xe6, 0xff, 0xff, 
    0x04, 0x00, 0x00, 0x00, 0x54, 0x00, 0x00, 0x00, 0x0c, 0x00, 0x00, 0x00, 
    0x08, 0x00, 0x0e, 0x00, 0x08, 0x00, 0x04, 0x00, 0x08, 0x00, 0x00, 0x00, 
    0x10, 0x00, 0x00, 0x00, 0x24, 0x00, 0x00, 0x00, 0x00, 0x00, 0x06, 0x00, 
    0x08, 0x00, 0x04, 0x00, 0x06, 0x00, 0x00, 0x00, 0x04, 0x00, 0x00, 0x00, 
    0x00, 0x00, 0x00, 0x00, 0x00, 0x00, 0x0a, 0x00, 0x10, 0x00, 0x0c, 0x00, 
    0x08, 0x00, 0x04, 0x00, 0x0a, 0x00, 0x00, 0x00, 0x02, 0x00, 0x00, 0x00, 
    0x02, 0x00, 0x00, 0x00, 0x04, 0x00, 0x00, 0x00, 0x06, 0x00, 0x00, 0x00, 
    0x32, 0x2e, 0x31, 0x35, 0x2e, 0x30, 0x00, 0x00, 0x12, 0xe7, 0xff, 0xff, 
    0x04, 0x00, 0x00, 0x00, 0x10, 0x00, 0x00, 0x00, 0x31, 0x2e, 0x31, 0x34, 
    0x2e, 0x30, 0x00, 0x00, 0x00, 0x00, 0x00, 0x00, 0x00, 0x00, 0x00, 0x00, 
    0x50, 0xdd, 0xff, 0xff, 0x54, 0xdd, 0xff, 0xff, 0x58, 0xdd, 0xff, 0xff, 
    0x5c, 0xdd, 0xff, 0xff, 0x60, 0xdd, 0xff, 0xff, 0x64, 0xdd, 0xff, 0xff, 
    0x46, 0xe7, 0xff, 0xff, 0x04, 0x00, 0x00, 0x00, 0x80, 0x01, 0x00, 0x00, 
    0xb1, 0x33, 0xfe, 0xbc, 0xe0, 0xef, 0xaa, 0x3d, 0x54, 0xa5, 0x57, 0x3e, 
    0x18, 0xfb, 0x76, 0x3e, 0xa8, 0x75, 0xb1, 0xbe, 0xba, 0x5a, 0x7b, 0x3e, 
    0x19, 0xae, 0xe2, 0x3e, 0x8e, 0x7c, 0xab, 0xbe, 0xb2, 0xe6, 0xa1, 0x3e, 
    0x19, 0x7f, 0xb6, 0x3e, 0xe1, 0x9c, 0x7a, 0xbe, 0xca, 0x98, 0x2e, 0x3d, 
    0x7f, 0x3d, 0xde, 0xbd, 0xb9, 0x1e, 0x4d, 0xbe, 0x5b, 0xa2, 0x15, 0xbe, 
    0xfa, 0xbb, 0x86, 0xbe, 0xc2, 0xa0, 0x93, 0xbe, 0xca, 0x6b, 0xa5, 0x3e, 
    0xc5, 0xa6, 0x98, 0x3e, 0x1f, 0xfd, 0x46, 0x3e, 0x3a, 0x33, 0xef, 0xbe, 
    0x2f, 0x10, 0x6d, 0xbe, 0xf1, 0x2a, 0x81, 0x3e, 0x04, 0xa9, 0x89, 0x3e, 
    0x20, 0x71, 0x98, 0x3e, 0x5c, 0xf5, 0xda, 0xbe, 0xb2, 0x2d, 0x03, 0x3e, 
    0x65, 0xfd, 0x51, 0xbe, 0x03, 0xb0, 0x1c, 0xbf, 0xf3, 0x3c, 0x3a, 0x3e, 
    0x32, 0x3f, 0x02, 0x3e, 0x66, 0xdd, 0xab, 0xbe, 0xd6, 0xe3, 0x5d, 0xbe, 
    0xf0, 0xaa, 0x80, 0x3e, 0xbf, 0xbf, 0x93, 0xbe, 0x3a, 0x70, 0xa9, 0x3e, 
    0x00, 0x45, 0x8a, 0x3e, 0xa1, 0xb4, 0x56, 0xbe, 0x69, 0x75, 0xaa, 0xbe, 
    0x2e, 0xf0, 0x7a, 0xbe, 0xc9, 0x2c, 0x90, 0xbe, 0x05, 0xac, 0x53, 0xbe, 
    0xed, 0xd7, 0x87, 0xbe, 0xce, 0x4c, 0x8a, 0x3e, 0xe5, 0x7e, 0x0e, 0x3e, 
    0xaf, 0xdb, 0xcc, 0xbe, 0xc7, 0xfc, 0x63, 0x3e, 0x97, 0xfe, 0xe1, 0xbe, 
    0xa8, 0xfb, 0xb1, 0xbd, 0x1f, 0xbd, 0xd1, 0xbe, 0xce, 0x06, 0x3a, 0xbe, 
    0x48, 0x44, 0x9f, 0x3d, 0xb3, 0x41, 0x82, 0x3e, 0xf3, 0xc8, 0xa9, 0xbd, 
    0x0f, 0xc6, 0x42, 0xbe, 0x2a, 0x9d, 0x37, 0xbb, 0xf0, 0xa1, 0x81, 0x3e, 
    0x55, 0xd2, 0x7e, 0x3e, 0xc0, 0x95, 0x45, 0x3d, 0xc2, 0xa9, 0x82, 0xbe, 
    0xcf, 0xbd, 0x8f, 0x3e, 0x1d, 0x06, 0xb3, 0x3e, 0x56, 0xea, 0x17, 0x3e, 
    0xf0, 0xb4, 0x71, 0x3d, 0x47, 0xfd, 0xf6, 0xbc, 0x41, 0xc9, 0x1a, 0x3f, 
    0xd0, 0x34, 0x4e, 0xbd, 0xa0, 0xaf, 0xbe, 0x3e, 0x21, 0x20, 0x43, 0x3f, 
    0xbd, 0x59, 0xc0, 0xbe, 0xb2, 0x55, 0x70, 0xbe, 0x01, 0x9f, 0x2b, 0xbe, 
    0x7a, 0x92, 0x9e, 0xbe, 0xa3, 0x24, 0x99, 0x3e, 0x00, 0x97, 0x64, 0xbe, 
    0xec, 0x4b, 0x00, 0x3f, 0xea, 0x5a, 0xe6, 0x3e, 0x12, 0x92, 0x34, 0xbe, 
    0x81, 0xe9, 0xfc, 0x3e, 0x54, 0xfe, 0x5d, 0xbe, 0x45, 0xe7, 0xe2, 0x3e, 
    0xa1, 0x4d, 0x6f, 0x3e, 0x5c, 0x61, 0x72, 0xbe, 0xdc, 0xcb, 0x14, 0x3e, 
    0x76, 0xe3, 0x87, 0x3e, 0xdd, 0x05, 0xec, 0x3e, 0xa9, 0x56, 0x85, 0x3e, 
    0x62, 0x26, 0x03, 0x3f, 0x6c, 0x0b, 0xcd, 0x3d, 0x0c, 0xb5, 0xe5, 0x3e, 
    0x74, 0x87, 0xb3, 0xbe, 0x5a, 0xc8, 0x49, 0xbe, 0xc8, 0xcf, 0x88, 0x3d, 
    0x7b, 0xd3, 0x54, 0xbe, 0x40, 0x8a, 0x90, 0x3e, 0xa2, 0xe0, 0xaf, 0xbe, 
    0xd2, 0xe8, 0xff, 0xff, 0x04, 0x00, 0x00, 0x00, 0x00, 0x08, 0x00, 0x00, 
    0x8d, 0xa0, 0x8d, 0x3e, 0x28, 0x6b, 0x06, 0x3c, 0x01, 0xc8, 0x06, 0x3e, 
    0x0a, 0xf1, 0x5a, 0xbe, 0xf5, 0x77, 0x14, 0x3d, 0x05, 0x42, 0xcc, 0xbd, 
    0x00, 0x4c, 0x45, 0x3d, 0x60, 0x60, 0x05, 0x3e, 0x0f, 0x2b, 0xcc, 0xbc, 
    0x08, 0x8f, 0xd0, 0xbd, 0xa9, 0xe0, 0xbf, 0x3d, 0x2e, 0x50, 0x30, 0xbe, 
    0x40, 0xac, 0xf8, 0xbd, 0xd8, 0xbd, 0x6c, 0x3d, 0xcb, 0x92, 0x76, 0xbd, 
    0x10, 0xde, 0xfa, 0xbc, 0x63, 0x71, 0x87, 0xbe, 0x16, 0x1c, 0x39, 0xbe, 
    0x1e, 0xa3, 0xdc, 0x3d, 0x80, 0x0d, 0x17, 0xbc, 0xf8, 0x9a, 0x84, 0x3e, 
    0xad, 0x41, 0x02, 0xbd, 0x66, 0x47, 0xdc, 0x3e, 0xe0, 0x42, 0x06, 0xbd, 
    0x79, 0x6a, 0xc4, 0x3e, 0xcc, 0x59, 0x1d, 0xbe, 0x22, 0xb1, 0x23, 0xbc, 
    0x1b, 0x88, 0x93, 0xbe, 0xc8, 0xe0, 0x1d, 0xbd, 0x54, 0x51, 0xbe, 0xbd, 
    0xcd, 0x4b, 0x6e, 0x3e, 0x04, 0x81, 0x08, 0x3e, 0x64, 0xa4, 0x98, 0xbd, 
    0xfb, 0xa8, 0xcb, 0xbe, 0xa2, 0x82, 0xdc, 0xbd, 0x17, 0x5f, 0xa3, 0x3e, 
    0x91, 0xb1, 0xaa, 0x3e, 0x36, 0x9d, 0x87, 0x3e, 0x78, 0x90, 0x0c, 0xbe, 
    0x48, 0x58, 0x59, 0x3d, 0xb3, 0x86, 0x20, 0x3e, 0x8b, 0x7f, 0xb1, 0x3e, 
    0x9e, 0xbb, 0x40, 0x3e, 0xe3, 0x8c, 0x97, 0x3c, 0x14, 0x68, 0x98, 0xbd, 
    0xe4, 0x8e, 0x87, 0xbe, 0x0e, 0x47, 0xee, 0xbd, 0x80, 0xbe, 0xea, 0xbc, 
    0xc9, 0xd0, 0x94, 0x3c, 0x12, 0xbe, 0xfb, 0xbd, 0xd3, 0x70, 0x85, 0xbe, 
    0x48, 0x48, 0x8a, 0x3d, 0xb7, 0x0c, 0xf3, 0xbd, 0xd0, 0xe1, 0xa1, 0xbd, 
    0x8c, 0xa0, 0xb7, 0x3e, 0xaa, 0x83, 0x96, 0xbe, 0x73, 0xc7, 0xf9, 0x3d, 
    0x02, 0xb9, 0x65, 0x3e, 0x39, 0xa8, 0xeb, 0xbd, 0xb2, 0x57, 0x44, 0x3e, 
    0x4a, 0x79, 0x2e, 0xbd, 0x00, 0xa7, 0x26, 0xbe, 0x21, 0x07, 0x2d, 0x3e, 
    0xc8, 0xa7, 0x0b, 0x3e, 0x81, 0x24, 0x96, 0x3d, 0x37, 0x1c, 0x80, 0xbe, 
    0xfb, 0xc4, 0x69, 0xbe, 0xb9, 0x77, 0xa8, 0x3e, 0xe4, 0x67, 0x9b, 0x3e, 
    0xec, 0xc7, 0xd6, 0xbe, 0x12, 0x92, 0x10, 0x3e, 0xa4, 0x47, 0x80, 0xbe, 
    0x51, 0x05, 0xc1, 0x3d, 0xe0, 0xd4, 0x02, 0xbc, 0x3d, 0x8d, 0x6b, 0xbe, 
    0x7c, 0xba, 0x1f, 0xbf, 0xd8, 0xd2, 0xba, 0xbd, 0x04, 0x1a, 0xa5, 0xbe, 
    0xe0, 0x7a, 0x09, 0x3e, 0xbe, 0x8e, 0x3e, 0x3e, 0xb4, 0x62, 0xab, 0xbe, 
    0x59, 0xa2, 0x4e, 0xbe, 0xdb, 0xdf, 0x5d, 0xbe, 0xb0, 0x2c, 0x71, 0xbd, 
    0xb0, 0xab, 0x57, 0xbd, 0x01, 0x5c, 0xb4, 0x3e, 0xf0, 0x62, 0xd8, 0xbc, 
    0x80, 0x9f, 0x2c, 0xbe, 0x68, 0xf1, 0x7f, 0x3d, 0xb4, 0xa9, 0xad, 0xbe, 
    0xda, 0xe3, 0x1a, 0xbe, 0xd1, 0xf8, 0x8d, 0x3e, 0x4f, 0xae, 0xa0, 0x3e, 
    0x05, 0xd3, 0x80, 0x3e, 0xd2, 0x45, 0x0c, 0x3e, 0xe0, 0xac, 0x6b, 0xbc, 
    0x18, 0xe5, 0x9f, 0x3e, 0x1d, 0x2e, 0xa1, 0x3e, 0xa0, 0x02, 0xd0, 0x3e, 
    0xd6, 0xab, 0x85, 0xbe, 0xe8, 0x71, 0xda, 0xbe, 0xed, 0xaf, 0xfb, 0x3e, 
    0x87, 0xcd, 0xe8, 0x3d, 0xc0, 0x9a, 0x45, 0xbe, 0xe8, 0xbc, 0x96, 0xbe, 
    0xe1, 0x75, 0x88, 0x3e, 0x61, 0x6d, 0x59, 0xbd, 0xfb, 0xa9, 0xd2, 0x3e, 
    0x39, 0x8c, 0x25, 0xbe, 0xd2, 0x96, 0x39, 0x3e, 0xb4, 0x33, 0x92, 0x3e, 
    0x02, 0x0c, 0x9c, 0xbe, 0x32, 0x97, 0xad, 0x3b, 0xcc, 0xcd, 0x5f, 0x3e, 
    0x0b, 0x7c, 0x75, 0x3e, 0x8c, 0x6e, 0xab, 0xbe, 0x18, 0x7b, 0x03, 0x3e, 
    0xde, 0x6f, 0x5f, 0xbe, 0x79, 0x41, 0xae, 0x3e, 0x7c, 0xf3, 0x8a, 0xbd, 
    0x93, 0x24, 0x8a, 0xbe, 0x5e, 0xd6, 0x2f, 0x3e, 0xac, 0xda, 0x32, 0x3e, 
    0x63, 0x93, 0xa7, 0x3d, 0x65, 0x74, 0x3f, 0xbe, 0xf0, 0x64, 0x5c, 0xbd, 
    0x58, 0x4e, 0x47, 0x3e, 0x2a, 0xe8, 0x15, 0xbe, 0x7c, 0x1b, 0x7a, 0xbe, 
    0x47, 0xdb, 0xfd, 0x3d, 0x22, 0x37, 0x49, 0x3e, 0xc6, 0xdc, 0x13, 0xbe, 
    0x85, 0x2a, 0x15, 0x3e, 0x1a, 0x79, 0x29, 0x3d, 0x77, 0xe7, 0x2b, 0x3e, 
    0xe6, 0xb4, 0x75, 0x3e, 0xc9, 0xec, 0x05, 0xbe, 0x77, 0xdd, 0x8f, 0x3e, 
    0xf9, 0x04, 0x67, 0x3e, 0x6f, 0xf1, 0x88, 0xbe, 0x3c, 0xd2, 0x3d, 0x3d, 
    0x6f, 0x73, 0x35, 0xbe, 0xdf, 0xe1, 0xb2, 0x3e, 0x42, 0x4c, 0x7d, 0x3e, 
    0x18, 0x2d, 0x65, 0xbd, 0xb6, 0xc2, 0x1c, 0x3e, 0xfc, 0x3f, 0xc7, 0x3d, 
    0xb7, 0xd5, 0xa3, 0x3e, 0xe8, 0xc6, 0x24, 0x3d, 0xbd, 0x5b, 0x50, 0xbe, 
    0x12, 0x95, 0x5a, 0xbe, 0x8c, 0xcb, 0x33, 0xbe, 0xb5, 0xfb, 0x63, 0xbe, 
    0x91, 0xab, 0x88, 0xbe, 0x68, 0x8c, 0xac, 0xbe, 0x31, 0xcc, 0x19, 0xbe, 
    0x13, 0x18, 0x2f, 0xbe, 0x60, 0x64, 0x48, 0xbe, 0xe8, 0x1e, 0x36, 0x3d, 
    0x49, 0x43, 0x4e, 0xbe, 0x01, 0x67, 0x32, 0xbc, 0x61, 0xe4, 0xfa, 0x3d, 
    0x07, 0x62, 0xa0, 0xbe, 0x56, 0x6b, 0xfe, 0xbd, 0x41, 0x67, 0xc4, 0x3c, 
    0xde, 0xd5, 0x5b, 0x3e, 0x3c, 0x68, 0x88, 0x3e, 0x20, 0x0c, 0xf9, 0xbc, 
    0x5c, 0xab, 0x12, 0xbe, 0x20, 0x39, 0x61, 0x3d, 0x66, 0x0c, 0xcd, 0x3d, 
    0xf8, 0x80, 0xac, 0xbe, 0x7e, 0x78, 0x4e, 0xbd, 0x20, 0xdb, 0xb6, 0xbd, 
    0xbd, 0xc5, 0x54, 0xbe, 0xa7, 0x65, 0x9d, 0x3e, 0xe2, 0xc4, 0x57, 0x3d, 
    0x70, 0x6e, 0xa8, 0x3d, 0x68, 0x32, 0xe6, 0xbd, 0x87, 0xe8, 0x07, 0xbe, 
    0x63, 0x12, 0x95, 0x3c, 0xfd, 0x04, 0x24, 0xbe, 0xd6, 0xd3, 0xdc, 0xbd, 
    0x10, 0xa9, 0x8c, 0x3c, 0x02, 0x54, 0x90, 0x3e, 0xf8, 0x79, 0x79, 0xbd, 
    0x89, 0x1d, 0x13, 0x3e, 0x0e, 0x99, 0xc0, 0x3d, 0x1f, 0x18, 0xa6, 0x3e, 
    0xc2, 0x6d, 0x35, 0x3e, 0x92, 0x60, 0x6d, 0x3e, 0x60, 0xb9, 0x3e, 0x3d, 
    0x70, 0x9d, 0x4e, 0xbe, 0x1f, 0x90, 0xc2, 0x3e, 0xe0, 0x41, 0xb3, 0x3c, 
    0x55, 0xaa, 0x8c, 0x3e, 0xb8, 0xc1, 0xf2, 0x3e, 0xc3, 0xa9, 0xf7, 0xbe, 
    0x47, 0xc4, 0x62, 0x3e, 0xc2, 0xef, 0x5a, 0xbe, 0x58, 0x3c, 0x8f, 0x3e, 
    0xb6, 0xb4, 0x36, 0x3e, 0x6f, 0xfd, 0xa4, 0xbe, 0x5c, 0x90, 0xd4, 0xbe, 
    0x00, 0xba, 0x9f, 0xbe, 0xc3, 0xe6, 0xa0, 0x3e, 0xec, 0x5c, 0x11, 0xbe, 
    0xdc, 0x23, 0x9c, 0x3d, 0x4c, 0x51, 0x9b, 0xbe, 0x80, 0x8a, 0x15, 0x3d, 
    0x1d, 0x02, 0x92, 0x3e, 0x52, 0xa1, 0xea, 0xbd, 0xb3, 0x6e, 0xb0, 0x3e, 
    0x21, 0x03, 0x8e, 0x3e, 0xe5, 0xce, 0xa2, 0xbe, 0xf4, 0xcf, 0x1c, 0xbe, 
    0x2c, 0x36, 0x88, 0x3d, 0x20, 0x54, 0xbe, 0x3d, 0x98, 0x52, 0x6e, 0x3d, 
    0xbc, 0xbc, 0x2c, 0xbe, 0x1c, 0x88, 0xe4, 0x3d, 0x5e, 0x40, 0x8b, 0xbe, 
    0x35, 0x6a, 0xaf, 0x3e, 0xd2, 0xbe, 0x19, 0x3e, 0x74, 0xbe, 0x09, 0xba, 
    0x59, 0xc7, 0x8f, 0x3e, 0x82, 0x78, 0x49, 0xbe, 0xbd, 0x0c, 0x3b, 0xbe, 
    0x6d, 0x71, 0x83, 0x3e, 0x8b, 0x4d, 0xcd, 0xbc, 0x49, 0xd9, 0xe1, 0xbd, 
    0xdd, 0x0b, 0xa4, 0x3e, 0xf7, 0xf8, 0x03, 0x3e, 0x7d, 0x9e, 0x51, 0xbe, 
    0xf7, 0xb2, 0xd5, 0xbd, 0x00, 0x56, 0x06, 0xbd, 0x96, 0x59, 0x91, 0xbe, 
    0xfb, 0xec, 0x5d, 0xbe, 0x31, 0x58, 0x9e, 0x3d, 0xf0, 0x62, 0x21, 0x3d, 
    0x5c, 0xd7, 0xd5, 0x3d, 0x56, 0x64, 0x6c, 0xbe, 0x2c, 0x31, 0x8d, 0xbe, 
    0x39, 0x86, 0x27, 0xbe, 0x54, 0x73, 0x91, 0x3e, 0xa0, 0x60, 0xd8, 0xbe, 
    0x77, 0x16, 0xb2, 0x3c, 0x30, 0x8e, 0x5a, 0xbd, 0xdd, 0x96, 0xdb, 0x3d, 
    0x0b, 0x1d, 0xaf, 0xbe, 0xc3, 0x66, 0x82, 0xbd, 0xba, 0x04, 0x5a, 0xbe, 
    0x3c, 0xf1, 0x34, 0xbe, 0x4c, 0xf7, 0x80, 0xbd, 0xb3, 0x8b, 0x4e, 0xbe, 
    0x5c, 0xa4, 0xd2, 0x3d, 0x04, 0x4e, 0x93, 0x3e, 0x6d, 0x49, 0xe5, 0xbd, 
    0x56, 0xbb, 0x10, 0x3e, 0x40, 0x22, 0x82, 0xbc, 0x4f, 0x88, 0xb7, 0x3e, 
    0x6b, 0xf5, 0xe6, 0xbe, 0xd4, 0x52, 0xd4, 0x3e, 0x33, 0xdc, 0x95, 0xbe, 
    0x21, 0xe2, 0xe3, 0x3c, 0x9f, 0xf9, 0x04, 0xbe, 0x77, 0x84, 0x98, 0xbe, 
    0xd3, 0x37, 0xe9, 0xbe, 0x6d, 0x0c, 0xff, 0x3b, 0xfb, 0xc2, 0xa0, 0x3e, 
    0xcd, 0x48, 0x33, 0xbe, 0x3e, 0x00, 0x39, 0xbe, 0xfb, 0xf1, 0xa8, 0x3e, 
    0x36, 0x7a, 0x10, 0xbe, 0x9e, 0x76, 0x4c, 0xbe, 0x10, 0x4c, 0x87, 0x3c, 
    0x2f, 0xe1, 0x48, 0xbe, 0x65, 0x6c, 0x13, 0x3e, 0xcc, 0x11, 0x7f, 0x3e, 
    0x9c, 0x9e, 0x14, 0xbe, 0x82, 0xc6, 0x0f, 0x3e, 0xf0, 0x8a, 0xf0, 0x3c, 
    0xe6, 0x57, 0x1d, 0xbe, 0x2c, 0x1e, 0x54, 0x3c, 0xb4, 0xc9, 0x9f, 0xbc, 
    0x26, 0x7d, 0xaa, 0xbe, 0xcb, 0x03, 0x9d, 0xbd, 0xfa, 0x2b, 0x5e, 0x3e, 
    0x00, 0x68, 0x30, 0x3b, 0xf0, 0x0c, 0x54, 0x3d, 0xe1, 0x01, 0x95, 0xbe, 
    0xae, 0x74, 0x4d, 0x3e, 0x4c, 0x3d, 0xb8, 0x3d, 0x38, 0x3a, 0xf5, 0xbd, 
    0x38, 0x93, 0x40, 0xbe, 0xe2, 0x40, 0x1f, 0xbe, 0x7b, 0xc4, 0x71, 0xbe, 
    0xec, 0x05, 0xad, 0x3d, 0x80, 0x14, 0x9c, 0x3c, 0x57, 0xac, 0x8e, 0xbe, 
    0x04, 0xac, 0x84, 0xbd, 0x4f, 0x41, 0x87, 0x3e, 0xb2, 0x8d, 0x2a, 0x3e, 
    0xb7, 0xe7, 0xb0, 0x3e, 0x6b, 0xf8, 0xee, 0x3d, 0xc8, 0x2f, 0x2b, 0x3e, 
    0xdb, 0xb9, 0xc2, 0x3e, 0xb8, 0xfa, 0x1b, 0xbe, 0x6b, 0x89, 0x47, 0x3d, 
    0xb6, 0x51, 0x88, 0x3e, 0xb4, 0x0a, 0x8b, 0x3e, 0x68, 0x82, 0xc4, 0x3d, 
    0x1e, 0x5e, 0xbd, 0x3e, 0x78, 0x36, 0xc6, 0x3d, 0xbd, 0x07, 0x91, 0x3e, 
    0xdd, 0x47, 0x48, 0xbe, 0x3b, 0xa9, 0x92, 0x3e, 0x40, 0xb1, 0x61, 0xbd, 
    0x85, 0x31, 0x4a, 0xbd, 0x96, 0xec, 0x3f, 0xbe, 0x67, 0x2e, 0xf2, 0xbd, 
    0x35, 0xf7, 0xa8, 0xbe, 0x30, 0xea, 0x5b, 0x3e, 0xc6, 0x88, 0xf1, 0xbd, 
    0xda, 0x63, 0xcf, 0x3e, 0xde, 0x33, 0xca, 0xbe, 0x50, 0xa0, 0xba, 0x3e, 
    0xb0, 0xe9, 0x59, 0xbd, 0x23, 0x7f, 0xdb, 0x3d, 0x01, 0x25, 0xb0, 0xbe, 
    0x10, 0xb5, 0x34, 0x3d, 0xd4, 0x8e, 0x0f, 0xbf, 0x67, 0x3e, 0x9b, 0xbd, 
    0x1a, 0xf0, 0xa9, 0xbe, 0x91, 0x99, 0x4b, 0x3e, 0xc1, 0x8f, 0x85, 0x3e, 
    0xd0, 0xc1, 0xaf, 0x3e, 0x97, 0x50, 0x75, 0x3e, 0xc6, 0xa8, 0x45, 0x3e, 
    0xf1, 0xa4, 0x9e, 0x3e, 0xb4, 0x31, 0x80, 0x3d, 0x06, 0x48, 0xcc, 0xbe, 
    0x11, 0xa9, 0x94, 0x3e, 0xbd, 0xba, 0x0c, 0xbe, 0x0b, 0x78, 0x4e, 0x3e, 
    0xa7, 0xa1, 0x8a, 0x3e, 0xb5, 0x1c, 0xb6, 0xbd, 0x46, 0x29, 0x1f, 0xbd, 
    0xe5, 0x3c, 0xab, 0x3e, 0xb1, 0x8d, 0xaa, 0x3e, 0x09, 0x1d, 0x2d, 0xbc, 
    0x9f, 0x75, 0xa0, 0xbe, 0xc0, 0xcd, 0x03, 0x3c, 0xe0, 0xd2, 0xb2, 0xbe, 
    0x51, 0x0e, 0x42, 0xbe, 0x5c, 0xda, 0x81, 0xbe, 0x68, 0xe7, 0xa8, 0x3d, 
    0xa7, 0x6c, 0x9d, 0x3e, 0x3b, 0xec, 0x9c, 0x3e, 0x80, 0x52, 0x72, 0xbe, 
    0xea, 0xe3, 0xb4, 0xbe, 0x40, 0xb6, 0xc8, 0x3c, 0x24, 0xe9, 0xa3, 0xbe, 
    0x1b, 0xc6, 0xb0, 0xbe, 0x8b, 0x4f, 0x9d, 0xbe, 0x3c, 0x26, 0x8c, 0xbe, 
    0xaa, 0xf9, 0x3c, 0x3e, 0xd7, 0x1a, 0x69, 0xbe, 0x8a, 0xd3, 0xd6, 0x3e, 
    0xa2, 0xe0, 0x03, 0xbe, 0xf5, 0x9c, 0x51, 0x3e, 0xd4, 0x2f, 0x89, 0xbd, 
    0xd9, 0x07, 0x98, 0x3e, 0x24, 0x36, 0xdf, 0x3d, 0x3a, 0xf5, 0xbf, 0x3e, 
    0x7a, 0x89, 0x2f, 0x3e, 0xd2, 0xc7, 0x5d, 0x3c, 0x1d, 0x24, 0xb3, 0x3e, 
    0x47, 0x49, 0x11, 0x3e, 0x9f, 0x28, 0x67, 0xba, 0xb2, 0x15, 0x79, 0xbe, 
    0x38, 0x6a, 0x3c, 0xbd, 0x3a, 0x81, 0xf0, 0x3d, 0x1c, 0x38, 0x97, 0xbd, 
    0xf8, 0x64, 0x91, 0xbe, 0x09, 0x19, 0x15, 0x3e, 0xdf, 0xa6, 0x9a, 0xbe, 
    0x83, 0x06, 0xb2, 0xbe, 0xae, 0xdf, 0x39, 0xbe, 0x69, 0xe4, 0x2f, 0x3e, 
    0x53, 0xc9, 0x80, 0x3e, 0x59, 0x3d, 0x8e, 0xbe, 0x6d, 0x79, 0xe3, 0x3c, 
    0xc0, 0xf3, 0xb6, 0x3d, 0xc8, 0xe4, 0x9a, 0xbe, 0x6c, 0xae, 0x21, 0x3d, 
    0xb5, 0x24, 0x89, 0x3e, 0x7c, 0x93, 0x1a, 0xbe, 0xac, 0xaf, 0xda, 0x3d, 
    0x00, 0x09, 0x0e, 0x3b, 0xf7, 0xab, 0xed, 0x3d, 0x41, 0x28, 0x64, 0x3e, 
    0x99, 0x32, 0x6a, 0xbe, 0x34, 0x58, 0xc4, 0x3d, 0x09, 0x52, 0xf6, 0x3d, 
    0x33, 0x8d, 0xf7, 0xbe, 0xcc, 0xd3, 0xb5, 0x3d, 0x40, 0x12, 0xf1, 0x3d, 
    0x58, 0x97, 0xa0, 0x3d, 0xfb, 0xb7, 0x39, 0xbe, 0xeb, 0xc0, 0xfd, 0x3d, 
    0xe7, 0x5c, 0xa9, 0xbe, 0xdb, 0x61, 0x03, 0xbe, 0xa3, 0x7e, 0x9e, 0x3e, 
    0xb7, 0x5e, 0x4a, 0xbe, 0xb1, 0x23, 0xaa, 0x3e, 0x7a, 0xb9, 0x21, 0x3e, 
    0x32, 0x9c, 0x82, 0xbe, 0x0c, 0x62, 0xd9, 0x3d, 0x16, 0xf4, 0x78, 0x3e, 
    0x53, 0x91, 0x84, 0xbe, 0x22, 0x13, 0x3a, 0xbe, 0x00, 0xd0, 0xf5, 0x39, 
    0xc8, 0x6f, 0x8c, 0x3d, 0x7b, 0x02, 0x51, 0xbe, 0xa0, 0xd8, 0xe5, 0xbc, 
    0x9c, 0x65, 0x51, 0xbe, 0x00, 0xf9, 0x49, 0x3c, 0x4a, 0x30, 0x7a, 0x3e, 
    0x1a, 0xd0, 0xaa, 0xbe, 0x00, 0x28, 0x61, 0xbd, 0x50, 0x47, 0x43, 0x3d, 
    0xb0, 0x33, 0x2c, 0xbd, 0x20, 0xd5, 0x5d, 0x3c, 0x9e, 0x93, 0xea, 0xbd, 
    0x9b, 0x04, 0xad, 0x3e, 0xf8, 0x0a, 0xb0, 0x3d, 0x8e, 0xa2, 0x47, 0x3e, 
    0xf7, 0xa6, 0x8d, 0xbe, 0x98, 0x53, 0x82, 0x3d, 0x90, 0xe8, 0xae, 0xbd, 
    0xa5, 0xe3, 0x9d, 0x3e, 0xbe, 0xde, 0x93, 0xbe, 0xa2, 0x8d, 0x4b, 0x3e, 
    0x95, 0x55, 0xad, 0x3e, 0xd8, 0xe1, 0xc3, 0xbd, 0x48, 0x60, 0xbc, 0x3d, 
    0x42, 0x40, 0x5e, 0x3e, 0xbc, 0xb0, 0x19, 0xbe, 0x35, 0x93, 0x02, 0xbe, 
    0x17, 0xa0, 0x82, 0x3e, 0x34, 0x97, 0xd8, 0xbd, 0x99, 0xf6, 0x87, 0xbe, 
    0xf1, 0x55, 0xd8, 0x3e, 0x92, 0xd7, 0x14, 0xbe, 0x00, 0xf4, 0xcf, 0xbb, 
    0x02, 0xc9, 0x96, 0xbd, 0x60, 0x09, 0x07, 0xbd, 0xfb, 0xaa, 0x59, 0x3e, 
    0xd8, 0x8a, 0xb6, 0x3e, 0x0e, 0x41, 0xa4, 0xbe, 0xe5, 0x92, 0x58, 0xbe, 
    0x28, 0xa6, 0x02, 0x3d, 0x38, 0xc0, 0xc1, 0xbd, 0xef, 0xfe, 0xe5, 0x3d, 
    0xba, 0x19, 0xaf, 0x3e, 0xea, 0x3e, 0x9d, 0xbe, 0x0a, 0x29, 0x3c, 0x3e, 
    0x4b, 0x05, 0x96, 0xbe, 0x14, 0x91, 0x05, 0xbb, 0x1a, 0xbc, 0x51, 0xbe, 
    0xf6, 0xc9, 0x3a, 0x3e, 0xec, 0xe8, 0xa0, 0xbe, 0x4b, 0x7b, 0x69, 0xbe, 
    0xaa, 0x09, 0x63, 0x3e, 0xf0, 0x5c, 0xb0, 0xbd, 0x82, 0x0b, 0xa9, 0xbe, 
    0xef, 0x0f, 0x84, 0x3e, 0xc7, 0x51, 0x98, 0x3e, 0x9f, 0x8c, 0x92, 0x3e, 
    0x65, 0x37, 0x0c, 0x3e, 0x26, 0xab, 0xd8, 0x3c, 0x2e, 0x46, 0xeb, 0xbd, 
    0x80, 0xbf, 0x7d, 0xbd, 0x52, 0xfd, 0x41, 0xbd, 0x2c, 0x26, 0xb0, 0xbe, 
    0xf7, 0x22, 0x15, 0xbd, 0xe0, 0x2b, 0x8d, 0x3c, 0x46, 0xb6, 0x88, 0x3e, 
    0x50, 0xba, 0xaa, 0xbd, 0x92, 0x6b, 0xeb, 0x3d, 0x69, 0x69, 0x48, 0xbe, 
    0xe1, 0xca, 0x4c, 0xbe, 0x8c, 0x40, 0xc6, 0x3d, 0xf1, 0x1b, 0x07, 0xbc, 
    0x74, 0xaf, 0xd2, 0xbd, 0x00, 0xb0, 0xbd, 0x39, 0x3d, 0xaf, 0xb3, 0xbe, 
    0xa0, 0xca, 0xd5, 0xbc, 0x71, 0x6b, 0x38, 0xbe, 0x5d, 0xaf, 0x35, 0xbe, 
    0x61, 0xdf, 0x97, 0x3e, 0x0b, 0xae, 0xa1, 0xbe, 0x9a, 0xb9, 0x7f, 0x3e, 
    0xf2, 0x42, 0xdc, 0xbd, 0x00, 0x28, 0x9a, 0xb9, 0xf0, 0xa7, 0x08, 0xbd, 
    0x57, 0x27, 0x88, 0x3e, 0x88, 0x6a, 0xeb, 0x3d, 0xee, 0xf1, 0xa4, 0xbe, 
    0xdd, 0x80, 0x9d, 0x3e, 0x70, 0x17, 0x2b, 0x3d, 0xde, 0xf0, 0xff, 0xff, 
    0x04, 0x00, 0x00, 0x00, 0x00, 0x04, 0x00, 0x00, 0x05, 0x6e, 0x6a, 0x3e, 
    0x71, 0xf2, 0xaf, 0x3c, 0x07, 0x93, 0x7f, 0xbe, 0x0e, 0xd1, 0x3b, 0x3e, 
    0xdc, 0x53, 0x7a, 0x3e, 0xd3, 0xba, 0x8f, 0x3e, 0x4c, 0x11, 0xf1, 0xbc, 
    0x59, 0x6c, 0x76, 0xbe, 0x64, 0xd2, 0xbd, 0xbe, 0x2c, 0x7a, 0x86, 0x3d, 
    0x49, 0x80, 0x98, 0xbe, 0x5e, 0x5d, 0x27, 0x3e, 0x57, 0x88, 0xad, 0xbc, 
    0x24, 0xf2, 0x99, 0xbd, 0x95, 0xe4, 0x97, 0x3e, 0xd4, 0xe6, 0xa1, 0x3e, 
    0x45, 0xf6, 0x84, 0x3e, 0x28, 0x99, 0x5b, 0xbd, 0x0b, 0x55, 0x96, 0x3e, 
    0xb0, 0x90, 0x41, 0x3d, 0x5c, 0xbc, 0xc9, 0xbc, 0x6d, 0x7a, 0x9b, 0x3e, 
    0xe7, 0xcf, 0xc0, 0x3e, 0x1c, 0xf2, 0xf5, 0x3d, 0x09, 0x96, 0x48, 0xbe, 
    0x65, 0x3a, 0x7f, 0x3e, 0xae, 0x4c, 0x79, 0x3c, 0xfc, 0xfd, 0xac, 0x3d, 
    0xd4, 0x69, 0x4c, 0x3e, 0xb1, 0x51, 0x80, 0x3d, 0x1d, 0x26, 0x9d, 0x3e, 
    0xcc, 0x5a, 0xbe, 0xbe, 0x75, 0x63, 0x61, 0xbe, 0xf6, 0x60, 0xf3, 0xbd, 
    0xa6, 0x50, 0x0c, 0xbe, 0x15, 0xf1, 0xa1, 0x3e, 0xd4, 0x51, 0xd6, 0x3d, 
    0x91, 0xfe, 0xbe, 0x3e, 0x4d, 0xc4, 0x53, 0x3e, 0x90, 0x8b, 0x63, 0xbd, 
    0x9a, 0x15, 0x77, 0xbe, 0x24, 0xe0, 0x7a, 0x3e, 0x22, 0x40, 0x04, 0x3d, 
    0x78, 0xf2, 0x0f, 0xbd, 0x6f, 0xf2, 0x0b, 0xbe, 0xf4, 0x25, 0x8b, 0x3c, 
    0x7a, 0x9f, 0x38, 0x3e, 0xed, 0x86, 0x38, 0x3e, 0xe0, 0xf7, 0x92, 0xbe, 
    0xbe, 0x2b, 0xbc, 0xbe, 0x2f, 0xdd, 0xcc, 0x3e, 0x2a, 0xb2, 0xb9, 0xbe, 
    0x18, 0x8b, 0x44, 0x3d, 0x46, 0x55, 0x2a, 0xbe, 0xb1, 0xe0, 0xba, 0xbe, 
    0x4a, 0x85, 0x23, 0x3e, 0x74, 0x96, 0x4c, 0xbe, 0x18, 0xfd, 0x11, 0xbd, 
    0x73, 0x9b, 0xb8, 0x3e, 0xe4, 0xdb, 0xa3, 0x3d, 0x20, 0x54, 0x9c, 0xbc, 
    0xcc, 0x13, 0x8d, 0xbd, 0xd5, 0x3d, 0xb9, 0xbe, 0x1c, 0x9c, 0xff, 0x3d, 
    0x03, 0x77, 0xe1, 0x3e, 0x77, 0xcd, 0x97, 0xbd, 0x9a, 0xa3, 0x25, 0x3e, 
    0x8c, 0xfe, 0xaa, 0xbd, 0xd2, 0xd9, 0x4e, 0xbe, 0x57, 0x24, 0x8e, 0xbe, 
    0x98, 0xda, 0x9f, 0xbe, 0x58, 0xbc, 0x09, 0x3d, 0xf2, 0x9f, 0xb0, 0x3d, 
    0x76, 0xab, 0xe6, 0xbe, 0x4b, 0x35, 0xea, 0xbe, 0xbd, 0x0a, 0xa4, 0x3e, 
    0x6a, 0x93, 0xfa, 0x3d, 0xc7, 0x99, 0xd6, 0xbd, 0xa8, 0x8e, 0x71, 0x3d, 
    0x82, 0xe4, 0x36, 0x3e, 0x09, 0xa3, 0x20, 0xbe, 0xb7, 0x9a, 0x94, 0x3e, 
    0x00, 0x95, 0x6d, 0x3b, 0x7e, 0x49, 0x07, 0xbe, 0x06, 0x35, 0xcd, 0x3e, 
    0x2f, 0x1f, 0x0e, 0xbc, 0x1b, 0x59, 0x0b, 0x3d, 0xc6, 0x69, 0x32, 0xbe, 
    0x49, 0x97, 0x4b, 0x3e, 0x3e, 0x96, 0xaa, 0x3d, 0x2c, 0x49, 0x6c, 0x3e, 
    0x21, 0x17, 0xd0, 0x3e, 0x1b, 0x80, 0x6b, 0xbe, 0x89, 0xd6, 0x08, 0x3e, 
    0x65, 0x5e, 0xaf, 0x3e, 0x5c, 0xa3, 0x46, 0x3e, 0x68, 0x69, 0xb2, 0x3e, 
    0xbd, 0x3c, 0x9f, 0xbd, 0xec, 0x29, 0x9d, 0x3d, 0x28, 0x59, 0xba, 0xbe, 
    0xbb, 0x65, 0xe0, 0xbd, 0x59, 0xf1, 0xee, 0xbc, 0x7b, 0x8d, 0x4e, 0x3c, 
    0x18, 0x4f, 0x31, 0x3d, 0xad, 0x94, 0x96, 0xbe, 0x99, 0xa0, 0xf9, 0x3d, 
    0xa1, 0x47, 0x93, 0xbe, 0xd6, 0x39, 0xa6, 0xbe, 0xf8, 0xf9, 0x08, 0x3f, 
    0x90, 0x04, 0x59, 0xbf, 0x59, 0xb7, 0x83, 0x3e, 0x15, 0xc2, 0x3e, 0x3e, 
    0xb0, 0x8d, 0x7d, 0xbd, 0xb5, 0x14, 0x5a, 0xbe, 0xe3, 0x4b, 0x4a, 0xbe, 
    0x10, 0x5c, 0x92, 0xbe, 0x9b, 0x5e, 0x82, 0x3e, 0x5b, 0x72, 0xd4, 0x3e, 
    0x1c, 0xc5, 0xac, 0x3d, 0x66, 0xf5, 0x00, 0x3e, 0xed, 0xa0, 0x53, 0xbe, 
    0xe2, 0x4d, 0xa0, 0xbe, 0xab, 0xd2, 0x56, 0xbe, 0xd9, 0xa6, 0xd5, 0xbe, 
    0xe9, 0xb0, 0x5e, 0xbe, 0xb6, 0x8f, 0x56, 0x3e, 0x83, 0xc1, 0xc4, 0x3e, 
    0xb6, 0x38, 0xa8, 0xbe, 0x4d, 0x02, 0xb0, 0x3e, 0xca, 0xe7, 0xd2, 0x3e, 
    0xb0, 0x26, 0xc1, 0xbd, 0xda, 0xba, 0x50, 0x3e, 0x24, 0xc9, 0x98, 0xbe, 
    0x8f, 0xc9, 0xd9, 0x3e, 0x71, 0x6f, 0xc5, 0xbe, 0x9d, 0xb2, 0xb2, 0xbe, 
    0x46, 0x45, 0x33, 0x3e, 0x47, 0xb0, 0x69, 0x3e, 0x85, 0x8a, 0x11, 0x3e, 
    0x5b, 0x52, 0xd0, 0x3e, 0x39, 0xad, 0xb7, 0x3e, 0xd6, 0xfa, 0xe3, 0xbe, 
    0x58, 0x9f, 0x82, 0x3d, 0xf6, 0x46, 0x08, 0x3e, 0xd4, 0xd5, 0x4a, 0xbe, 
    0x82, 0x90, 0x04, 0x3e, 0x67, 0xe9, 0xad, 0x3e, 0x18, 0x97, 0x61, 0xbe, 
    0xb8, 0x02, 0x45, 0xbe, 0xa0, 0x78, 0x17, 0xbd, 0x40, 0xae, 0x2b, 0xbd, 
    0x2e, 0xb8, 0x70, 0x3e, 0x63, 0x3d, 0xaa, 0x3e, 0x92, 0xef, 0xcb, 0xbe, 
    0x18, 0x65, 0x4f, 0xbe, 0x09, 0x66, 0xb9, 0xbe, 0x2c, 0x8c, 0xbb, 0xbd, 
    0x02, 0xcd, 0x0c, 0x3e, 0x88, 0xf6, 0x63, 0xbd, 0x31, 0x48, 0xcf, 0xbe, 
    0x62, 0x93, 0xe9, 0xbd, 0x9f, 0xe1, 0x85, 0x3e, 0xde, 0xb3, 0x74, 0xbe, 
    0x30, 0x30, 0x55, 0xbe, 0x5c, 0x17, 0xb5, 0xbe, 0x90, 0x90, 0x95, 0xbe, 
    0x3f, 0xe0, 0x4b, 0xbe, 0x40, 0xe7, 0xc6, 0xbc, 0xbf, 0x65, 0xad, 0x3e, 
    0x16, 0x5f, 0xd2, 0xbd, 0xa0, 0xb7, 0x80, 0x3d, 0xdb, 0xd4, 0x92, 0x3e, 
    0x16, 0x92, 0xa4, 0x3e, 0xcc, 0xc8, 0x80, 0xbd, 0x50, 0xde, 0xe6, 0xbc, 
    0x9e, 0x28, 0xc3, 0x3e, 0xb2, 0x72, 0x29, 0x3e, 0xa1, 0x0c, 0xe0, 0x3e, 
    0x63, 0xe5, 0xc2, 0x3e, 0x06, 0x20, 0x1e, 0x3e, 0x3d, 0x9b, 0x81, 0xbe, 
    0x14, 0xc0, 0x2e, 0xbe, 0xae, 0xfb, 0x6b, 0x3e, 0x82, 0x30, 0x43, 0x3e, 
    0xeb, 0xc4, 0x0b, 0xbe, 0xf5, 0x17, 0x81, 0x3e, 0x3d, 0xf5, 0x11, 0xbe, 
    0xcc, 0x19, 0xfd, 0xbd, 0x7a, 0xd6, 0xd6, 0xbe, 0x95, 0x56, 0x94, 0x3e, 
    0xbe, 0xd2, 0x0f, 0x3e, 0x2a, 0xa7, 0x59, 0x3d, 0xdd, 0x34, 0x3a, 0xbd, 
    0x10, 0x3c, 0x62, 0xbd, 0x4d, 0x1a, 0xd9, 0x3e, 0x00, 0xb1, 0xf3, 0xbb, 
    0x7c, 0xce, 0x4f, 0xbe, 0xcc, 0x31, 0xb2, 0xbe, 0xee, 0x4a, 0x01, 0xbe, 
    0xc8, 0x9c, 0x18, 0xbd, 0xf4, 0xc0, 0x36, 0xbe, 0x1f, 0x1a, 0xf1, 0x3d, 
    0x47, 0x84, 0xbd, 0xbe, 0x5b, 0xe0, 0xb3, 0x3e, 0xf6, 0xef, 0x9f, 0x3e, 
    0xc9, 0x67, 0x15, 0x3e, 0x87, 0x79, 0xd7, 0xbe, 0x4b, 0x45, 0x91, 0x3d, 
    0x9a, 0xb6, 0x02, 0xbe, 0x92, 0xd5, 0x58, 0x3e, 0xe0, 0xc6, 0x68, 0x3d, 
    0xe1, 0x68, 0x9d, 0x3e, 0x58, 0x13, 0x95, 0xbe, 0x24, 0x98, 0xd8, 0x3d, 
    0x11, 0x7b, 0x93, 0xbe, 0x70, 0xb2, 0xad, 0xbe, 0xe0, 0x55, 0x15, 0x3c, 
    0x78, 0xe6, 0xaa, 0xbd, 0xf0, 0xe2, 0x29, 0xbd, 0x54, 0xc9, 0x74, 0xbe, 
    0x86, 0x6c, 0x7b, 0xbe, 0x8a, 0xdf, 0x2a, 0xbe, 0x09, 0xdf, 0xcb, 0xbe, 
    0x67, 0xb0, 0xcd, 0x3e, 0x45, 0x8c, 0x40, 0x3e, 0x55, 0xf2, 0x8e, 0xbe, 
    0xf5, 0x5c, 0x8e, 0x3e, 0x80, 0x96, 0x18, 0xbc, 0x56, 0x0f, 0xcd, 0xbe, 
    0x5b, 0x2d, 0x11, 0x3e, 0x7b, 0xfe, 0xe2, 0xbe, 0xd0, 0x6e, 0x83, 0xbd, 
    0x23, 0xa3, 0xb2, 0x3d, 0x19, 0xa1, 0xb0, 0xbe, 0x8a, 0x13, 0x97, 0x3d, 
    0xe0, 0xd2, 0x83, 0xbc, 0x48, 0x69, 0x48, 0x3e, 0x98, 0xb9, 0xb9, 0x3e, 
    0xa6, 0x2c, 0x51, 0x3e, 0xc8, 0x8c, 0xb4, 0xbe, 0x48, 0x36, 0x3c, 0x3d, 
    0x9d, 0x2c, 0xb8, 0xbe, 0x38, 0x92, 0x44, 0xbe, 0x15, 0x51, 0x8c, 0x3e, 
    0xcd, 0x4c, 0xce, 0xbe, 0x62, 0x41, 0x2c, 0x3e, 0xe0, 0xa0, 0x3f, 0x3c, 
    0x20, 0xef, 0x05, 0x3d, 0xbb, 0x82, 0xb0, 0x3e, 0x3d, 0x57, 0xa3, 0xbe, 
    0xf4, 0x06, 0xba, 0x3d, 0x52, 0xbd, 0xb5, 0xbe, 0x99, 0x56, 0xb7, 0xbe, 
    0x36, 0x52, 0x92, 0xbe, 0x42, 0xa2, 0x76, 0xbe, 0x67, 0x61, 0x71, 0xbe, 
    0xea, 0xf4, 0xff, 0xff, 0x04, 0x00, 0x00, 0x00, 0x00, 0x08, 0x00, 0x00, 
    0x3b, 0x1c, 0x95, 0x3b, 0xf1, 0xde, 0x6b, 0xbe, 0xa7, 0xf0, 0xe5, 0x3d, 
    0xe0, 0xa7, 0x0e, 0x3e, 0x00, 0x04, 0xe5, 0xbc, 0x7e, 0xbb, 0xe8, 0x3e, 
    0xf3, 0xe2, 0x86, 0x3e, 0xbd, 0xb2, 0x97, 0x3e, 0xee, 0x18, 0xc4, 0x3e, 
    0x6f, 0x61, 0x2a, 0x3e, 0x59, 0x03, 0x09, 0xbe, 0x54, 0x73, 0x9b, 0xbe, 
    0x12, 0x72, 0x6f, 0x3b, 0xb9, 0x19, 0x8c, 0x3e, 0xaa, 0x93, 0xbf, 0x3d, 
    0x13, 0x24, 0x93, 0x3e, 0x31, 0x46, 0xa7, 0x3e, 0x02, 0x57, 0x25, 0x3e, 
    0xb2, 0x50, 0xb4, 0xbe, 0xd5, 0x3d, 0xa6, 0x3e, 0x10, 0x00, 0xae, 0x3d, 
    0xdc, 0xfd, 0x09, 0xbe, 0xf0, 0xdb, 0x91, 0x3e, 0xc3, 0xab, 0xb8, 0x3e, 
    0xaf, 0xf3, 0xab, 0x3e, 0x0e, 0x7a, 0x8d, 0xbe, 0x08, 0xdf, 0x04, 0x3e, 
    0xb4, 0xdd, 0x80, 0xbe, 0xb7, 0x3f, 0x90, 0x3e, 0x05, 0x34, 0x83, 0xbe, 
    0x1c, 0xda, 0x9b, 0x3d, 0xf2, 0xa3, 0xa4, 0x3e, 0xba, 0xd9, 0x02, 0x3f, 
    0x05, 0x68, 0x44, 0xbe, 0xb9, 0x0e, 0x16, 0x3e, 0x19, 0x5a, 0x81, 0xbe, 
    0x69, 0x8a, 0x9f, 0xbe, 0x39, 0x88, 0x35, 0xbe, 0xa6, 0xa5, 0x96, 0xbe, 
    0xfe, 0x5b, 0x29, 0xbe, 0xd4, 0xa3, 0x66, 0xbe, 0x42, 0xeb, 0xdc, 0x3e, 
    0x48, 0x08, 0xcb, 0x3d, 0x40, 0x6e, 0xf3, 0x3d, 0x28, 0x05, 0x9f, 0xbe, 
    0x4e, 0x14, 0x96, 0x3e, 0xf8, 0x0b, 0x18, 0x3e, 0x31, 0xc5, 0xaf, 0x3e, 
    0x9a, 0x83, 0x97, 0x3d, 0xa8, 0x67, 0xc3, 0xbd, 0xa5, 0x14, 0xa5, 0x3d, 
    0x72, 0xcc, 0x81, 0x3e, 0xac, 0x76, 0xa9, 0xbd, 0xd2, 0x05, 0x11, 0x3e, 
    0xad, 0x27, 0x9e, 0xbe, 0xde, 0x9b, 0x35, 0xbe, 0x42, 0xeb, 0x94, 0x3c, 
    0x7a, 0x66, 0x93, 0xbe, 0xec, 0x22, 0xc4, 0x3e, 0xbf, 0x17, 0xb3, 0xbd, 
    0xfb, 0x36, 0x31, 0x3e, 0xbc, 0xc9, 0xff, 0xbd, 0xd9, 0x42, 0x88, 0xbe, 
    0xb0, 0x6d, 0x00, 0x3e, 0x10, 0x2a, 0x25, 0xbd, 0xc0, 0x5c, 0x98, 0x3b, 
    0xe8, 0xec, 0x4e, 0x3d, 0x78, 0x5d, 0xe7, 0x3d, 0xb6, 0x82, 0x70, 0x3e, 
    0xb4, 0x52, 0x8f, 0x3d, 0x00, 0xec, 0x41, 0x3a, 0x5f, 0x0e, 0xa1, 0x3e, 
    0xb0, 0x3e, 0x87, 0xbe, 0xd1, 0x19, 0x16, 0xbe, 0x9c, 0x40, 0xa8, 0xbd, 
    0x6a, 0xa3, 0x09, 0x3e, 0xd0, 0x7d, 0x8d, 0xbd, 0xff, 0x0c, 0xb4, 0x3e, 
    0xec, 0x82, 0x0c, 0x3e, 0x1f, 0x70, 0x89, 0x3e, 0x51, 0xfd, 0x75, 0xbe, 
    0xa1, 0xd5, 0xad, 0x3e, 0xa0, 0x75, 0x1d, 0x3c, 0x95, 0x44, 0x9b, 0x3e, 
    0x47, 0xfc, 0xb4, 0x3e, 0xf5, 0x13, 0x49, 0xbe, 0x48, 0xa5, 0x92, 0xbe, 
    0x33, 0x1c, 0x93, 0x3e, 0x12, 0x3a, 0xe4, 0xbd, 0xa8, 0xf2, 0x47, 0x3d, 
    0x39, 0x74, 0x84, 0x3e, 0x80, 0x3e, 0xad, 0xbe, 0x0c, 0xcb, 0xc1, 0x3d, 
    0x68, 0x8a, 0x85, 0x3d, 0x82, 0x81, 0x9c, 0xbe, 0xf6, 0x74, 0xa6, 0xbe, 
    0xf3, 0x27, 0x18, 0xbe, 0x00, 0x69, 0x3b, 0x3b, 0xd6, 0xe0, 0x4a, 0xbe, 
    0x60, 0x88, 0x7c, 0xbd, 0x56, 0x6c, 0xd8, 0xbd, 0x52, 0x99, 0x2b, 0x3e, 
    0xc0, 0xf1, 0x1b, 0xbd, 0xe7, 0xda, 0x91, 0x3e, 0x35, 0x37, 0x91, 0x3e, 
    0x5e, 0xba, 0x79, 0x3e, 0xa4, 0xa4, 0xbe, 0x3d, 0x38, 0x12, 0xc5, 0x3d, 
    0xa7, 0x25, 0x9a, 0xbe, 0x1b, 0x46, 0xb0, 0xbe, 0xc8, 0x71, 0xd6, 0xbd, 
    0x98, 0xbb, 0x9f, 0x3d, 0x40, 0x21, 0x10, 0x3e, 0xb7, 0x6e, 0x85, 0xbe, 
    0xe1, 0xff, 0xa1, 0xbe, 0x4b, 0x0d, 0xa8, 0xbe, 0x0d, 0x8c, 0xa2, 0xbe, 
    0xdb, 0xbc, 0x32, 0xbe, 0x1d, 0xde, 0x1d, 0xbe, 0xa9, 0xb7, 0x97, 0x3e, 
    0xf2, 0x8a, 0x8f, 0xbe, 0x80, 0x92, 0xf8, 0xbc, 0x30, 0xda, 0x30, 0x3d, 
    0x00, 0x83, 0x16, 0xbe, 0x00, 0x67, 0x04, 0xbd, 0x89, 0xbc, 0x9f, 0x3e, 
    0xac, 0x72, 0x00, 0x3e, 0x8a, 0x89, 0x8c, 0xbe, 0xc3, 0xbc, 0xd0, 0x3e, 
    0x58, 0x09, 0xa9, 0x3d, 0xbd, 0x3b, 0xef, 0xbc, 0xa0, 0x91, 0xe2, 0xbd, 
    0x68, 0x85, 0xa5, 0xbe, 0x71, 0x40, 0x32, 0xbd, 0x5a, 0xea, 0xd4, 0xbd, 
    0xc4, 0x5a, 0xc6, 0xbe, 0x5c, 0xeb, 0x38, 0x3e, 0x4b, 0xa3, 0xab, 0x3e, 
    0x34, 0xfc, 0xc7, 0xbd, 0xf4, 0x9d, 0xe7, 0xbd, 0x53, 0x55, 0xb5, 0xba, 
    0x1f, 0xe2, 0xb7, 0x3d, 0x33, 0xac, 0x73, 0xbe, 0xa2, 0xdd, 0x5e, 0x3e, 
    0x46, 0xd1, 0x92, 0x3e, 0x1e, 0xd2, 0x58, 0x3e, 0xfd, 0xff, 0xc0, 0x3e, 
    0x69, 0x12, 0x6d, 0xbe, 0xdc, 0x4c, 0xd5, 0x3d, 0x60, 0x13, 0x87, 0xbd, 
    0x43, 0x22, 0x55, 0xbe, 0xa4, 0x4b, 0x3a, 0x3e, 0xa9, 0x99, 0x76, 0x3e, 
    0x8b, 0x0a, 0xa1, 0xbe, 0x82, 0x99, 0x1a, 0x3e, 0xb1, 0x36, 0x95, 0xbe, 
    0xcb, 0xb0, 0x8f, 0x3d, 0x7f, 0xd1, 0x9e, 0x3d, 0xbb, 0x14, 0x88, 0x3e, 
    0x5b, 0x3b, 0x01, 0xbe, 0xed, 0x45, 0x9f, 0x3e, 0x26, 0x6b, 0x7d, 0xbe, 
    0xe1, 0xcc, 0x36, 0x3e, 0x11, 0x16, 0x2a, 0xbe, 0x0c, 0x90, 0xfd, 0xbd, 
    0x22, 0x13, 0x05, 0x3d, 0xc0, 0x2e, 0x73, 0xbc, 0x07, 0x0d, 0x47, 0x3e, 
    0xf4, 0x82, 0xdc, 0x3d, 0x46, 0x86, 0xd2, 0x3e, 0x1a, 0xe9, 0x07, 0xbe, 
    0xd3, 0x1f, 0x8c, 0xbe, 0x4b, 0x59, 0x89, 0x3e, 0x12, 0x7b, 0x41, 0x3e, 
    0xef, 0x43, 0x69, 0x3d, 0x5c, 0x08, 0x93, 0x3d, 0xb9, 0x4c, 0xaf, 0x3d, 
    0x82, 0xb9, 0x5b, 0x3e, 0xfe, 0xc2, 0x79, 0x3e, 0x6b, 0x83, 0xc0, 0x3d, 
    0x1e, 0x11, 0x7a, 0x3e, 0xcc, 0x14, 0xaa, 0xbe, 0x85, 0xc3, 0x37, 0x3e, 
    0xfb, 0xd0, 0x84, 0x3e, 0x68, 0xa0, 0x05, 0x3e, 0xc5, 0x73, 0x49, 0x3e, 
    0xa2, 0xd2, 0xc1, 0xbc, 0x28, 0x23, 0x9c, 0x3e, 0xe2, 0x0e, 0x94, 0x3e, 
    0x41, 0x0c, 0x86, 0xbe, 0x20, 0x18, 0x90, 0xbd, 0xc0, 0xa6, 0x89, 0xbe, 
    0xc7, 0xec, 0x52, 0xbd, 0xf0, 0x6e, 0x55, 0xbd, 0x70, 0xd6, 0x99, 0x3e, 
    0x6c, 0x04, 0x91, 0xbe, 0x37, 0xc5, 0x5b, 0xbe, 0xa3, 0x0a, 0xa2, 0xbe, 
    0xe0, 0x3e, 0x60, 0x3c, 0xa6, 0xa2, 0x27, 0x3e, 0x5c, 0xff, 0x5a, 0xbe, 
    0xf7, 0x24, 0xaa, 0xbe, 0x85, 0xe8, 0xae, 0xbe, 0x0e, 0x55, 0x6f, 0x3e, 
    0x25, 0x13, 0x99, 0x3e, 0xc9, 0x23, 0x95, 0x3e, 0x15, 0xb3, 0xb6, 0xbe, 
    0x71, 0xd1, 0x1b, 0xbe, 0xf3, 0xba, 0x43, 0xbe, 0x49, 0xe3, 0x9f, 0x3e, 
    0x67, 0xfe, 0x2d, 0xbe, 0xa2, 0x07, 0x1e, 0x3e, 0xd5, 0x28, 0x92, 0xbe, 
    0x28, 0xce, 0x31, 0x3d, 0x5d, 0x06, 0x49, 0x3e, 0x0b, 0x54, 0x0c, 0x3e, 
    0xc7, 0xf4, 0x31, 0x3d, 0xdc, 0x07, 0x50, 0xbe, 0x83, 0x20, 0xa7, 0x3e, 
    0xbe, 0x78, 0xbb, 0xbe, 0x7a, 0xec, 0xc1, 0xbd, 0x30, 0x76, 0xd5, 0x3d, 
    0xc0, 0xd2, 0xb0, 0xbb, 0xdf, 0xa4, 0x20, 0x3e, 0xff, 0xab, 0xa9, 0x3e, 
    0x54, 0x2f, 0x9d, 0xbd, 0x59, 0xf5, 0x9d, 0x3e, 0x76, 0xb6, 0x41, 0x3e, 
    0x69, 0xb6, 0xaf, 0x3e, 0x8f, 0x4b, 0x9a, 0xbe, 0xb2, 0x7e, 0x49, 0x3e, 
    0x9a, 0xcb, 0x46, 0xbe, 0x71, 0xca, 0x5d, 0xbe, 0x22, 0xf7, 0x24, 0x3e, 
    0xc0, 0x9b, 0x7e, 0xbc, 0xd0, 0x32, 0xd1, 0x3d, 0x62, 0xf4, 0x47, 0x3e, 
    0x34, 0x40, 0xe9, 0xbd, 0xe1, 0xf2, 0x61, 0xbe, 0xb5, 0x1b, 0x4f, 0xbe, 
    0x44, 0x52, 0x9f, 0xbd, 0xd4, 0x4a, 0xd5, 0xbd, 0xb4, 0xae, 0x81, 0x3d, 
    0x97, 0xb5, 0xa7, 0x3e, 0xbb, 0xa4, 0x85, 0xbe, 0x40, 0xa3, 0x03, 0x3e, 
    0xf5, 0x74, 0x14, 0xbe, 0x34, 0xc0, 0x86, 0xbd, 0xaa, 0x98, 0x3a, 0xbe, 
    0x04, 0x32, 0xa5, 0xbd, 0xe3, 0x98, 0xb3, 0x3e, 0x9b, 0xac, 0x90, 0xbe, 
    0x3e, 0x29, 0x09, 0x3e, 0x53, 0x2f, 0x91, 0x3e, 0xa8, 0x18, 0xd2, 0xbd, 
    0x78, 0x34, 0x72, 0xbe, 0x9f, 0xc9, 0x96, 0x3e, 0xb3, 0x5f, 0x8a, 0x3e, 
    0x0b, 0xfd, 0x5e, 0xbe, 0x14, 0x64, 0xb6, 0xbd, 0x0a, 0x83, 0x74, 0x3e, 
    0xa5, 0xfb, 0x03, 0xbe, 0xa0, 0x80, 0xdb, 0x3d, 0xa0, 0x1c, 0x87, 0xbe, 
    0x18, 0xc7, 0x09, 0xbe, 0x41, 0xe8, 0xa5, 0xbe, 0x2c, 0xb9, 0x8e, 0x3d, 
    0x22, 0x2b, 0x38, 0x3e, 0x32, 0x46, 0x97, 0x3e, 0x18, 0x46, 0x96, 0x3d, 
    0x6f, 0xb2, 0x6b, 0xbd, 0x46, 0x5a, 0x76, 0x3e, 0xe6, 0xd2, 0x68, 0x3d, 
    0x60, 0xe3, 0xaa, 0x3d, 0x47, 0x25, 0x12, 0xbe, 0x40, 0x5f, 0x92, 0xbe, 
    0xf4, 0xe6, 0x88, 0xbe, 0x02, 0x90, 0x73, 0x3e, 0x81, 0x9d, 0x2a, 0x3e, 
    0x09, 0xe2, 0x70, 0x3e, 0xc6, 0xfe, 0xf9, 0x3d, 0xd7, 0xd8, 0xa4, 0x3e, 
    0x7f, 0x8b, 0x93, 0x3e, 0x11, 0x1e, 0x93, 0xbe, 0xac, 0x7d, 0x82, 0xbe, 
    0x98, 0x5d, 0x51, 0xbe, 0xe3, 0x63, 0x44, 0xbe, 0xda, 0xae, 0x6a, 0x3e, 
    0x68, 0xf6, 0x62, 0x3e, 0x54, 0x57, 0xd7, 0xbd, 0xc4, 0x0c, 0x72, 0x3e, 
    0x01, 0x06, 0x60, 0xbe, 0xfa, 0xe0, 0x17, 0x3e, 0xc2, 0xd3, 0x1e, 0xbe, 
    0x10, 0x87, 0x1b, 0x3d, 0x5a, 0xd4, 0xb9, 0xbe, 0x4e, 0xf1, 0xa3, 0x3e, 
    0x30, 0x4e, 0x5e, 0xbe, 0xfd, 0xd0, 0xa1, 0xbe, 0xf3, 0x8e, 0x45, 0xbe, 
    0xfc, 0xff, 0xef, 0xbd, 0xbd, 0x7f, 0xa0, 0xbe, 0x93, 0x08, 0x7e, 0x3e, 
    0xc6, 0xc9, 0x94, 0xbe, 0x66, 0x98, 0x65, 0xbd, 0xe8, 0x91, 0x1f, 0xbd, 
    0x1b, 0x1e, 0x75, 0x3e, 0x92, 0xfa, 0x61, 0x3e, 0x3f, 0x0a, 0x84, 0x3e, 
    0xa0, 0x5f, 0x4f, 0x3d, 0xe0, 0xaf, 0x3e, 0xbe, 0x65, 0x39, 0x27, 0xbe, 
    0x15, 0xb6, 0x62, 0x3e, 0xe6, 0x6c, 0x84, 0x3e, 0xc3, 0xad, 0x11, 0x3d, 
    0x1e, 0x12, 0xf4, 0x3d, 0x6b, 0x29, 0xb3, 0xbe, 0xb3, 0x48, 0x22, 0x3d, 
    0x41, 0x8a, 0xb4, 0xbe, 0x01, 0x5f, 0x9d, 0x3e, 0x46, 0x8d, 0x9d, 0x3e, 
    0xb5, 0x8f, 0xb3, 0x3e, 0x9d, 0x02, 0x0a, 0x3d, 0x58, 0x96, 0x85, 0xbe, 
    0x09, 0x29, 0x4e, 0xbe, 0xa2, 0xd0, 0x59, 0xbe, 0xc2, 0x7c, 0x3a, 0x3e, 
    0xef, 0xa3, 0x12, 0x3e, 0x25, 0x86, 0xee, 0x3d, 0x64, 0x06, 0xa9, 0xbe, 
    0x0c, 0x23, 0xb0, 0xbd, 0x47, 0xc2, 0x9b, 0x3e, 0xf3, 0x26, 0x6e, 0x3d, 
    0x40, 0x2d, 0x23, 0xbd, 0x60, 0x48, 0x2b, 0x3e, 0x80, 0xda, 0x0e, 0x3d, 
    0x75, 0x75, 0x86, 0x3d, 0x25, 0xb3, 0x97, 0xbe, 0xa9, 0x58, 0x30, 0x3e, 
    0x67, 0x95, 0x93, 0xbe, 0xd5, 0x59, 0x2b, 0xbe, 0x41, 0x42, 0xb3, 0x3e, 
    0x48, 0x5b, 0x0c, 0xbe, 0xd2, 0xb1, 0x86, 0xbe, 0x60, 0xdd, 0xaa, 0xbe, 
    0x51, 0xc5, 0x96, 0xbe, 0x97, 0x4e, 0x29, 0x3e, 0x0b, 0x48, 0x5e, 0x3e, 
    0xcc, 0xd8, 0x12, 0xbe, 0x26, 0x31, 0x3a, 0xbe, 0x8f, 0xa1, 0x81, 0x3e, 
    0xd6, 0x1e, 0x38, 0x3e, 0x8e, 0x47, 0x45, 0xbe, 0x7a, 0x3a, 0x33, 0x3e, 
    0x24, 0xa4, 0x98, 0xbd, 0x00, 0x10, 0x8c, 0x3a, 0x43, 0xff, 0xa5, 0xbe, 
    0xd5, 0xaa, 0xae, 0x3e, 0x55, 0x0d, 0x98, 0xbe, 0x92, 0xc3, 0x8d, 0xbe, 
    0xff, 0xa3, 0x3f, 0xbe, 0x1d, 0x33, 0x28, 0xbe, 0x69, 0x31, 0x82, 0x3e, 
    0x68, 0x4e, 0x89, 0xbd, 0x83, 0x75, 0x86, 0x3e, 0xda, 0x8c, 0x7b, 0x3e, 
    0xd1, 0xaa, 0x1f, 0xbe, 0xf4, 0xe5, 0xab, 0xbd, 0x21, 0xde, 0x87, 0x3e, 
    0x08, 0xa8, 0xb0, 0xbe, 0xfe, 0xdd, 0x16, 0x3e, 0xbe, 0x42, 0x76, 0xbe, 
    0x90, 0x46, 0x27, 0x3d, 0xfa, 0xa5, 0x2b, 0x3e, 0xc4, 0x6e, 0x99, 0xbd, 
    0xed, 0x56, 0x89, 0x3e, 0x6b, 0x49, 0x93, 0x3e, 0xd1, 0x99, 0xaf, 0x3e, 
    0x24, 0x34, 0xb2, 0xbd, 0xc6, 0x54, 0x66, 0x3e, 0x2d, 0xe1, 0x4d, 0xbe, 
    0x28, 0xa8, 0x64, 0xbe, 0xf2, 0x66, 0x33, 0x3e, 0x2c, 0xe1, 0xae, 0xbe, 
    0x67, 0x4b, 0xf5, 0xbe, 0x4a, 0xd4, 0x8f, 0xbe, 0xd1, 0x13, 0xc2, 0x3e, 
    0x44, 0x15, 0xa8, 0x3d, 0x90, 0xea, 0x9d, 0xbc, 0x58, 0x3c, 0xda, 0x3d, 
    0x52, 0x29, 0x38, 0x3e, 0xc4, 0x07, 0xf1, 0x3e, 0x81, 0x25, 0xca, 0xbd, 
    0x35, 0xf9, 0x97, 0x3e, 0x1c, 0x12, 0x3f, 0xbe, 0x16, 0xa9, 0x74, 0x3e, 
    0xfb, 0xdd, 0x3e, 0x3e, 0xa2, 0x05, 0xfc, 0x3d, 0xf6, 0x6e, 0x89, 0xbe, 
    0xe0, 0x0d, 0xad, 0xbe, 0x18, 0xf7, 0x94, 0xbe, 0x8a, 0x50, 0x2c, 0x3e, 
    0x49, 0x1e, 0xf9, 0x3d, 0x04, 0x41, 0x6f, 0xbe, 0x7c, 0x4e, 0x92, 0xbe, 
    0x32, 0x08, 0x14, 0xbe, 0xf0, 0x21, 0x78, 0x3d, 0x4d, 0xff, 0x73, 0xbe, 
    0x30, 0x51, 0x39, 0x3e, 0x72, 0x83, 0xb7, 0x3e, 0x46, 0xcc, 0x00, 0xbd, 
    0x13, 0x82, 0xba, 0x3e, 0x21, 0xc4, 0x2b, 0x3e, 0x85, 0x7d, 0x8d, 0x3d, 
    0x38, 0x58, 0x4b, 0x3d, 0xed, 0xbd, 0xa7, 0x3e, 0xff, 0x3d, 0xf5, 0x3e, 
    0x88, 0x88, 0xa1, 0x3d, 0xc1, 0xbf, 0x0a, 0xbe, 0x9e, 0xf4, 0x6f, 0xbe, 
    0xaa, 0x12, 0x50, 0x3e, 0x67, 0x70, 0xf0, 0xbc, 0x80, 0x57, 0xf9, 0xbd, 
    0xce, 0xc4, 0x2b, 0xbd, 0x23, 0x30, 0xa3, 0x3e, 0x26, 0x34, 0xc7, 0x3c, 
    0x0a, 0x38, 0x02, 0xbe, 0x44, 0x3f, 0x9a, 0x3d, 0x13, 0xc7, 0x6a, 0x3d, 
    0x86, 0x3a, 0xed, 0xbd, 0xdf, 0xa0, 0x3b, 0x3e, 0x68, 0xae, 0x92, 0xbe, 
    0x19, 0x0e, 0xdc, 0x39, 0x6f, 0x7b, 0x8b, 0x3e, 0x75, 0x61, 0xb3, 0x3e, 
    0x31, 0x6f, 0x34, 0xbe, 0xcc, 0xa7, 0xfe, 0xbd, 0xfe, 0xba, 0x39, 0x3e, 
    0xbc, 0x3f, 0x26, 0x3e, 0x69, 0xce, 0x75, 0xbe, 0xbc, 0xc6, 0x92, 0xbe, 
    0x5a, 0x78, 0x49, 0xbe, 0x8e, 0xf6, 0x8f, 0xbe, 0x54, 0x00, 0x91, 0xbe, 
    0x94, 0x6f, 0x19, 0x3d, 0xb9, 0xfd, 0x7d, 0x3e, 0xd0, 0x0c, 0xab, 0x3c, 
    0x98, 0xff, 0x80, 0xbd, 0x29, 0xb1, 0x2b, 0xbe, 0xc0, 0x6a, 0x9d, 0x3b, 
    0x89, 0xa3, 0x36, 0xbe, 0xc4, 0xcd, 0x9b, 0xbd, 0x5e, 0x75, 0x16, 0x3e, 
    0x86, 0x8b, 0x16, 0x3e, 0x8d, 0xcf, 0x60, 0xbe, 0x16, 0x61, 0x3f, 0xbe, 
    0x5b, 0x95, 0xa1, 0x3e, 0x10, 0xea, 0xc2, 0x3c, 0x58, 0x21, 0x3b, 0x3d, 
    0x97, 0x59, 0xa9, 0xbe, 0x57, 0x2d, 0x3a, 0xbe, 0xff, 0x4e, 0x0b, 0xbe, 
    0x1d, 0x8a, 0x77, 0xbe, 0xf2, 0xd3, 0x49, 0x3e, 0x20, 0xef, 0x23, 0xbc, 
    0x96, 0x94, 0x84, 0xbe, 0x0d, 0x6c, 0x98, 0xbe, 0xc8, 0xf0, 0x3b, 0x3d, 
    0x2c, 0x33, 0xad, 0x3d, 0xe6, 0xc3, 0x2b, 0xbe, 0xc0, 0xb1, 0x8e, 0x3b, 
    0xc0, 0xd9, 0xda, 0xbd, 0x78, 0xb1, 0xa2, 0x3d, 0x1e, 0x04, 0x77, 0x3e, 
    0x20, 0x08, 0x89, 0xbc, 0x00, 0x1d, 0xdb, 0xba, 0x6d, 0x5c, 0x19, 0xbe, 
    0xdd, 0xe6, 0xb0, 0xbe, 0xc2, 0x2d, 0x32, 0x3e, 0x1e, 0x08, 0x4d, 0x3e, 
    0xf3, 0x2f, 0x6c, 0xbd, 0x43, 0x73, 0x86, 0xbe, 0xf6, 0x40, 0x78, 0x3e, 
    0xe8, 0x02, 0x02, 0xbd, 0x30, 0x37, 0x00, 0xbd, 0x9f, 0x32, 0x8f, 0x3e, 
    0xef, 0x94, 0x1c, 0xbe, 0xc8, 0x84, 0x4a, 0xbe, 0x27, 0xe2, 0x94, 0xbe, 
    0x8b, 0xb8, 0xf3, 0xbc, 0xde, 0xde, 0x18, 0x3e, 0x70, 0xa3, 0x7f, 0xbd, 
    0x86, 0xa0, 0xb8, 0x3d, 0x61, 0xfd, 0x67, 0xbe, 0xb1, 0x49, 0xc1, 0x3d, 
    0x4e, 0xb6, 0x01, 0x3e, 0x56, 0x7f, 0x13, 0x3c, 0xb8, 0x72, 0x8d, 0xbe, 
    0x55, 0xb4, 0x77, 0x3d, 0x0a, 0x7c, 0x54, 0xbd, 0xbf, 0xf2, 0x8b, 0x3e, 
    0x36, 0xb6, 0x42, 0x3e, 0x21, 0x71, 0x10, 0xbe, 0x4a, 0xe5, 0xfc, 0x3e, 
    0xcd, 0x19, 0x5c, 0xbe, 0xb6, 0x8a, 0xdb, 0x3d, 0x61, 0x13, 0xc3, 0x3e, 
    0x90, 0x3a, 0xd4, 0x3e, 0xe4, 0xe1, 0xb4, 0x3e, 0x9a, 0xa4, 0xb0, 0x3e, 
    0x86, 0xfb, 0x4c, 0x3e, 0x73, 0x30, 0x10, 0x3e, 0xf6, 0xfc, 0xff, 0xff, 
    0x04, 0x00, 0x00, 0x00, 0x80, 0x01, 0x00, 0x00, 0xcf, 0x83, 0xfb, 0x3e, 
    0xf0, 0x73, 0xa6, 0x3e, 0x15, 0x43, 0xaf, 0xbe, 0xea, 0xe2, 0x6b, 0xbe, 
    0xa0, 0xa4, 0x29, 0x3c, 0x73, 0x9a, 0x6a, 0xbe, 0xa4, 0x1d, 0x39, 0x3e, 
    0xf0, 0xd6, 0xc1, 0xbc, 0xa9, 0xbb, 0x9c, 0x3e, 0xbd, 0xb4, 0xa3, 0xbe, 
    0xe5, 0x3e, 0xd3, 0xbe, 0x6a, 0x99, 0xa8, 0xbe, 0xbc, 0xc6, 0x8a, 0xbe, 
    0x12, 0xb7, 0xb1, 0xbe, 0x8b, 0x59, 0x8e, 0xbe, 0x61, 0x51, 0xb8, 0xbe, 
    0xaa, 0x35, 0x88, 0xbd, 0x7a, 0x24, 0xf3, 0x3e, 0xec, 0x35, 0x9a, 0xbd, 
    0x10, 0xe8, 0x90, 0x3c, 0xd5, 0xf2, 0x47, 0xbe, 0x30, 0x5c, 0x57, 0xbe, 
    0x6f, 0x62, 0x3d, 0xbd, 0xd3, 0x0f, 0xe9, 0x3e, 0xa6, 0x59, 0xb6, 0x3e, 
    0xe9, 0x8c, 0x0b, 0x3e, 0xc8, 0xf3, 0x78, 0x3e, 0xb4, 0x95, 0x2a, 0x3e, 
    0xfc, 0xa4, 0x4e, 0xbe, 0xa4, 0xc8, 0x0c, 0x3e, 0x2a, 0x89, 0xb8, 0xbe, 
    0xa6, 0x88, 0x4b, 0x3e, 0x30, 0x99, 0x42, 0xbe, 0x32, 0xad, 0x0c, 0xbe, 
    0x00, 0x2b, 0x31, 0xbd, 0xc3, 0x97, 0x34, 0xbe, 0xe3, 0xc6, 0x00, 0x3d, 
    0x7b, 0xf1, 0x94, 0x3e, 0x1a, 0x77, 0x7f, 0x3d, 0x1a, 0x6f, 0x49, 0x3e, 
    0xe2, 0x98, 0x40, 0x3e, 0xeb, 0x40, 0x42, 0x3e, 0xf6, 0x77, 0xcf, 0x3e, 
    0x4b, 0xef, 0x94, 0x3e, 0x81, 0x9a, 0x91, 0xbe, 0x8c, 0xeb, 0xcd, 0xbd, 
    0xba, 0xf2, 0x63, 0x3e, 0x9c, 0x16, 0xf9, 0xbd, 0x85, 0x05, 0x96, 0x3d, 
    0x10, 0x1c, 0x27, 0x3e, 0x46, 0xbd, 0x70, 0x3e, 0xb0, 0x71, 0xea, 0xbc, 
    0xa0, 0xc3, 0x01, 0xbc, 0x35, 0x5c, 0xa2, 0xbe, 0x02, 0x36, 0x53, 0x3e, 
    0x95, 0x74, 0x60, 0x3e, 0x2d, 0xc5, 0x49, 0xbe, 0x14, 0x4d, 0x96, 0x3e, 
    0x94, 0x6e, 0x94, 0xbe, 0xba, 0x8e, 0x44, 0x3e, 0x2a, 0x5b, 0x43, 0x3e, 
    0x40, 0xa5, 0xac, 0x3c, 0x17, 0x2d, 0xcc, 0xbe, 0x0a, 0x7c, 0x7b, 0xbe, 
    0xce, 0xd5, 0x64, 0x3e, 0x85, 0x0a, 0xaf, 0xbe, 0x47, 0xf3, 0xb4, 0x3e, 
    0x1f, 0x3e, 0xc1, 0xbc, 0xb9, 0x0c, 0x8c, 0xbe, 0x54, 0x1f, 0x98, 0x3e, 
    0x5e, 0x08, 0xb8, 0xbe, 0x2b, 0x95, 0x90, 0x3e, 0xff, 0x99, 0x7e, 0x3d, 
    0x46, 0xae, 0xd4, 0x3c, 0xd6, 0xb2, 0xfa, 0x3e, 0xc8, 0x0f, 0xf3, 0x3d, 
    0x2b, 0xec, 0x05, 0x3d, 0x46, 0x63, 0x89, 0x3e, 0x8a, 0xe8, 0xef, 0x3e, 
    0x5f, 0xc8, 0xd4, 0xbe, 0x33, 0xc3, 0x99, 0x3e, 0x50, 0xa3, 0x3a, 0x3e, 
    0x4f, 0xec, 0x84, 0xbe, 0xc3, 0x68, 0xe3, 0x3e, 0xbf, 0x1e, 0xfc, 0x3d, 
    0xe7, 0x8a, 0xa9, 0x3e, 0x76, 0x4f, 0xb9, 0x3e, 0xc9, 0x9e, 0xae, 0x3e, 
    0x18, 0xcf, 0x2c, 0x3e, 0x3b, 0x61, 0xee, 0x3b, 0xe8, 0x1e, 0xae, 0xbd, 
    0x6a, 0x5a, 0x5f, 0x3e, 0xdb, 0xeb, 0x7b, 0xbe, 0x48, 0x75, 0x80, 0x3e, 
    0x9b, 0xab, 0x9d, 0x3e, 0xb3, 0x43, 0xe2, 0x3e, 0x82, 0xfe, 0xff, 0xff, 
    0x04, 0x00, 0x00, 0x00, 0x80, 0x00, 0x00, 0x00, 0x5f, 0x3f, 0x85, 0x3d, 
    0x00, 0x00, 0x00, 0x00, 0xda, 0x92, 0x8d, 0xbd, 0x00, 0x00, 0x00, 0x00, 
    0x00, 0x00, 0x00, 0x00, 0xd7, 0x48, 0xb2, 0xbc, 0x00, 0x00, 0x00, 0x00, 
    0x81, 0xc0, 0x38, 0xbd, 0xb4, 0xea, 0x55, 0x3d, 0xec, 0xf2, 0x27, 0xbd, 
    0x00, 0x00, 0x00, 0x00, 0x00, 0x00, 0x00, 0x00, 0x1e, 0x0a, 0xb3, 0xbd, 
    0x79, 0x4f, 0xb3, 0xbd, 0x5d, 0xad, 0x19, 0x3d, 0x00, 0x00, 0x00, 0x00, 
    0x53, 0x87, 0x1c, 0x3d, 0x00, 0x00, 0x00, 0x00, 0x36, 0x81, 0x7b, 0x3d, 
    0xc2, 0x75, 0x83, 0xbd, 0x00, 0x00, 0x00, 0x00, 0x00, 0x00, 0x00, 0x00, 
    0x92, 0x09, 0xc5, 0xbc, 0x64, 0xac, 0xa2, 0xbd, 0x47, 0x6f, 0x80, 0xbd, 
    0xd9, 0x86, 0x8e, 0xbd, 0xfc, 0x56, 0xb0, 0xbd, 0x23, 0x44, 0x35, 0xbd, 
    0x35, 0x15, 0xd6, 0xbc, 0x4e, 0x6b, 0x00, 0x3d, 0x00, 0x00, 0x00, 0x00, 
    0x2f, 0x4e, 0xb4, 0xbd, 0x0e, 0xff, 0xff, 0xff, 0x04, 0x00, 0x00, 0x00, 
    0x40, 0x00, 0x00, 0x00, 0x5b, 0x32, 0xdf, 0xbc, 0x6f, 0x85, 0x68, 0x3c, 
    0x00, 0x00, 0x00, 0x00, 0x00, 0x00, 0x00, 0x00, 0x8e, 0x97, 0x04, 0x3d, 
    0x0d, 0xc1, 0x3d, 0xbd, 0xbb, 0x1e, 0xa4, 0xbc, 0x00, 0x00, 0x00, 0x00, 
    0x52, 0xff, 0xe8, 0xbc, 0xcc, 0x81, 0x86, 0x3c, 0xf5, 0x1c, 0xe3, 0x3c, 
    0x00, 0x00, 0x00, 0x00, 0x61, 0x37, 0x3c, 0xbd, 0xf9, 0x1a, 0x65, 0x3d, 
    0x00, 0x00, 0x00, 0x00, 0xb3, 0xba, 0x14, 0xbd, 0x5a, 0xff, 0xff, 0xff, 
    0x04, 0x00, 0x00, 0x00, 0x0c, 0x00, 0x00, 0x00, 0xd6, 0x25, 0x68, 0xbc, 
    0xda, 0x14, 0x12, 0xbd, 0x64, 0x83, 0x5c, 0xbb, 0x72, 0xff, 0xff, 0xff, 
    0x04, 0x00, 0x00, 0x00, 0x80, 0x00, 0x00, 0x00, 0x4c, 0x7a, 0x8f, 0x3c, 
    0xb1, 0xb3, 0x96, 0xbb, 0x3d, 0xc7, 0x47, 0xbd, 0xaa, 0xfc, 0x78, 0xbd, 
    0x7a, 0x86, 0x5b, 0xbd, 0x00, 0x00, 0x00, 0x00, 0xee, 0xa6, 0xb9, 0xbb, 
    0xdf, 0x58, 0x4f, 0x3b, 0x93, 0xca, 0xb5, 0xbb, 0x00, 0x00, 0x00, 0x00, 
    0x41, 0x4c, 0x5a, 0xbd, 0xf4, 0x00, 0xc8, 0xba, 0x84, 0x56, 0x9d, 0xba, 
    0x00, 0x00, 0x00, 0x00, 0x08, 0xd6, 0x65, 0x3a, 0xba, 0xba, 0x53, 0x3d, 
    0x20, 0x94, 0xb8, 0x3c, 0x37, 0x97, 0x08, 0xbb, 0x00, 0x00, 0x00, 0x00, 
    0x17, 0x1d, 0x07, 0xbd, 0xbb, 0xf4, 0x6a, 0xbc, 0x3e, 0x28, 0xb3, 0x3c, 
    0x00, 0x00, 0x00, 0x00, 0x36, 0x8a, 0x27, 0xbc, 0x11, 0xc3, 0x7e, 0xbc, 
    0xa8, 0xb8, 0x41, 0x3b, 0x00, 0x00, 0x00, 0x00, 0x00, 0x00, 0x00, 0x00, 
    0x29, 0x39, 0x46, 0x3d, 0x2e, 0x51, 0x3d, 0xbc, 0x0b, 0xc0, 0x0f, 0xbd, 
    0x00, 0x00, 0x00, 0x00, 0x00, 0x00, 0x06, 0x00, 0x08, 0x00, 0x04, 0x00, 
    0x06, 0x00, 0x00, 0x00, 0x04, 0x00, 0x00, 0x00, 0x40, 0x00, 0x00, 0x00, 
    0x2d, 0x42, 0x64, 0xbc, 0x6a, 0xaa, 0x9b, 0xbd, 0x2c, 0x7c, 0xb1, 0x3c, 
    0x00, 0x00, 0x00, 0x00, 0x40, 0xe3, 0xdc, 0xbc, 0x0f, 0x07, 0xaf, 0x3c, 
    0xb5, 0xd1, 0x96, 0xbd, 0x00, 0x00, 0x00, 0x00, 0x52, 0x8e, 0x97, 0xbc, 
    0x00, 0x00, 0x00, 0x00, 0xb5, 0x04, 0xd3, 0xbc, 0x01, 0x54, 0x8a, 0x3c, 
    0xf7, 0xcd, 0x11, 0xbd, 0x00, 0x00, 0x00, 0x00, 0xc5, 0x2b, 0x00, 0xbd, 
    0x00, 0x00, 0x00, 0x00, 0x74, 0xf6, 0xff, 0xff, 0x78, 0xf6, 0xff, 0xff, 
    0x0f, 0x00, 0x00, 0x00, 0x4d, 0x4c, 0x49, 0x52, 0x20, 0x43, 0x6f, 0x6e, 
    0x76, 0x65, 0x72, 0x74, 0x65, 0x64, 0x2e, 0x00, 0x01, 0x00, 0x00, 0x00, 
    0x14, 0x00, 0x00, 0x00, 0x00, 0x00, 0x0e, 0x00, 0x18, 0x00, 0x14, 0x00, 
    0x10, 0x00, 0x0c, 0x00, 0x08, 0x00, 0x04, 0x00, 0x0e, 0x00, 0x00, 0x00, 
    0x14, 0x00, 0x00, 0x00, 0x1c, 0x00, 0x00, 0x00, 0x78, 0x01, 0x00, 0x00, 
    0x7c, 0x01, 0x00, 0x00, 0x80, 0x01, 0x00, 0x00, 0x04, 0x00, 0x00, 0x00, 
    0x6d, 0x61, 0x69, 0x6e, 0x00, 0x00, 0x00, 0x00, 0x06, 0x00, 0x00, 0x00, 
    0x20, 0x01, 0x00, 0x00, 0xd8, 0x00, 0x00, 0x00, 0xa0, 0x00, 0x00, 0x00, 
    0x68, 0x00, 0x00, 0x00, 0x34, 0x00, 0x00, 0x00, 0x10, 0x00, 0x00, 0x00, 
    0x00, 0x00, 0x0a, 0x00, 0x10, 0x00, 0x0c, 0x00, 0x08, 0x00, 0x04, 0x00, 
    0x0a, 0x00, 0x00, 0x00, 0x0c, 0x00, 0x00, 0x00, 0x10, 0x00, 0x00, 0x00, 
    0x01, 0x00, 0x00, 0x00, 0x01, 0x00, 0x00, 0x00, 0x10, 0x00, 0x00, 0x00, 
    0x01, 0x00, 0x00, 0x00, 0x0f, 0x00, 0x00, 0x00, 0x32, 0xff, 0xff, 0xff, 
    0x10, 0x00, 0x00, 0x00, 0x00, 0x00, 0x00, 0x08, 0x0c, 0x00, 0x00, 0x00, 
    0x10, 0x00, 0x00, 0x00, 0x28, 0xf7, 0xff, 0xff, 0x01, 0x00, 0x00, 0x00, 
    0x0f, 0x00, 0x00, 0x00, 0x03, 0x00, 0x00, 0x00, 0x0e, 0x00, 0x00, 0x00, 
    0x0a, 0x00, 0x00, 0x00, 0x03, 0x00, 0x00, 0x00, 0x62, 0xff, 0xff, 0xff, 
    0x10, 0x00, 0x00, 0x00, 0x00, 0x00, 0x00, 0x08, 0x10, 0x00, 0x00, 0x00, 
    0x14, 0x00, 0x00, 0x00, 0x52, 0xff, 0xff, 0xff, 0x00, 0x00, 0x00, 0x01, 
    0x01, 0x00, 0x00, 0x00, 0x0e, 0x00, 0x00, 0x00, 0x03, 0x00, 0x00, 0x00, 
    0x0d, 0x00, 0x00, 0x00, 0x09, 0x00, 0x00, 0x00, 0x02, 0x00, 0x00, 0x00, 
    0x96, 0xff, 0xff, 0xff, 0x10, 0x00, 0x00, 0x00, 0x00, 0x00, 0x00, 0x08, 
    0x10, 0x00, 0x00, 0x00, 0x14, 0x00, 0x00, 0x00, 0x86, 0xff, 0xff, 0xff, 
    0x00, 0x00, 0x00, 0x01, 0x01, 0x00, 0x00, 0x00, 0x0d, 0x00, 0x00, 0x00, 
    0x03, 0x00, 0x00, 0x00, 0x0c, 0x00, 0x00, 0x00, 0x08, 0x00, 0x00, 0x00, 
    0x01, 0x00, 0x00, 0x00, 0xca, 0xff, 0xff, 0xff, 0x10, 0x00, 0x00, 0x00, 
    0x00, 0x00, 0x00, 0x08, 0x10, 0x00, 0x00, 0x00, 0x14, 0x00, 0x00, 0x00, 
    0xba, 0xff, 0xff, 0xff, 0x00, 0x00, 0x00, 0x01, 0x01, 0x00, 0x00, 0x00, 
    0x0c, 0x00, 0x00, 0x00, 0x03, 0x00, 0x00, 0x00, 0x0b, 0x00, 0x00, 0x00, 
    0x07, 0x00, 0x00, 0x00, 0x04, 0x00, 0x00, 0x00, 0x00, 0x00, 0x0e, 0x00, 
    0x16, 0x00, 0x00, 0x00, 0x10, 0x00, 0x0c, 0x00, 0x0b, 0x00, 0x04, 0x00, 
    0x0e, 0x00, 0x00, 0x00, 0x18, 0x00, 0x00, 0x00, 0x00, 0x00, 0x00, 0x08, 
    0x18, 0x00, 0x00, 0x00, 0x1c, 0x00, 0x00, 0x00, 0x00, 0x00, 0x06, 0x00, 
    0x08, 0x00, 0x07, 0x00, 0x06, 0x00, 0x00, 0x00, 0x00, 0x00, 0x00, 0x01, 
    0x01, 0x00, 0x00, 0x00, 0x0b, 0x00, 0x00, 0x00, 0x03, 0x00, 0x00, 0x00, 
    0x00, 0x00, 0x00, 0x00, 0x06, 0x00, 0x00, 0x00, 0x05, 0x00, 0x00, 0x00, 
    0x01, 0x00, 0x00, 0x00, 0x10, 0x00, 0x00, 0x00, 0x01, 0x00, 0x00, 0x00, 
    0x00, 0x00, 0x00, 0x00, 0x11, 0x00, 0x00, 0x00, 0x98, 0x07, 0x00, 0x00, 
    0x1c, 0x07, 0x00, 0x00, 0xa0, 0x06, 0x00, 0x00, 0x3c, 0x06, 0x00, 0x00, 
    0xd8, 0x05, 0x00, 0x00, 0x78, 0x05, 0x00, 0x00, 0x24, 0x05, 0x00, 0x00, 
    0xcc, 0x04, 0x00, 0x00, 0x74, 0x04, 0x00, 0x00, 0x1c, 0x04, 0x00, 0x00, 
    0xc4, 0x03, 0x00, 0x00, 0x18, 0x03, 0x00, 0x00, 0x64, 0x02, 0x00, 0x00, 
    0xac, 0x01, 0x00, 0x00, 0xf4, 0x00, 0x00, 0x00, 0x60, 0x00, 0x00, 0x00, 
    0x04, 0x00, 0x00, 0x00, 0xc2, 0xf8, 0xff, 0xff, 0x00, 0x00, 0x00, 0x01, 
    0x14, 0x00, 0x00, 0x00, 0x1c, 0x00, 0x00, 0x00, 0x1c, 0x00, 0x00, 0x00, 
    0x11, 0x00, 0x00, 0x00, 0x34, 0x00, 0x00, 0x00, 0x02, 0x00, 0x00, 0x00, 
    0xff, 0xff, 0xff, 0xff, 0x03, 0x00, 0x00, 0x00, 0xac, 0xf8, 0xff, 0xff, 
    0x19, 0x00, 0x00, 0x00, 0x53, 0x74, 0x61, 0x74, 0x65, 0x66, 0x75, 0x6c, 
    0x50, 0x61, 0x72, 0x74, 0x69, 0x74, 0x69, 0x6f, 0x6e, 0x65, 0x64, 0x43, 
    0x61, 0x6c, 0x6c, 0x3a, 0x30, 0x00, 0x00, 0x00, 0x02, 0x00, 0x00, 0x00, 
    0x01, 0x00, 0x00, 0x00, 0x03, 0x00, 0x00, 0x00, 0x1a, 0xf9, 0xff, 0xff, 
    0x00, 0x00, 0x00, 0x01, 0x14, 0x00, 0x00, 0x00, 0x1c, 0x00, 0x00, 0x00, 
    0x1c, 0x00, 0x00, 0x00, 0x10, 0x00, 0x00, 0x00, 0x6c, 0x00, 0x00, 0x00, 
    0x02, 0x00, 0x00, 0x00, 0xff, 0xff, 0xff, 0xff, 0x03, 0x00, 0x00, 0x00, 
    0x04, 0xf9, 0xff, 0xff, 0x50, 0x00, 0x00, 0x00, 0x61, 0x75, 0x74, 0x6f, 
    0x65, 0x6e, 0x63, 0x6f, 0x64, 0x65, 0x72, 0x2f, 0x73, 0x65, 0x71, 0x75, 
    0x65, 0x6e, 0x74, 0x69, 0x61, 0x6c, 0x5f, 0x31, 0x2f, 0x64, 0x65, 0x6e, 
    0x73, 0x65, 0x5f, 0x34, 0x2f, 0x4d, 0x61, 0x74, 0x4d, 0x75, 0x6c, 0x3b, 
    0x61, 0x75, 0x74, 0x6f, 0x65, 0x6e, 0x63, 0x6f, 0x64, 0x65, 0x72, 0x2f, 
    0x73, 0x65, 0x71, 0x75, 0x65, 0x6e, 0x74, 0x69, 0x61, 0x6c, 0x5f, 0x31, 
    0x2f, 0x64, 0x65, 0x6e, 0x73, 0x65, 0x5f, 0x34, 0x2f, 0x42, 0x69, 0x61, 
    0x73, 0x41, 0x64, 0x64, 0x00, 0x00, 0x00, 0x00, 0x02, 0x00, 0x00, 0x00, 
    0x01, 0x00, 0x00, 0x00, 0x03, 0x00, 0x00, 0x00, 0xaa, 0xf9, 0xff, 0xff, 
    0x00, 0x00, 0x00, 0x01, 0x14, 0x00, 0x00, 0x00, 0x1c, 0x00, 0x00, 0x00, 
    0x1c, 0x00, 0x00, 0x00, 0x0f, 0x00, 0x00, 0x00, 0x90, 0x00, 0x00, 0x00, 
    0x02, 0x00, 0x00, 0x00, 0xff, 0xff, 0xff, 0xff, 0x20, 0x00, 0x00, 0x00, 
    0x94, 0xf9, 0xff, 0xff, 0x76, 0x00, 0x00, 0x00, 0x61, 0x75, 0x74, 0x6f, 
    0x65, 0x6e, 0x63, 0x6f, 0x64, 0x65, 0x72, 0x2f, 0x73, 0x65, 0x71, 0x75, 
    0x65, 0x6e, 0x74, 0x69, 0x61, 0x6c, 0x5f, 0x31, 0x2f, 0x64, 0x65, 0x6e, 
    0x73, 0x65, 0x5f, 0x33, 0x2f, 0x4d, 0x61, 0x74, 0x4d, 0x75, 0x6c, 0x3b, 
    0x61, 0x75, 0x74, 0x6f, 0x65, 0x6e, 0x63, 0x6f, 0x64, 0x65, 0x72, 0x2f, 
    0x73, 0x65, 0x71, 0x75, 0x65, 0x6e, 0x74, 0x69, 0x61, 0x6c, 0x5f, 0x31, 
    0x2f, 0x64, 0x65, 0x6e, 0x73, 0x65, 0x5f, 0x33, 0x2f, 0x52, 0x65, 0x6c, 
    0x75, 0x3b, 0x61, 0x75, 0x74, 0x6f, 0x65, 0x6e, 0x63, 0x6f, 0x64, 0x65, 
    0x72, 0x2f, 0x73, 0x65, 0x71, 0x75, 0x65, 0x6e, 0x74, 0x69, 0x61, 0x6c, 
    0x5f, 0x31, 0x2f, 0x64, 0x65, 0x6e, 0x73, 0x65, 0x5f, 0x33, 0x2f, 0x42, 
    0x69, 0x61, 0x73, 0x41, 0x64, 0x64, 0x00, 0x00, 0x02, 0x00, 0x00, 0x00, 
    0x01, 0x00, 0x00, 0x00, 0x20, 0x00, 0x00, 0x00, 0x5e, 0xfa, 0xff, 0xff, 
    0x00, 0x00, 0x00, 0x01, 0x14, 0x00, 0x00, 0x00, 0x1c, 0x00, 0x00, 0x00, 
    0x1c, 0x00, 0x00, 0x00, 0x0e, 0x00, 0x00, 0x00, 0x90, 0x00, 0x00, 0x00, 
    0x02, 0x00, 0x00, 0x00, 0xff, 0xff, 0xff, 0xff, 0x10, 0x00, 0x00, 0x00, 
    0x48, 0xfa, 0xff, 0xff, 0x76, 0x00, 0x00, 0x00, 0x61, 0x75, 0x74, 0x6f, 
    0x65, 0x6e, 0x63, 0x6f, 0x64, 0x65, 0x72, 0x2f, 0x73, 0x65, 0x71, 0x75, 
    0x65, 0x6e, 0x74, 0x69, 0x61, 0x6c, 0x5f, 0x31, 0x2f, 0x64, 0x65, 0x6e, 
    0x73, 0x65, 0x5f, 0x32, 0x2f, 0x4d, 0x61, 0x74, 0x4d, 0x75, 0x6c, 0x3b, 
    0x61, 0x75, 0x74, 0x6f, 0x65, 0x6e, 0x63, 0x6f, 0x64, 0x65, 0x72, 0x2f, 
    0x73, 0x65, 0x71, 0x75, 0x65, 0x6e, 0x74, 0x69, 0x61, 0x6c, 0x5f, 0x31, 
    0x2f, 0x64, 0x65, 0x6e, 0x73, 0x65, 0x5f, 0x32, 0x2f, 0x52, 0x65, 0x6c, 
    0x75, 0x3b, 0x61, 0x75, 0x74, 0x6f, 0x65, 0x6e, 0x63, 0x6f, 0x64, 0x65, 
    0x72, 0x2f, 0x73, 0x65, 0x71, 0x75, 0x65, 0x6e, 0x74, 0x69, 0x61, 0x6c, 
    0x5f, 0x31, 0x2f, 0x64, 0x65, 0x6e, 0x73, 0x65, 0x5f, 0x32, 0x2f, 0x42, 
    0x69, 0x61, 0x73, 0x41, 0x64, 0x64, 0x00, 0x00, 0x02, 0x00, 0x00, 0x00, 
    0x01, 0x00, 0x00, 0x00, 0x10, 0x00, 0x00, 0x00, 0x12, 0xfb, 0xff, 0xff, 
    0x00, 0x00, 0x00, 0x01, 0x14, 0x00, 0x00, 0x00, 0x1c, 0x00, 0x00, 0x00, 
    0x1c, 0x00, 0x00, 0x00, 0x0d, 0x00, 0x00, 0x00, 0x8c, 0x00, 0x00, 0x00, 
    0x02, 0x00, 0x00, 0x00, 0xff, 0xff, 0xff, 0xff, 0x10, 0x00, 0x00, 0x00, 
    0xfc, 0xfa, 0xff, 0xff, 0x70, 0x00, 0x00, 0x00, 0x61, 0x75, 0x74, 0x6f, 
    0x65, 0x6e, 0x63, 0x6f, 0x64, 0x65, 0x72, 0x2f, 0x73, 0x65, 0x71, 0x75, 
    0x65, 0x6e, 0x74, 0x69, 0x61, 0x6c, 0x2f, 0x64, 0x65, 0x6e, 0x73, 0x65, 
    0x5f, 0x31, 0x2f, 0x4d, 0x61, 0x74, 0x4d, 0x75, 0x6c, 0x3b, 0x61, 0x75, 
    0x74, 0x6f, 0x65, 0x6e, 0x63, 0x6f, 0x64, 0x65, 0x72, 0x2f, 0x73, 0x65, 
    0x71, 0x75, 0x65, 0x6e, 0x74, 0x69, 0x61, 0x6c, 0x2f, 0x64, 0x65, 0x6e, 
    0x73, 0x65, 0x5f, 0x31, 0x2f, 0x52, 0x65, 0x6c, 0x75, 0x3b, 0x61, 0x75, 
    0x74, 0x6f, 0x65, 0x6e, 0x63, 0x6f, 0x64, 0x65, 0x72, 0x2f, 0x73, 0x65, 
    0x71, 0x75, 0x65, 0x6e, 0x74, 0x69, 0x61, 0x6c, 0x2f, 0x64, 0x65, 0x6e, 
    0x73, 0x65, 0x5f, 0x31, 0x2f, 0x42, 0x69, 0x61, 0x73, 0x41, 0x64, 0x64, 
    0x00, 0x00, 0x00, 0x00, 0x02, 0x00, 0x00, 0x00, 0x01, 0x00, 0x00, 0x00, 
    0x10, 0x00, 0x00, 0x00, 0xc2, 0xfb, 0xff, 0xff, 0x00, 0x00, 0x00, 0x01, 
    0x14, 0x00, 0x00, 0x00, 0x1c, 0x00, 0x00, 0x00, 0x1c, 0x00, 0x00, 0x00, 
    0x0c, 0x00, 0x00, 0x00, 0x84, 0x00, 0x00, 0x00, 0x02, 0x00, 0x00, 0x00, 
    0xff, 0xff, 0xff, 0xff, 0x20, 0x00, 0x00, 0x00, 0xac, 0xfb, 0xff, 0xff, 
    0x6a, 0x00, 0x00, 0x00, 0x61, 0x75, 0x74, 0x6f, 0x65, 0x6e, 0x63, 0x6f, 
    0x64, 0x65, 0x72, 0x2f, 0x73, 0x65, 0x71, 0x75, 0x65, 0x6e, 0x74, 0x69, 
    0x61, 0x6c, 0x2f, 0x64, 0x65, 0x6e, 0x73, 0x65, 0x2f, 0x4d, 0x61, 0x74, 
    0x4d, 0x75, 0x6c, 0x3b, 0x61, 0x75, 0x74, 0x6f, 0x65, 0x6e, 0x63, 0x6f, 
    0x64, 0x65, 0x72, 0x2f, 0x73, 0x65, 0x71, 0x75, 0x65, 0x6e, 0x74, 0x69, 
    0x61, 0x6c, 0x2f, 0x64, 0x65, 0x6e, 0x73, 0x65, 0x2f, 0x52, 0x65, 0x6c, 
    0x75, 0x3b, 0x61, 0x75, 0x74, 0x6f, 0x65, 0x6e, 0x63, 0x6f, 0x64, 0x65, 
    0x72, 0x2f, 0x73, 0x65, 0x71, 0x75, 0x65, 0x6e, 0x74, 0x69, 0x61, 0x6c, 
    0x2f, 0x64, 0x65, 0x6e, 0x73, 0x65, 0x2f, 0x42, 0x69, 0x61, 0x73, 0x41, 
    0x64, 0x64, 0x00, 0x00, 0x02, 0x00, 0x00, 0x00, 0x01, 0x00, 0x00, 0x00, 
    0x20, 0x00, 0x00, 0x00, 0xe2, 0xfc, 0xff, 0xff, 0x00, 0x00, 0x00, 0x01, 
    0x10, 0x00, 0x00, 0x00, 0x10, 0x00, 0x00, 0x00, 0x0b, 0x00, 0x00, 0x00, 
    0x34, 0x00, 0x00, 0x00, 0x44, 0xfc, 0xff, 0xff, 0x27, 0x00, 0x00, 0x00, 
    0x61, 0x75, 0x74, 0x6f, 0x65, 0x6e, 0x63, 0x6f, 0x64, 0x65, 0x72, 0x2f, 
    0x73, 0x65, 0x71, 0x75, 0x65, 0x6e, 0x74, 0x69, 0x61, 0x6c, 0x5f, 0x31, 
    0x2f, 0x64, 0x65, 0x6e, 0x73, 0x65, 0x5f, 0x34, 0x2f, 0x4d, 0x61, 0x74, 
    0x4d, 0x75, 0x6c, 0x00, 0x02, 0x00, 0x00, 0x00, 0x03, 0x00, 0x00, 0x00, 
    0x20, 0x00, 0x00, 0x00, 0x36, 0xfd, 0xff, 0xff, 0x00, 0x00, 0x00, 0x01, 
    0x10, 0x00, 0x00, 0x00, 0x10, 0x00, 0x00, 0x00, 0x0a, 0x00, 0x00, 0x00, 
    0x34, 0x00, 0x00, 0x00, 0x98, 0xfc, 0xff, 0xff, 0x27, 0x00, 0x00, 0x00, 
    0x61, 0x75, 0x74, 0x6f, 0x65, 0x6e, 0x63, 0x6f, 0x64, 0x65, 0x72, 0x2f, 
    0x73, 0x65, 0x71, 0x75, 0x65, 0x6e, 0x74, 0x69, 0x61, 0x6c, 0x5f, 0x31, 
    0x2f, 0x64, 0x65, 0x6e, 0x73, 0x65, 0x5f, 0x33, 0x2f, 0x4d, 0x61, 0x74, 
    0x4d, 0x75, 0x6c, 0x00, 0x02, 0x00, 0x00, 0x00, 0x20, 0x00, 0x00, 0x00, 
    0x10, 0x00, 0x00, 0x00, 0x8a, 0xfd, 0xff, 0xff, 0x00, 0x00, 0x00, 0x01, 
    0x10, 0x00, 0x00, 0x00, 0x10, 0x00, 0x00, 0x00, 0x09, 0x00, 0x00, 0x00, 
    0x34, 0x00, 0x00, 0x00, 0xec, 0xfc, 0xff, 0xff, 0x27, 0x00, 0x00, 0x00, 
    0x61, 0x75, 0x74, 0x6f, 0x65, 0x6e, 0x63, 0x6f, 0x64, 0x65, 0x72, 0x2f, 
    0x73, 0x65, 0x71, 0x75, 0x65, 0x6e, 0x74, 0x69, 0x61, 0x6c, 0x5f, 0x31, 
    0x2f, 0x64, 0x65, 0x6e, 0x73, 0x65, 0x5f, 0x32, 0x2f, 0x4d, 0x61, 0x74, 
    0x4d, 0x75, 0x6c, 0x00, 0x02, 0x00, 0x00, 0x00, 0x10, 0x00, 0x00, 0x00, 
    0x10, 0x00, 0x00, 0x00, 0xde, 0xfd, 0xff, 0xff, 0x00, 0x00, 0x00, 0x01, 
    0x10, 0x00, 0x00, 0x00, 0x10, 0x00, 0x00, 0x00, 0x08, 0x00, 0x00, 0x00, 
    0x34, 0x00, 0x00, 0x00, 0x40, 0xfd, 0xff, 0xff, 0x25, 0x00, 0x00, 0x00, 
    0x61, 0x75, 0x74, 0x6f, 0x65, 0x6e, 0x63, 0x6f, 0x64, 0x65, 0x72, 0x2f, 
    0x73, 0x65, 0x71, 0x75, 0x65, 0x6e, 0x74, 0x69, 0x61, 0x6c, 0x2f, 0x64, 
    0x65, 0x6e, 0x73, 0x65, 0x5f, 0x31, 0x2f, 0x4d, 0x61, 0x74, 0x4d, 0x75, 
    0x6c, 0x00, 0x00, 0x00, 0x02, 0x00, 0x00, 0x00, 0x10, 0x00, 0x00, 0x00, 
    0x20, 0x00, 0x00, 0x00, 0x32, 0xfe, 0xff, 0xff, 0x00, 0x00, 0x00, 0x01, 
    0x10, 0x00, 0x00, 0x00, 0x10, 0x00, 0x00, 0x00, 0x07, 0x00, 0x00, 0x00, 
    0x30, 0x00, 0x00, 0x00, 0x94, 0xfd, 0xff, 0xff, 0x23, 0x00, 0x00, 0x00, 
    0x61, 0x75, 0x74, 0x6f, 0x65, 0x6e, 0x63, 0x6f, 0x64, 0x65, 0x72, 0x2f, 
    0x73, 0x65, 0x71, 0x75, 0x65, 0x6e, 0x74, 0x69, 0x61, 0x6c, 0x2f, 0x64, 
    0x65, 0x6e, 0x73, 0x65, 0x2f, 0x4d, 0x61, 0x74, 0x4d, 0x75, 0x6c, 0x00, 
    0x02, 0x00, 0x00, 0x00, 0x20, 0x00, 0x00, 0x00, 0x03, 0x00, 0x00, 0x00, 
    0x82, 0xfe, 0xff, 0xff, 0x00, 0x00, 0x00, 0x01, 0x10, 0x00, 0x00, 0x00, 
    0x10, 0x00, 0x00, 0x00, 0x06, 0x00, 0x00, 0x00, 0x40, 0x00, 0x00, 0x00, 
    0xe4, 0xfd, 0xff, 0xff, 0x33, 0x00, 0x00, 0x00, 0x61, 0x75, 0x74, 0x6f, 
    0x65, 0x6e, 0x63, 0x6f, 0x64, 0x65, 0x72, 0x2f, 0x73, 0x65, 0x71, 0x75, 
    0x65, 0x6e, 0x74, 0x69, 0x61, 0x6c, 0x2f, 0x64, 0x65, 0x6e, 0x73, 0x65, 
    0x2f, 0x42, 0x69, 0x61, 0x73, 0x41, 0x64, 0x64, 0x2f, 0x52, 0x65, 0x61, 
    0x64, 0x56, 0x61, 0x72, 0x69, 0x61, 0x62, 0x6c, 0x65, 0x4f, 0x70, 0x00, 
    0x01, 0x00, 0x00, 0x00, 0x20, 0x00, 0x00, 0x00, 0xde, 0xfe, 0xff, 0xff, 
    0x00, 0x00, 0x00, 0x01, 0x10, 0x00, 0x00, 0x00, 0x10, 0x00, 0x00, 0x00, 
    0x05, 0x00, 0x00, 0x00, 0x44, 0x00, 0x00, 0x00, 0x40, 0xfe, 0xff, 0xff, 
    0x35, 0x00, 0x00, 0x00, 0x61, 0x75, 0x74, 0x6f, 0x65, 0x6e, 0x63, 0x6f, 
    0x64, 0x65, 0x72, 0x2f, 0x73, 0x65, 0x71, 0x75, 0x65, 0x6e, 0x74, 0x69, 
    0x61, 0x6c, 0x2f, 0x64, 0x65, 0x6e, 0x73, 0x65, 0x5f, 0x31, 0x2f, 0x42, 
    0x69, 0x61, 0x73, 0x41, 0x64, 0x64, 0x2f, 0x52, 0x65, 0x61, 0x64, 0x56, 
    0x61, 0x72, 0x69, 0x61, 0x62, 0x6c, 0x65, 0x4f, 0x70, 0x00, 0x00, 0x00, 
    0x01, 0x00, 0x00, 0x00, 0x10, 0x00, 0x00, 0x00, 0x3e, 0xff, 0xff, 0xff, 
    0x00, 0x00, 0x00, 0x01, 0x10, 0x00, 0x00, 0x00, 0x10, 0x00, 0x00, 0x00, 
    0x04, 0x00, 0x00, 0x00, 0x44, 0x00, 0x00, 0x00, 0xa0, 0xfe, 0xff, 0xff, 
    0x37, 0x00, 0x00, 0x00, 0x61, 0x75, 0x74, 0x6f, 0x65, 0x6e, 0x63, 0x6f, 
    0x64, 0x65, 0x72, 0x2f, 0x73, 0x65, 0x71, 0x75, 0x65, 0x6e, 0x74, 0x69, 
    0x61, 0x6c, 0x5f, 0x31, 0x2f, 0x64, 0x65, 0x6e, 0x73, 0x65, 0x5f, 0x34, 
    0x2f, 0x42, 0x69, 0x61, 0x73, 0x41, 0x64, 0x64, 0x2f, 0x52, 0x65, 0x61, 
    0x64, 0x56, 0x61, 0x72, 0x69, 0x61, 0x62, 0x6c, 0x65, 0x4f, 0x70, 0x00, 
    0x01, 0x00, 0x00, 0x00, 0x03, 0x00, 0x00, 0x00, 0x9e, 0xff, 0xff, 0xff, 
    0x00, 0x00, 0x00, 0x01, 0x10, 0x00, 0x00, 0x00, 0x10, 0x00, 0x00, 0x00, 
    0x03, 0x00, 0x00, 0x00, 0x44, 0x00, 0x00, 0x00, 0x00, 0xff, 0xff, 0xff, 
    0x37, 0x00, 0x00, 0x00, 0x61, 0x75, 0x74, 0x6f, 0x65, 0x6e, 0x63, 0x6f, 
    0x64, 0x65, 0x72, 0x2f, 0x73, 0x65, 0x71, 0x75, 0x65, 0x6e, 0x74, 0x69, 
    0x61, 0x6c, 0x5f, 0x31, 0x2f, 0x64, 0x65, 0x6e, 0x73, 0x65, 0x5f, 0x33, 
    0x2f, 0x42, 0x69, 0x61, 0x73, 0x41, 0x64, 0x64, 0x2f, 0x52, 0x65, 0x61, 
    0x64, 0x56, 0x61, 0x72, 0x69, 0x61, 0x62, 0x6c, 0x65, 0x4f, 0x70, 0x00, 
    0x01, 0x00, 0x00, 0x00, 0x20, 0x00, 0x00, 0x00, 0x00, 0x00, 0x16, 0x00, 
    0x18, 0x00, 0x14, 0x00, 0x00, 0x00, 0x10, 0x00, 0x0c, 0x00, 0x08, 0x00, 
    0x00, 0x00, 0x00, 0x00, 0x00, 0x00, 0x07, 0x00, 0x16, 0x00, 0x00, 0x00, 
    0x00, 0x00, 0x00, 0x01, 0x10, 0x00, 0x00, 0x00, 0x10, 0x00, 0x00, 0x00, 
    0x02, 0x00, 0x00, 0x00, 0x44, 0x00, 0x00, 0x00, 0x78, 0xff, 0xff, 0xff, 
    0x37, 0x00, 0x00, 0x00, 0x61, 0x75, 0x74, 0x6f, 0x65, 0x6e, 0x63, 0x6f, 
    0x64, 0x65, 0x72, 0x2f, 0x73, 0x65, 0x71, 0x75, 0x65, 0x6e, 0x74, 0x69, 
    0x61, 0x6c, 0x5f, 0x31, 0x2f, 0x64, 0x65, 0x6e, 0x73, 0x65, 0x5f, 0x32, 
    0x2f, 0x42, 0x69, 0x61, 0x73, 0x41, 0x64, 0x64, 0x2f, 0x52, 0x65, 0x61, 
    0x64, 0x56, 0x61, 0x72, 0x69, 0x61, 0x62, 0x6c, 0x65, 0x4f, 0x70, 0x00, 
    0x01, 0x00, 0x00, 0x00, 0x10, 0x00, 0x00, 0x00, 0x00, 0x00, 0x16, 0x00, 
    0x1c, 0x00, 0x18, 0x00, 0x00, 0x00, 0x14, 0x00, 0x10, 0x00, 0x0c, 0x00, 
    0x00, 0x00, 0x00, 0x00, 0x08, 0x00, 0x07, 0x00, 0x16, 0x00, 0x00, 0x00, 
    0x00, 0x00, 0x00, 0x01, 0x14, 0x00, 0x00, 0x00, 0x20, 0x00, 0x00, 0x00, 
    0x20, 0x00, 0x00, 0x00, 0x01, 0x00, 0x00, 0x00, 0x38, 0x00, 0x00, 0x00, 
    0x02, 0x00, 0x00, 0x00, 0xff, 0xff, 0xff, 0xff, 0x03, 0x00, 0x00, 0x00, 
    0x04, 0x00, 0x04, 0x00, 0x04, 0x00, 0x00, 0x00, 0x19, 0x00, 0x00, 0x00, 
    0x73, 0x65, 0x72, 0x76, 0x69, 0x6e, 0x67, 0x5f, 0x64, 0x65, 0x66, 0x61, 
    0x75, 0x6c, 0x74, 0x5f, 0x69, 0x6e, 0x70, 0x75, 0x74, 0x5f, 0x31, 0x3a, 
    0x30, 0x00, 0x00, 0x00, 0x02, 0x00, 0x00, 0x00, 0x01, 0x00, 0x00, 0x00, 
    0x03, 0x00, 0x00, 0x00, 0x02, 0x00, 0x00, 0x00, 0x20, 0x00, 0x00, 0x00, 
    0x04, 0x00, 0x00, 0x00, 0xf4, 0xff, 0xff, 0xff, 0x0e, 0x00, 0x00, 0x00, 
    0x00, 0x00, 0x00, 0x0e, 0x0c, 0x00, 0x0c, 0x00, 0x0b, 0x00, 0x00, 0x00, 
    0x00, 0x00, 0x04, 0x00, 0x0c, 0x00, 0x00, 0x00, 0x09, 0x00, 0x00, 0x00, 
    0x00, 0x00, 0x00, 0x09
};

#endif //AUTOENCODER_MODEL_H